#version: 0.2
a n
a n</w>
e r
i n
e n
t h
a r
l a
an g</w>
a t
u n
i t
s e
a k
o n
a t</w>
th e</w>
a l
a s
o r
e m
in g</w>
d a
t i
a m
e s
d i
m en
i n</w>
o n</w>
e r</w>
t o</w>
y a</w>
i s</w>
i l
b a
i s
t u
r e
a d
r o
k an</w>
y ang</w>
o f</w>
e d</w>
o u
e l
an d</w>
an g
t a
h a
p er
b er
b u
a l</w>
e s</w>
a g
u s
d an</w>
t er
a p
o r</w>
o m
l e
i k
a s</w>
en g
k e
an y
u r
g a</w>
e n</w>
d i</w>
la h</w>
s a</w>
i t</w>
i c
m em
t r
t e
s a
b e
T h
s i
l o
a c
o u</w>
tu k</w>
v e</w>
in g
d a</w>
ak an</w>
any any
a r</w>
a h</w>
u m
A n
u l
un tuk</w>
i m
ad a</w>
o l
ar i</w>
men g
i r
n o
y ou</w>
a y</w>
k a</w>
w h
u n</w>
i g
n ya</w>
at i
d u
l e</w>
p ro
a k</w>
d e
s u
ar a</w>
a b
th at</w>
l y</w>
n a</w>
p e
a h
eng an</w>
o s
f or</w>
on g</w>
b i
in i</w>
c h
m er
n e
u s</w>
t s</w>
d engan</w>
i a</w>
la m</w>
n g</w>
a w
ar e</w>
da k</w>
p en
l i
un g
Th e</w>
th e
s t
o p
p ada</w>
b e</w>
j u
m a
h i
v er
it h</w>
d ari</w>
m e
a i</w>
ti dak</w>
r i
c e</w>
k u
ou r</w>
c on
k a
ba g
o o
c om
er e</w>
un g</w>
An da</w>
w ith</w>
t er</w>
anyany anyany
i k</w>
p at</w>
f or
r es
as i</w>
da lam</w>
a da
t i</w>
t o
m an
it u</w>
I n
am a</w>
t a</w>
a y
en t</w>
or ang</w>
h an</w>
i r</w>
l u
b o
s h
i d
S e
m ga</w>
e ka</w>
i an</w>
it a</w>
p u
m u
m as
ati on</w>
on e</w>
r a
an ya</w>
d o
s i</w>
ha ve</w>
ang an</w>
no t</w>
a la
c o
ap a</w>
w e
m e</w>
c i
a u</w>
m ak
e t</w>
w as</w>
ada lah</w>
y es
l d</w>
ou t</w>
e x
w a</w>
bu t</w>
mer eka</w>
yes yes
al l</w>
il l</w>
w or
ig h
p ar
h ar
it y</w>
m o
p o
ta h
en t
th er</w>
y our</w>
an d
c an</w>
k am
b y</w>
a an</w>
le h</w>
at a</w>
on s</w>
u p
ro m</w>
an a</w>
ad i</w>
e c
f f
s o</w>
t ing</w>
at an</w>
er s</w>
g i</w>
k e</w>
ti on</w>
a m</w>
q u
t h</w>
th is</w>
i d</w>
k ar
an t
p or
f rom</w>
am p
c h</w>
h e</w>
da pat</w>
n g
y e
w ill</w>
h e
s er
v er</w>
u t
p eng
n i
la m
em b
ang g
at u</w>
k an
b is
an da</w>
at au</w>
a p</w>
bi h</w>
ba h
j adi</w>
in e</w>
ik a</w>
at e</w>
u t</w>
k er
it i
te lah</w>
t ed</w>
di a</w>
es s</w>
u m</w>
a ya</w>
as a</w>
p la
i l</w>
le bih</w>
j a</w>
ou ld</w>
p ag
b el
p an
p a</w>
k o
h at</w>
d s</w>
w e</w>
k u</w>
s en
h o
u g
r e</w>
sa ya</w>
anyanyanyany anyanyanyany
or e</w>
i kan</w>
p em
A l
se d</w>
on al</w>
u p</w>
v i
s t</w>
da h</w>
an t</w>
al ly</w>
s e</w>
h in
g un
b en
P er
es t</w>
the y</w>
ha s</w>
di r
k al
igh t</w>
a d</w>
e l</w>
I t</w>
m in
g o
p i</w>
u h</w>
k o</w>
am e</w>
s o
d o</w>
s tr
p l
se l
t em
b ar
e v
k ita</w>
c e
d er
p r
f e
k on
k no
g i
p as
bag ai</w>
d e</w>
se s</w>
i b
l ik
ou r
ju ga</w>
an an</w>
men t</w>
us t</w>
n ga</w>
bis a</w>
m at
us e</w>
m y</w>
om e</w>
o leh</w>
l u</w>
a g</w>
p os
al a</w>
i h</w>
d it
t ak
tah un</w>
o d</w>
c ara</w>
W A
i p
c k</w>
ik i</w>
kam i</w>
s it
c u
t u</w>
g r
m an</w>
k s</w>
h is</w>
i c</w>
a v
d ing</w>
ar i
m el
ti me</w>
WA WA
K e
ak u</w>
t en
yesyes yesyes
b any
s in
m ar
a in</w>
m ag
da y</w>
me la
ta pi</w>
s y
a j
the ir</w>
w n</w>
wh o</w>
s atu</w>
m ore</w>
ic e</w>
b a</w>
y o</w>
k at
t in
men jadi</w>
ic h</w>
ar an</w>
p at
men y
dir i</w>
la in</w>
o ther</w>
k ing</w>
il a</w>
ung k
ab out</w>
c a
Y ou</w>
pro du
bah wa</w>
u r</w>
d er</w>
e g
per ti</w>
ba ik</w>
t ing
oo d</w>
s ur
b es
bu at</w>
n am
j e
mem il
op le</w>
c re
di s
in ter
em u
tu r
el l</w>
W h
l an</w>
an c
o un
for m
bany ak</w>
i f</w>
os t</w>
m ay</w>
wh at</w>
th ing</w>
k en
al so</w>
e y</w>
s ama</w>
t e</w>
it o</w>
se bagai</w>
U n
d es
b le</w>
th ere</w>
g et</w>
H o
p res
g e
ta k</w>
ver y</w>
I n</w>
f in
r is
ke pada</w>
w i
wh ich</w>
g e</w>
g u
Th is</w>
An g</w>
u k
w ar
se perti</w>
s is
pe ople</w>
en ce</w>
t ent
the m</w>
lik e</w>
b il
C h
p re
sa id</w>
k el
ku kan</w>
t an
p ara</w>
h ari</w>
ber apa</w>
t or
as e</w>
f ir
k at</w>
al an</w>
a f
l l</w>
ag e</w>
t y</w>
en a</w>
u b
it s</w>
an nya</w>
i es</w>
gun akan</w>
bes ar</w>
se mu
n o</w>
p in
R e
n ag
se but</w>
ung an</w>
al i</w>
m o</w>
is ang</w>
wh en</w>
u k</w>
memil iki</w>
W e</w>
b r
a u
ar y</w>
m on
k as
p ak
o s</w>
n i</w>
H e</w>
be en</w>
at ed</w>
an ak</w>
a in
b er</w>
t or</w>
es e</w>
m il
ang at</w>
P ro
en c
ha d</w>
f u
a lah</w>
c t</w>
am i</w>
ou s</w>
se m
b l
du a</w>
d on</w>
i la
ou g
ne g
ar s</w>
ul a</w>
in a</w>
f ac
g an
u la
p an</w>
i z
om e
ak o</w>
w ere</w>
en ts</w>
p h
ha l</w>
an s
t w
ab le</w>
p un
el y</w>
h er</w>
e k
i m</w>
t ro
al ing</w>
s pe
f e</w>
mem ber
re e</w>
semu a</w>
on g
se orang</w>
s ing</w>
u h
bu ah</w>
la k
k om
c ur
B er
har us</w>
bo leh</w>
al l
anyanyanyanyanyanyanyany anyanyanyanyanyanyanyany
t an</w>
I s
ol d</w>
ba ha
ar kan</w>
h anya</w>
kno w</w>
mem b
k ata</w>
s p
an ce</w>
m is
la lu</w>
a di
co un
An d</w>
w s</w>
f il
ing s</w>
in c
s um
l ine</w>
i y
s angat</w>
per t
d y</w>
os e</w>
th an</w>
ti ons</w>
j ust</w>
c ar
f a
lo o
N e
w ould</w>
s ta
be berapa</w>
w ak
h el
ungk in</w>
in ya</w>
p ol
s te
i e
k ung</w>
c or
an y</w>
I f</w>
la y
bar u</w>
M ar
N o
k em
c er
at ing</w>
ha p
ti v
r it
en er
in d
se cara</w>
on ly</w>
ad e</w>
S aya</w>
o b
un ia</w>
an s</w>
y s</w>
t en</w>
ti m
ti ka</w>
k ap
B e
g ra
lam a</w>
m ost</w>
ter sebut</w>
com e</w>
kar ena</w>
ti c
g am
in k</w>
w ay</w>
tr y</w>
n ing</w>
y ing</w>
it as</w>
p ri
lo g
ang kan</w>
d ang</w>
d ed</w>
n ak
l ang
a ha
hi m</w>
as an</w>
at as</w>
w ant</w>
hin di</w>
c tion</w>
oo k</w>
n y
A r
be t
ac h</w>
f i
la s
en g</w>
v ing</w>
r um
ati ons</w>
ah an</w>
fir st</w>
u an</w>
ca use</w>
as i
am an</w>
as t</w>
bi l</w>
r em
h ing
mak e</w>
e p
G od</w>
m un
g o</w>
t el
la gi</w>
A mer
l is
ne w</w>
b an
m ungkin</w>
ti ap</w>
o k
bag i</w>
M e
ar t</w>
tent ang</w>
g ro
l ang</w>
su p
man a</w>
d r
f r
ic al</w>
c ap
D i
s ome</w>
j ika</w>
a lam</w>
kal i</w>
at ur
in an</w>
it e</w>
ho w</w>
wor k</w>
s on</w>
o c
aw a</w>
S t
v ed</w>
sa at</w>
s tu
WAWA WAWA
h as
us ia</w>
in to</w>
v es</w>
re d</w>
M o
bu r
Al lah</w>
p el
h a</w>
it i</w>
B ut</w>
al s</w>
se buah</w>
at i</w>
L e
hi du
o ff
k un
yesyesyesyes yesyesyesyes
s ak
a w</w>
u e</w>
ker ja</w>
im a</w>
y an</w>
is i</w>
g re
neg ara</w>
te tapi</w>
h kan</w>
In i</w>
s ti
k ur
ba h</w>
s ome
per i
sh o
mem buat</w>
ing in</w>
man y</w>
d unia</w>
T er
il ang</w>
r y</w>
id e</w>
u han</w>
m us
oun d</w>
ben ar</w>
D e
ar d</w>
ta l</w>
si a</w>
k ed</w>
fu l</w>
T O
u g</w>
si on</w>
di ff
in v
M en
en ti
w an</w>
wor ld</w>
o f
l a</w>
l ar
il y</w>
no w</w>
j o
mas a</w>
for e</w>
b ak
k es
ro ug
k emb
W hat</w>
ne ed</w>
por t</w>
p ul
w er</w>
T e
a im
tw o</w>
la s</w>
si m
g ood</w>
ak e</w>
tu re</w>
em ent</w>
te l</w>
K E
ha da
be cause</w>
at akan</w>
es s
э э
us tr
t al
en d</w>
P e
Th ere</w>
re s</w>
oug h</w>
d at
bel um</w>
y p
ba han</w>
si g
se k
men j
ari pada</w>
o ver</w>
wak tu</w>
p aling</w>
A ku</w>
su dah</w>
in form
ati onal</w>
m i</w>
sel f</w>
k in
ing g
hing ga</w>
il i
T i
Th ey</w>
w ell</w>
u ang</w>
ba r</w>
por t
iti on</w>
men ye
tak e</w>
J ika</w>
M er
de v
d em
se e</w>
hi r</w>
d aripada</w>
sh e</w>
is i
af ter</w>
w at
p on
ta r</w>
gra m</w>
p ik
ci al</w>
si ya</w>
p le
sh ould</w>
C on
sen diri</w>
ye ars</w>
di c
P en
d ar
li fe</w>
be g
sa lah</w>
il l
e p</w>
t om
b ang
f t</w>
ba ck</w>
pro v
P ar
mem per
t ar
r ight</w>
TO L</w>
meng gunakan</w>
ba y
s an</w>
s ar
KE TOL</w>
is h</w>
di an</w>
ay s</w>
t on</w>
th en</w>
B u
ba b
K ami</w>
in ta
m ah
se tiap</w>
d re
D ia</w>
mas uk</w>
il e</w>
ap an</w>
b lo
se j
n ed</w>
s hi
la kukan</w>
O n
ye ar</w>
g er
an o</w>
se su
a ir</w>
bag ian</w>
la r</w>
a b</w>
p ur
la i</w>
tem pat</w>
o t</w>
la j
l es</w>
it ed</w>
wh ere</w>
C hin
b ang</w>
c ould</w>
th ese</w>
ch ang
k ak
ev en</w>
ke tika</w>
p un</w>
kam u</w>
y on</w>
d on
ec t</w>
i al</w>
S er
da g
c en
w an
wi th
mela kukan</w>
ti k</w>
iti es</w>
al i
n ah</w>
di k
ap i</w>
per lu</w>
lo w</w>
it an</w>
S o</w>
m u</w>
e k</w>
oo l</w>
tah u</w>
u sed</w>
pen y
at es</w>
b in
p ang
ag a</w>
da pat
tr ans
ti ve</w>
al ang</w>
mel i
an i</w>
ba w
on line</w>
o m</w>
v en</w>
S u
am bil</w>
E S
re ad
kel u
c r
ant u</w>
b al
h u
ke t</w>
ting gi</w>
O r
w ays</w>
C om
p s</w>
th ink</w>
s ol
p le</w>
ser v
sit e</w>
l ong</w>
t le</w>
th roug
j i</w>
h t</w>
lo w
M an
su ch</w>
pert ama</w>
ch il
c ol
ing an</w>
ter s</w>
b at
o per
or y</w>
n a
emb er</w>
h ir
go ing</w>
L i
ac h
J o
re la
di per
d ata</w>
D an</w>
ba c
bu kan</w>
s amp
f ol
m a</w>
в в
ant ara</w>
P r
diff er
s k
o k</w>
d n</w>
kan nya</w>
s al
p i
rum ah</w>
r en
t am
D i</w>
k ah</w>
R o
is h
d ak
sur e</w>
f ri
ik at</w>
n um
p a
F or</w>
lak i</w>
up akan</w>
In ter
p am
d in
re c
l i</w>
f am
k er</w>
j en
f es
th er
to o</w>
al is
e a</w>
c ess</w>
e f
se t</w>
l an
ne t</w>
aim ana</w>
u c
de o</w>
W or
l and</w>
th ose</w>
be fore</w>
meng atakan</w>
sa y</w>
kar ang</w>
h ere</w>
M a
b ook</w>
el i
p es
ver y
U ni
p op
b as
or m
l im
hel p</w>
de c
ah a</w>
h ig
per nah</w>
ak hir</w>
g ame</w>
l in
A p
mu ch</w>
um an</w>
ch o
u i</w>
ver s
e m</w>
P eng
Wh en</w>
ni ya</w>
h i</w>
il an</w>
is e</w>
at kan</w>
per c
m es
it al</w>
si de</w>
un der
meli hat</w>
mer upakan</w>
b est</w>
tr i
s ame</w>
A t</w>
ac e</w>
P ada</w>
lo t</w>
h ub
b at</w>
T o
inc lu
mas ih</w>
ma in</w>
s am
ur an</w>
ka u</w>
m ade</w>
ab i</w>
B ag
ha k</w>
du c
or gan
g al</w>
T r
se lama</w>
dapat kan</w>
Chin a</w>
b or
d as
ta in
ut ama</w>
e ar
da r</w>
p er</w>
B ar
throug h</w>
te m</w>
ci l</w>
Th at</w>
un ju
ke un</w>
un an</w>
im p
sti ll</w>
ti ga</w>
nam an</w>
be ing</w>
se ar
for m</w>
sa ja</w>
anyanyanyanyanyanyanyanyanyanyanyanyanyanyanyany anyanyanyanyanyanyanyanyanyanyanyanyanyanyanyany
in kan</w>
it u
p ad
lo ve</w>
pen ting</w>
h an
bu lan</w>
v en
c lo
hada p</w>
b ro
bo dy</w>
j ang</w>
n is</w>
bu sin
B o
memb antu</w>
Y E
em s</w>
pun y
S y
Un tuk</w>
ti f</w>
M as
ti c</w>
se r</w>
mas alah</w>
sel ur
f er
S a</w>
men c
tu m
In don
a z
su b
p ap
l it
Mer eka</w>
di d</w>
hidu p</w>
n er</w>
puny ai</w>
a ve</w>
lo c
k ir
e un</w>
um lah</w>
ce p
us aha
k ang</w>
d ur
Amer ika</w>
H e
dev el
pla ce</w>
is a</w>
k si</w>
in o</w>
re qu
M eng
o wn</w>
ter hadap</w>
es t
g ar
le t</w>
S h
ES YE
j alan</w>
Indon es
y o
di gunakan</w>
Ti dak</w>
we b</w>
k um
e ver</w>
l ess</w>
el l
pla y
A s</w>
com pan
ir an</w>
or s</w>
un ya</w>
lu i</w>
ESYE ESYE
se telah</w>
w om
pu an</w>
K ar
mem punyai</w>
in f
f ic
ba l</w>
es us</w>
H in
ou se</w>
emu kan</w>
emu dian</w>
ic k</w>
ang ka</w>
le v
t re
aw an</w>
un i
usaha an</w>
ti kan</w>
c an
f ul
b re
j al
n ational</w>
ic es</w>
vi e
D alam</w>
dat ang</w>
al kan</w>
E x
ste m</w>
do wn</w>
shi p</w>
p o</w>
kemb ali</w>
al ity</w>
d eng
fin d</w>
meng en
di se
m ust</w>
po in
c ri
we en</w>
x t</w>
vi deo</w>
mem bu
men dapatkan</w>
M ak
p ag</w>
ul t</w>
M us
ar ah</w>
and s</w>
ik asi</w>
i ya</w>
k kan</w>
h en
un d</w>
produ k</w>
A d
men er
pu b
ak it</w>
N am
ak ah</w>
M ala
e ff
S a
n ame</w>
ter jadi</w>
d en</w>
u tu
e very
i de
men ts</w>
h ome</w>
ul it</w>
read y</w>
u d
ka la
g ener
Ho tel</w>
tu ju
th ings</w>
c us
ar ing</w>
A c
differ ent</w>
pro gram</w>
h al
e very</w>
l um
par t</w>
Ho w</w>
v ir
tan pa</w>
an u</w>
il angan</w>
I a</w>
L o
c all
P res
l em
lo gi</w>
h us
ba wa</w>
busin ess</w>
mela lui</w>
il i</w>
v is
e d
member ikan</w>
ar ga</w>
Ne w</w>
In g
bah kan</w>
an e</w>
it ar</w>
A pa</w>
le ar
in di
p emb
m ula</w>
si ble</w>
tim es</w>
n ama</w>
P em
ou s
n ess</w>
an j
M em
y s
per s
d ro
la st</w>
Indones ia</w>
g en
la in
lu ar</w>
pla y</w>
ig n</w>
bu il
e t
ben tuk</w>
l ed</w>
E n
in i
s ung</w>
we ver</w>
o w
m ul
bet ween</w>
e ach</w>
co m</w>
D engan</w>
re ally</w>
se belum</w>
se karang</w>
ung g
du k</w>
WAWAWAWA WAWAWAWA
k ah
pu t</w>
t eng
angg o</w>
u ro
bu h</w>
o la
ber ada</w>
im port
do es</w>
tr ac
c our
ung i</w>
ah kan</w>
wh ile</w>
us i</w>
b un
gi ve</w>
we b
ke se
ber sama</w>
mak a</w>
an ta
pan jang</w>
la g
men ing
l ing</w>
al ways</w>
m en</w>
m as</w>
w as
t angg
loo k</w>
t yp
some thing</w>
n at
ter masuk</w>
produ c
M es
kun kun
lain nya</w>
ch ar
ay on</w>
la hat</w>
h atan</w>
dre n</w>
hig h</w>
s us
th ree</w>
ir e</w>
A b
baha wa</w>
t ly</w>
bel i
ar ound</w>
s ch
ku p</w>
N o</w>
ke cil</w>
w ala</w>
r am
baw ah</w>
mu dah</w>
g le</w>
man usia</w>
S o
ex peri
k i</w>
s ila</w>
M y</w>
ti on
Hin di</w>
v e
inform ation</w>
Is ra
L O
Amer ic
iy ong</w>
ol a</w>
p us
ati ve</w>
s s</w>
up ang</w>
c ame</w>
ker ana</w>
sis tem</w>
is t</w>
yesyesyesyesyesyesyesyes yesyesyesyesyesyesyesyes
asi onal</w>
lam an</w>
gre at</w>
li on</w>
sesu atu</w>
mu lai</w>
ta in</w>
ver n
g in
num ber</w>
v ari
mat i</w>
a ikan</w>
in st
s m
C o
F or
h ati</w>
w a
E ng
he al
ne ver</w>
u kan</w>
Nam un</w>
meng ambil</w>
in ta</w>
h nya</w>
ala man</w>
p as</w>
selur uh</w>
of f</w>
ter baik</w>
v al
tro l</w>
ker j
pub li
ba b</w>
si al</w>
A S</w>
s at
u al</w>
an ti</w>
T o</w>
d en
par ti
bag aimana</w>
mon ey</w>
S he</w>
ic s</w>
ar nya</w>
ou t
ta p</w>
per usahaan</w>
import ant</w>
se n</w>
h am
res pon
pe c
th ers</w>
D o</w>
ur e</w>
w rit
us a</w>
m p
sear ch</w>
j aw
di n</w>
an k</w>
go t</w>
se hingga</w>
sa ha
th ough</w>
t un
t at
be kerja</w>
laj ar</w>
tr ad
su c
devel op
ma j
tor y</w>
ээ ээ
chang e</w>
bi g</w>
ber be
ser ta</w>
ter us</w>
sy stem</w>
a ja</w>
aw al</w>
P h
m it
fam ily</w>
peng gun
under st
da ys</w>
a ba
W e
A pak
ad d
Apak ah</w>
to p</w>
n ap
pu ter</w>
ka ya</w>
has il</w>
st ar
u j
m al
m ata</w>
el s</w>
t ara</w>
us an</w>
m s</w>
wan ita</w>
e h</w>
H ar
unju kkan</w>
ci p
F e
u bah</w>
con tin
ac e
pro fes
ma inan</w>
r in</w>
A s
n ak</w>
y ak
te ch
T uhan</w>
il kan</w>
ken al</w>
spe ci
sit us</w>
enc y</w>
s ing
ik ut</w>
aw ay</w>
jen is</w>
bis nis</w>
k aw
di g
with out</w>
me dia</w>
fil m</w>
as on</w>
an kan</w>
j am</w>
log y</w>
Ch ris
k emudian</w>
is tr
wh y</w>
ent ly</w>
m i
k ini</w>
ul is</w>
vers ity</w>
samp ai</w>
G oo
On e</w>
member i</w>
di lakukan</w>
pop ula
d om
pro te
B r
ko ta</w>
f un
o p</w>
ik o</w>
s ini</w>
sek itar</w>
or t</w>
se g
P as
ili han</w>
C ar
li hat</w>
Al l</w>
chil dren</w>
b an</w>
M in
c ess
ut an</w>
ag ain</w>
se dang</w>
p ang</w>
t ung
um nya</w>
call ed</w>
w in
us ing</w>
mem as
or a</w>
h at
e as
ber kata</w>
wat er</w>
S em
f ound</w>
lu kan</w>
am ing</w>
em p
g as</w>
A f
p ly</w>
meng e
la ku</w>
pl ic
Y ang</w>
f ree</w>
ak ing</w>
ang i</w>
la t</w>
ke dua</w>
or der</w>
pol it
bet ter</w>
tr a
r a</w>
o l</w>
n ang</w>
tu r</w>
t es</w>
kno wn</w>
c as
isi on</w>
ab il
per son</w>
up un</w>
bel ie
pl an
d ge</w>
d ul
kat kan</w>
c es</w>
ain st</w>
a uh</w>
f o
ou l
A g
lang sung</w>
o ta</w>
com ple
Un ited</w>
cur r
K ita</w>
er a</w>
k anggo</w>
se le
de pan</w>
R es
bo th</w>
in cre
ip un</w>
w ang</w>
tent u</w>
ke p
m ang
F r
and ing</w>
du r</w>
Mala y
g lo
s ana</w>
y ong</w>
P o
ne e
an other</w>
fe el</w>
st at
oug ht</w>
s an
A N
er i</w>
meng h
war d</w>
com mun
ne xt</w>
M on
at h</w>
d ri
k asi</w>
T api</w>
men emukan</w>
di dn</w>
n s</w>
ag ainst</w>
ik u</w>
or i</w>
g aw
id ent</w>
st art</w>
ba s</w>
bab kan</w>
z e</w>
o g</w>
E uro
A da</w>
ing k
ta s</w>
hi l</w>
K or
j ar
k ay</w>
lit tle</w>
ap kan</w>
cu kup</w>
P ag
ti l</w>
w it
Isra el</w>
har ga</w>
Goo gle</w>
k ad
b it</w>
da ya</w>
G r
ce pat</w>
j ect</w>
or d</w>
G re
un a</w>
ap pe
y ung</w>
h ol
ou th</w>
T im
fe w</w>
li m</w>
ar ti
ta u</w>
B i
dur ing</w>
bi asa</w>
K a
la p
ab ila</w>
se lalu</w>
ut e</w>
pem ain</w>
uh i</w>
al nya</w>
per gi</w>
c le
ic i
T u
fac e</w>
d ina</w>
men unjukkan</w>
se l</w>
en ds</w>
am in</w>
inta h</w>
h os
g ian</w>
m akan</w>
P ol
ap akah</w>
compan y</w>
mak anan</w>
l ight</w>
hap p
so ci
hub ungan</w>
h er
ta o</w>
t ting</w>
at e
te tap</w>
t it
web site</w>
U S</w>
p e</w>
m ight</w>
ma il</w>
ad v
G u
un der</w>
tu an</w>
g an</w>
ala mi</w>
c al
si onal</w>
atur e</w>
S i
p atan</w>
per k
M ay</w>
di di
p ed</w>
ma a
se s
b u</w>
as anya</w>
ko lah</w>
tuju an</w>
th s</w>
de l</w>
n ang
go vern
h is
in s</w>
I N
at or</w>
stu d
t ang</w>
coun try</w>
je un</w>
b ig
ce i
ka p</w>
em pat</w>
J esus</w>
y e</w>
be come</w>
inform asi</w>
bak al</w>
j umlah</w>
com es</w>
ak a</w>
prov id
M ag
qu es
le ad
be l</w>
par t
ter i</w>
cor ding</w>
c l
Q u
n al</w>
pr in
c k
c at
sin ce</w>
r u
bac a</w>
ber main</w>
tah ui</w>
se kali</w>
dik it</w>
ant ung</w>
ti n</w>
S p
y g</w>
t est</w>
Malay sia</w>
m ur
D is
ish ed</w>
K er
op e</w>
de pen
tor s</w>
ku at</w>
si ve</w>
ar ea</w>
ind ustr
m or
pem er
ati f</w>
Jo h
tu a</w>
da d</w>
on es</w>
p il
y a
se con
w al
l o</w>
at u
y ar
sp ir
per mainan</w>
wor d</w>
la ga</w>
ib a</w>
di ber
po wer</w>
h ouse</w>
вв вв
ang kat</w>
k al</w>
g ag
se seorang</w>
b le
ma g</w>
bu tu
D es
Ho wever</w>
p ing</w>
li ve</w>
a ian</w>
mem er
h igh
S en
v o
do m</w>
D on</w>
A m
u ku
bah asa</w>
el ec
ke ep</w>
kur ang</w>
vie w</w>
U S
ingg u</w>
is an</w>
man ag
ber bagai</w>
ur ut</w>
n asional</w>
es n</w>
n u</w>
J e
A ustr
ph one</w>
kelu arga</w>
l s</w>
ay o</w>
bu k
te am</w>
teng ah</w>
C ol
mening katkan</w>
g ir
A k
us to</w>
har d</w>
m ac
w ing</w>
tur n</w>
ak ong</w>
se dikit</w>
t es
sit u
om i</w>
A N</w>
P an
M ic
G o
Uni versity</w>
beli au</w>
Is lam</w>
en tu
menc ari</w>
O n</w>
ac coun
ta ble</w>
S am
b i</w>
Wor ld</w>
da hil</w>
bel i</w>
r i</w>
J adi</w>
ta i</w>
E ro
la w</w>
W ith</w>
k hus
a ir
pos sible</w>
ag o</w>
F ace
G er
fol low
le c
b ir
res s</w>
c i</w>
ti m</w>
inclu ding</w>
su atu</w>
el e
M at
to day</w>
pro ses</w>
beg itu</w>
I r
ak si</w>
berbe da</w>
J er
ar ik</w>
No w</w>
ma y
do esn</w>
j auh</w>
con si
Y our</w>
po k</w>
s as
re g
sa ys</w>
en ough</w>
ac k</w>
o ver
B el
w on</w>
ac tiv
d ate</w>
igh ts</w>
L ord</w>
b ic
our s</w>
l ig
ac t</w>
b it
j ec
enc es</w>
wom en</w>
tu s</w>
i on</w>
n ila</w>
t ent</w>
t angan</w>
d es</w>
kan yang</w>
e qu
ser ing</w>
cus tom
us aha</w>
j ur
av a
ko k</w>
K u
cap ai</w>
he art</w>
p ilihan</w>
K on
ba sed</w>
S in
p li
s ik
Wh y</w>
is asi</w>
re ad</w>
kno logi</w>
An g
ul ang</w>
N or
ati an</w>
aw at</w>
im o</w>
a sed</w>
con om
K am
me ans</w>
G e
y es</w>
angg ap</w>
ti h</w>
ma u</w>
I S
ro om</w>
si apa</w>
am s</w>
hi d
ap un</w>
w er
J u
S ur
D u
ar ti</w>
en d
Face book</w>
of ten</w>
F il
sa an</w>
mar ket</w>
i f
por ts</w>
t ang
t ong</w>
se ver
sup port</w>
ju ta</w>
f ood</w>
N A
n orm
gr is</w>
mas ing</w>
ak at</w>
ha y</w>
ge ther</w>
sak a</w>
la ck</w>
c ul
iz ed</w>
un til</w>
an i
pik ir</w>
sm all</w>
el u
aw arkan</w>
publi c</w>
mengen ai</w>
lo ad</w>
ba di</w>
o thers</w>
ak hir
sy ar
d one</w>
Ke tika</w>
c ha
hidu pan</w>
di t</w>
a il</w>
H al</w>
pos iti
re cei
ku al
h and</w>
su ka</w>
to s</w>
a ff
bar ang</w>
re al</w>
c ity</w>
poin t</w>
an ti
I s</w>
ang nya</w>
ap pro
at is</w>
M u
oul dn</w>
Af ter</w>
di re
ex amp
has ilkan</w>
H is</w>
r asa</w>
a i
lay anan</w>
blo g</w>
u w
W in
cour se</w>
y ak</w>
mil lion</w>
ba ba
w in</w>
c las
c are</w>
v ol
s or
govern ment</w>
eff ec
re f
o on</w>
Ing gris</w>
t anya</w>
com ing</w>
c ase</w>
bu ku</w>
ung si</w>
ud ara</w>
sho w</w>
In dia</w>
di akan</w>
ber g
n ight</w>
N ag
ib u</w>
f as
ta han</w>
pik eun</w>
bel umnya</w>
co ba</w>
belie ve</w>
T ur
p ic
amp ir</w>
k ong</w>
tu buh</w>
hap pen
glo bal</w>
at nya</w>
s ul
A sia</w>
serv ice</w>
fri end</w>
ber laku</w>
T V</w>
te k
r ang
lev el</w>
sch ool</w>
un dang</w>
bil ang</w>
op en</w>
t old</w>
se p
mel e
memil ih</w>
er ah</w>
men ingg
C en
ong an</w>
st ate</w>
b o</w>
k or
gr ap
gro up</w>
deng ar</w>
is ti
je ung</w>
se kolah</w>
mener ima</w>
tr a</w>
th y</w>
to gether</w>
h um
ke n</w>
a ut
inter net</w>
us nya</w>
ak nya</w>
us u
g y</w>
is su
experi ence</w>
g er</w>
i ous</w>
em ents</w>
je las</w>
Or ang</w>
S te
as al</w>
di o</w>
fi ed</w>
f ak
ti s</w>
ava ila
sak it</w>
S el
un it</w>
A fr
A l</w>
ap lik
g um
fil e</w>
heal th</w>
K ung</w>
po ten
al ready</w>
ag es</w>
se dia</w>
pro bl
s ci
mem en
S E
ada an</w>
F in
ic ally</w>
la y</w>
im an</w>
D o
su k
sh all</w>
qu e</w>
f oo
Se telah</w>
K ris
b all</w>
wor king</w>
um um</w>
ap os</w>
e ta</w>
da f
ke ku
kom un
K om
with in</w>
c ed</w>
al ia</w>
mem bawa</w>
t asi</w>
tr ies</w>
ad o</w>
an al
as k</w>
h in</w>
m m</w>
h uman</w>
R us
ESYEESYE ESYEESYE
men arik</w>
ha ving</w>
z a</w>
ik ian</w>
c ar</w>
r up
jal anan</w>
sum ber</w>
c o</w>
le ast</w>
at ely</w>
lam at</w>
ik e</w>
S emu
i p</w>
t ell</w>
p ay</w>
con d
ang k
secon d</w>
at ta
i e</w>
y our
th em
wor ds</w>
om pok</w>
lu b</w>
du duk</w>
nam un</w>
Te tapi</w>
ke l</w>
n on</w>
l eng
imp in</w>
ing at</w>
ar aw</w>
bu t
ju al</w>
ke hidupan</w>
da h
I tu</w>
id enti
Th ese</w>
pi hak</w>
ter akhir</w>
y at</w>
amp u</w>
me di
M ga</w>
e kon
n e</w>
pro cess</w>
g ak</w>
m ap
is m</w>
er ing</w>
pe kerj
m at</w>
v id
la te</w>
angg an</w>
peng alaman</w>
on a</w>
w aj
u bahan</w>
C ity</w>
pe t
k ipun</w>
m os
t amp
loo king</w>
ex c
bu ka</w>
examp le</w>
i alah</w>
fri ends</w>
pas ti</w>
yar akat</w>
lam ang</w>
wh e
m am
so cial</w>
en si</w>
perc aya</w>
mak ing</w>
be lajar</w>
ma lam</w>
P ara</w>
as aan</w>
bic ara</w>
p ay
do ing</w>
id s</w>
ku m</w>
f at</w>
ting kat</w>
men tal</w>
lo lo
ni lai</w>
availa ble</w>
kala u</w>
chil d</w>
gam bar</w>
underst and</w>
bil ity</w>
ol e</w>
ng ayon</w>
ar ly</w>
at er</w>
ke y</w>
s po
we e
en ter
ter lalu</w>
ha m</w>
b oo
in ten
h on
la w
mem ang</w>
sesu ai</w>
o v
ting gal</w>
do k
n er
mil it
produc ts</w>
ke j
menye babkan</w>
on t</w>
kelu ar</w>
peny akit</w>
se belumnya</w>
A R
pen el
tu ally</w>
w ala
ne y</w>
te pat</w>
ir a</w>
i yang</w>
le ft</w>
P a
L et</w>
ter tentu</w>
u d</w>
tem an</w>
ant ed</w>
al e</w>
el d</w>
c ro
un d
bu han</w>
kan an</w>
di sebut</w>
di rec
t akan</w>
S ing
si an</w>
pu tu
h y
an jeun</w>
some one</w>
Th en</w>
dit er
b angan</w>
um a</w>
f our</w>
au th
g est</w>
f f</w>
J angan</w>
m ong</w>
f ar</w>
we ek</w>
it ing</w>
t on
d akan</w>
mus im</w>
em puan</w>
your self</w>
f er</w>
la k</w>
vi du
ti an</w>
l y
m on</w>
K o
sy on</w>
t op
fac t</w>
sej ak</w>
ti ce</w>
con trol</w>
se cur
hu kum</w>
J an
ble m</w>
ous ly</w>
mo der
ri ed</w>
ic k
dar ah</w>
pers onal</w>
ag ar</w>
pas ar</w>
no logy</w>
ful l</w>
bi asanya</w>
L u
ka y
P u
d el
kin d</w>
jaw ab</w>
i red</w>
men capai</w>
Se p
aplik asi</w>
E R
pos t</w>
mer asa</w>
e conom
saha ja</w>
pun ya</w>
te knologi</w>
Americ an</w>
c ir
s il
de kat</w>
con ne
gi ven</w>
cri p
am ong</w>
r ak
mat er
ta w
eas y</w>
wi wi
O h</w>
me dic
bal ik</w>
w alang</w>
khus us</w>
I to</w>
C or
st or
tr av
bu hay</w>
it ian</w>
typ e</w>
ek s
e fe
p ati
Joh n</w>
qu ality</w>
ir d</w>
any thing</w>
dem ikian</w>
l ong
la tion</w>
n as
bu l
das arkan</w>
baha gian</w>
atur an</w>
p ho
th ought</w>
pe yan</w>
ik nya</w>
bil e</w>
ak in</w>
res ul
te u</w>
ti dak
norm al</w>
sar eng</w>
le ase</w>
ber arti</w>
de fin
u tion</w>
men dapat</w>
pro blem</w>
iz ation</w>
J ul
inv est
an ts</w>
k ag
l er</w>
k it
o w</w>
tri bu
i bu
ar e
so sial</w>
s ang</w>
en s</w>
H ol
kel ompok</w>
anyanyanyanyanyanyanyanyanyanyanyanyanyanyanyanyanyanyanyanyanyanyanyanyanyanyanyanyanyanyanyany anyanyanyanyanyanyanyanyanyanyanyanyanyanyanyanyanyanyanyanyanyanyanyanyanyanyanyanyanyanyanyany
e ty</w>
penggun a</w>
ap plic
at ur</w>
an im
un t
LO LO
kan ak</w>
ju t
indi vidu
y al</w>
da m</w>
ra in</w>
b on
I I</w>
prov ide</w>
meny er
M is
h it
di es</w>
n ar
C an
em en</w>
every thing</w>
h ampir</w>
inv es
ac c
en jo
meng ur
gam es</w>
or i
pr ac
ay aan</w>
Semu a</w>
S ch
con f
dit o</w>
g n
mas yarakat</w>
angg ota</w>
S up
s le
i j
is n</w>
s un
ben arnya</w>
he ad</w>
mar ke
k r
b ola</w>
di si</w>
ap abila</w>
p is
M ay
J ep
S ome</w>
men awarkan</w>
g ur
b and</w>
kunkun kunkun
il ing</w>
am it</w>
k tif</w>
wom an</w>
oper asi</w>
abil ity</w>
ber si
do w
co ver
meng g
em ail</w>
le laki</w>
WAWAWAWAWAWAWAWA WAWAWAWAWAWAWAWA
pe ci
P ang
h ang</w>
ti ba</w>
as ked</w>
pla t
ac a</w>
P in
f ik
do ws</w>
K en
id en</w>
c all</w>
min d</w>
mah u</w>
mo ther</w>
coun tries</w>
N eg
lang kah</w>
k ab
sel ves</w>
kas ih</w>
tr u
meng alami</w>
i us</w>
Inter net</w>
peng ar
u ti</w>
d ers</w>
ver sit
o ve</w>
m ampu</w>
P al
and ang</w>
sever al</w>
industr i</w>
ap at</w>
le g
pen uh</w>
b ed</w>
j angan</w>
on ce</w>
pri v
iz e</w>
stu dy</w>
nee ds</w>
Y e
ko l</w>
pekerj aan</w>
h im
ba d</w>
da an</w>
fa ther</w>
cep t</w>
n u
ie u</w>
d u</w>
y et</w>
ren dah</w>
kan ilang</w>
B en
per ubahan</w>
m inggu</w>
B a
st ory</w>
tr on
s our
S un
me an</w>
mes in</w>
n atur
L a
ug h
ta an</w>
f av
ec k</w>
k re
H ome</w>
St ates</w>
K ap
l ima</w>
mo del</w>
ala t</w>
su g
Kar ena</w>
w ong</w>
f ungsi</w>
ha ha
ber j
ti al</w>
R om
ide a</w>
pu bl
as ikan</w>
mon ths</w>
per jalanan</w>
ne t
pe ct</w>
w r
dag angan</w>
a ther</w>
ju t</w>
ti dur</w>
A L
p al
ic a</w>
nam in</w>
ac y</w>
K at
se bagian</w>
g usto</w>
blo od</w>
n an
ung gu
str u
st re
kno w
kal ian</w>
se en</w>
accoun t</w>
popula r</w>
serv ices</w>
be tu
je las
ke h
ch ing</w>
fu ture</w>
Kor ea</w>
Ero pa</w>
n ito</w>
ach ine</w>
as ing</w>
produ ksi</w>
ben ef
Austr alia</w>
di b
c la
E mail</w>
meng hasilkan</w>
lis t</w>
No t</w>
tin a</w>
inter es
n ers</w>
ul an</w>
am anan</w>
ac tion</w>
h or
putu san</w>
stud ents</w>
Per o</w>
c am
lis h</w>
ho tel</w>
perk ara</w>
p angg
im ong</w>
bur uk</w>
lar ge</w>
men e
in yo</w>
du kung</w>
S tu
so f
Inter national</w>
it ong</w>
B rit
contin u
yo ung</w>
r ul
u ju
K em
sig ni
des ig
pro gr
w ent</w>
c tor</w>
didi kan</w>
per empuan</w>
follow ing</w>
ur ang</w>
st op</w>
k ulit</w>
ba k</w>
tic s</w>
Y or
s pen
ba dan</w>
f it
n ag</w>
ti g
fi ve</w>
la d</w>
w is
ac ara</w>
K an
ta p
tw are</w>
happ y</w>
d g
di str
G ro
p ir
bi j
oun t</w>
ut es</w>
ungk inkan</w>
at ten
le y</w>
pel anggan</w>
entu kan</w>
il s</w>
ka an</w>
lang u
ak a
str uc
tr ue</w>
tu res</w>
H ere</w>
P i
ta bl
da han</w>
de ath</w>
D r</w>
bay ar</w>
r ah
ter besar</w>
in al</w>
ch ed</w>
Se lain</w>
har ap</w>
der ed</w>
tu al</w>
j u</w>
A T
ungg u</w>
i ah</w>
ekon omi</w>
F ir
m er</w>
mak es</w>
re search</w>
ber at</w>
ol s</w>
K as
f ur
fa at</w>
tr ying</w>
at aan</w>
no thing</w>
diff ic
su s</w>
war ds</w>
mo bil</w>
mem beli</w>
aj aan</w>
kir a</w>
n om
seg ala</w>
d or
Bag aimana</w>
ur a</w>
sing le</w>
kese hatan</w>
W ell</w>
ha di
ge tting</w>
a bu
J un
ah u</w>
ter n</w>
O ur</w>
produ ct</w>
re co
ati c</w>
po ker</w>
in ed</w>
nat in</w>
akhir nya</w>
pu r</w>
di j
mis sion</w>
la ter</w>
in ing</w>
war na</w>
das ar</w>
n load</w>
h r
I m
ээээ ээээ
B ro
si ons</w>
lo g</w>
ta on</w>
ke adaan</w>
re gu
p ula</w>
aw atan</w>
r uang</w>
be lak
men coba</w>
S tr
P ak
ula i</w>
ny ata</w>
kat anya</w>
u fac
V i
N ya</w>
iti ons</w>
develop ment</w>
r un
vir on
S um
ta yo</w>
g en</w>
n y</w>
pam am
at s</w>
Jan u
re gi
P or
mak su
pen er
ris k</w>
lear n</w>
anc is</w>
mu da</w>
b ing</w>
as yon</w>
anc es</w>
us try</w>
ch e
mem ungkinkan</w>
i han</w>
can not</w>
mon th</w>
ay an</w>
h on</w>
ro w</w>
yesyesyesyesyesyesyesyesyesyesyesyesyesyesyesyes yesyesyesyesyesyesyesyesyesyesyesyesyesyesyesyes
ut nya</w>
ur o</w>
el es
l ic
daf tar</w>
h ours</w>
bi dang</w>
A ra
clo se</w>
mak in</w>
A S
ah ami</w>
la tan</w>
ban k</w>
ch es</w>
ma la
n es
dig ital</w>
bag ay</w>
know le
A re</w>
pos ition</w>
S au
or ig
w anted</w>
kual itas</w>
kat akan</w>
ak tiv
c oo
wor ks</w>
ti f
men am
uh a</w>
D em
ah li</w>
u l</w>
er o</w>
I tal
h ope</w>
S al
st it
lu as</w>
T rum
l is</w>
star ted</w>
o id</w>
H ari</w>
bag us</w>
to ber</w>
emp lo
play ers</w>
W il
pres ent
ang un</w>
i onal</w>
tak en</w>
p ac
iti onal</w>
li k</w>
inv ol
ul er</w>
n ik
au ti
ala u</w>
tan ah</w>
f re
ful ly</w>
pul an</w>
i ther</w>
t ook</w>
to tal</w>
sam peyan</w>
cu l</w>
f ic</w>
se bab</w>
port un
No v
da i</w>
ber jalan</w>
r as
tu gas</w>
im e</w>
l un
peci ally</w>
de f
k ill
str uk
bi o
jo b</w>
a use</w>
or ity</w>
sa w</w>
t t
pr ice</w>
Win dows</w>
de k
enc ana</w>
un j
ag awa</w>
m ess
du e</w>
ta laga</w>
Yor k</w>
whe ther</w>
kad ang</w>
pri badi</w>
Wh o</w>
keku atan</w>
es pecially</w>
kom puter</w>
h old</w>
sp es
w on
A u
to h</w>
rela tion
at a
ph ys
pemer intah</w>
B y</w>
P ri
J ust</w>
menye diakan</w>
tem u</w>
inter national</w>
ik uti</w>
su ff
dir inya</w>
char ac
plat form</w>
tin ya</w>
h ur
ta wa</w>
Y a</w>
n an</w>
G i
ti es</w>
re ason</w>
E m
ter dapat</w>
Trum p</w>
wi lay
am es</w>
no v
ac tually</w>
ak ses</w>
Ser ikat</w>
us kan</w>
N a
la por
k ul
des ign</w>
pas t</w>
da l</w>
ta ct</w>
un ang</w>
men ik
y le</w>
c inta</w>
and ingan</w>
Be berapa</w>
ac cess</w>
m ing</w>
ta un</w>
ad em
P re
peng e
s y</w>
k anya</w>
bi aya</w>
di kenal</w>
Y o
ib ang</w>
ya itu</w>
in king</w>
str ate
B any
mag ing</w>
V er
mun cul</w>
le t
re cor
Eng lish</w>
per o</w>
Sa at</w>
S outh</w>
pro mo
op portun
w at</w>
r un</w>
ear ly</w>
pen ye
B us
i a
hal f</w>
k la
N ational</w>
sta y</w>
ti han</w>
meng ha
pus at</w>
s cre
m y
si kan</w>
S im
ke sem
ib le</w>
d al
res ult</w>
usu ally</w>
sup aya</w>
kap ag</w>
di buat</w>
c le</w>
ba by</w>
du l</w>
ter utama</w>
col le
M or
me th
ter n
ta g
is ter</w>
ke putusan</w>
te gr
e duc
wilay ah</w>
diper lukan</w>
mo vi
im pro
maa aring</w>
tak ing</w>
sele pas</w>
D unia</w>
cen tr
sej arah</w>
pro f
se men
ma d</w>
h o</w>
D ay</w>
up on</w>
pr ia</w>
B ec
ing on</w>
b atas</w>
sh are</w>
se benarnya</w>
mat ter</w>
lo ws</w>
t ama</w>
memas tikan</w>
D av
el ing</w>
ag aan</w>
menge tahui</w>
K au</w>
ah on</w>
an cial</w>
w is</w>
A ir
tr ain
bu y</w>
tak es</w>
as kan</w>
er e
ing kan</w>
per angkat</w>
M r</w>
v il
kak i</w>
L on
N ak
mo ve</w>
v it
O leh</w>
T a
fi eld</w>
pl an</w>
pil ih</w>
de ta
ab ri
every one</w>
moder n</w>
vi ous</w>
gir l</w>
e e</w>
pos e</w>
cer tain</w>
is ts</w>
s in</w>
st and
am at</w>
C as
le ave</w>
tre at
c amp
bas is</w>
ex pec
ungk inan</w>
cu lar</w>
w i</w>
u ses</w>
s is</w>
i um</w>
man faat</w>
A pri
ila la</w>
Se bagai</w>
an ing</w>
ah nya</w>
t ember</w>
Apri l</w>
se qu
du k
meng apa</w>
bu mi</w>
y ed</w>
t anda</w>
Se tiap</w>
tangg al</w>
M ah
m ed</w>
probl ems</w>
bany akan</w>
ris iko</w>
com men
ener gy</w>
C O
tal k</w>
di li</w>
Mus lim</w>
ke la
kal o</w>
br u
tech nology</w>
ques tion</w>
c ou
se panjang</w>
th ird</w>
bu s</w>
ne cess
his tory</w>
e at</w>
cre ate</w>
off er</w>
w ar</w>
O f</w>
com puter</w>
ke ter
ku kannya</w>
T ah
ter m</w>
T an
ag ama</w>
mus ic</w>
ro ss</w>
per f
meng u
em o
gun a</w>
ac cording</w>
p ala
ti asa</w>
am puan</w>
loc al</w>
aw ak</w>
con cer
bag o</w>
fr ont</w>
A P
Sep tember</w>
il ip
C har
tin dakan</w>
An ak</w>
da la
ur ch</w>
C ina</w>
str ong</w>
p ah</w>
A y
sen s
menj al
e yes</w>
natur al</w>
for e
sit es</w>
wh ole</w>
O ff
re al
com mon</w>
al ong</w>
ala san</w>
is me</w>
b ri
J en
d ou
m atan</w>
unggu hnya</w>
id ence</w>
ta h</w>
kan lah</w>
pag e</w>
je k</w>
keh ilangan</w>
car e
kas us</w>
w ish</w>
he av
sof tware</w>
pin ak
C oun
tan ce</w>
Bany ak</w>
li ving</w>
con sum
A n</w>
i lah</w>
ar tic
ka yo</w>
g ing</w>
in e
play er</w>
uh nya</w>
O p
ni yang</w>
i or</w>
ur i</w>
B ang
off ic
t as
un tu
b on</w>
r o</w>
all eng
tic al</w>
sim ple</w>
semen tara</w>
penggun aan</w>
g es
s ulit</w>
Sing ap
bur an</w>
rem ember</w>
h and
ind ustry</w>
pro per
ung kan</w>
S es
B ah
meng emb
N g
tah uan</w>
o pen
br ing</w>
bo ard</w>
organ isasi</w>
at eg
ter sedia</w>
se makin</w>
v a</w>
h ana</w>
W al
spe cial</w>
sis i</w>
ill s</w>
an ks</w>
g aya</w>
us i
w ide</w>
secur ity</w>
c y
ant ar
d le</w>
sat unya</w>
meng er
bor n</w>
co in</w>
per ang</w>
er ed</w>
min istr
ku asa</w>
knowle dge</w>
R i
per dagangan</w>
p um
da erah</w>
or ies</w>
ch an
ber bicara</w>
c ted</w>
el se</w>
am ount</w>
belak ang</w>
E ven</w>
min utes</w>
C an</w>
ap an
penel itian</w>
kesem patan</w>
men ang
ter min
res t</w>
ne ws</w>
ta b
pan as</w>
betu l</w>
cho ose</w>
m ad
ber pikir</w>
cle ar</w>
con tent</w>
tr ik</w>
men ce
pres ent</w>
Jep ang</w>
al most</w>
R as
o de</w>
to m</w>
be came</w>
hen ti</w>
ufac tur
vari ous</w>
loo b</w>
ing inkan</w>
m in</w>
or as</w>
D r
B eli
kes an</w>
long er</w>
ba g</w>
s u</w>
f el
W i
em a</w>
sel es
por ted</w>
ingk ungan</w>
pel uang</w>
ay at</w>
in es</w>
i yo</w>
Y esus</w>
pla ying</w>
ik aw</w>
ac hi
po sed</w>
c anc
d ana</w>
ni h</w>
R usia</w>
f ikasi</w>
m ah</w>
re fer
en viron
T ra
Pe ople</w>
lo st</w>
Lon don</w>
f lo
pos isi</w>
Euro pe</w>
c ak
member s</w>
j at
tam bahan</w>
r ata</w>
p and
al is</w>
meng ubah</w>
diber ikan</w>
de al</w>
profes ional</w>
ver s</w>
ke las</w>
d eli
ar ed</w>
D ec
membu tu
A ir</w>
y un</w>
A t
kon disi</w>
sh ort</w>
g ia</w>
pem as
Ara b</w>
auti ful</w>
ye k</w>
M ost</w>
vid u</w>
F rom</w>
h ang
kar o</w>
w en
tur ned</w>
s ap
ber ubah</w>
th i</w>
Ap ple</w>
al th</w>
E N
m it</w>
inter nasional</w>
buil ding</w>
c a</w>
min im
S i</w>
pen didikan</w>
contin ue</w>
se x</w>
men ulis</w>
gro und</w>
S ar
l es
wi fe</w>
T wit
s ent</w>
s kan</w>
langu age</w>
di st
perc ent</w>
ag i</w>
pe la
h un
lan jut</w>
r ing</w>
f is
i hatan</w>
s c
ala han</w>
wr ong</w>
o y</w>
re as
i g</w>
polit ik</w>
me et</w>
b ila</w>
Bec ause</w>
Beli au</w>
j ab
sa ying</w>
lu g
n ik</w>
al o</w>
bu atan</w>
lik ely</w>
bu r</w>
C ara</w>
t ball</w>
al ian</w>
ber dasarkan</w>
C re
le pas</w>
neg eri</w>
unt ungan</w>
c es
n or
men em
M ad
k is
war ga</w>
se ku
tr adi
G ener
su ara</w>
l ink</w>
kem ungkinan</w>
da y
kemb ang</w>
o o</w>
anc ang</w>
p ah
par ents</w>
J apan</w>
bah o</w>
j i
an jut
wor k
s w
pr ak
mem baca</w>
ob at</w>
st an
Se buah</w>
ati kan</w>
ul i</w>
B as
ag itan</w>
d um
ir kan</w>
adi s</w>
An o</w>
so ft</w>
pen j
gr ad
sp ace</w>
é ta</w>
ag ue</w>
per ing
tum buhan</w>
es ter</w>
Ser v
diffic ult</w>
C r
E ar
a th
par ty</w>
commun ic
men dengar</w>
ken a</w>
uk uran</w>
E l
atu res</w>
aba d</w>
S alah</w>
V al
A M
he ard</w>
ram ai</w>
par ed</w>
R am
ka it</w>
mem inta</w>
S atu</w>
lum at</w>
in ess</w>
M any</w>
kem ampuan</w>
meningg alkan</w>
mela kukannya</w>
di e</w>
P at
D iy
adi kan</w>
ak annya</w>
f ast</w>
ak ib
p ital</w>
c ra
commun ity</w>
any aan</w>
tung kol</w>
t ation</w>
pamam agitan</w>
G ar
we ight</w>
S is
g ed</w>
hada pi</w>
se a</w>
Nov ember</w>
min yak</w>
l ind
An dro
g a
tr em
wa it</w>
S an
at o</w>
car d</w>
trad ing</w>
pag kak
suc cess
h h
вввв вввв
y en</w>
O S</w>
um ah</w>
membutu hkan</w>
hr aga</w>
a ju
ti onal</w>
c el
bu k</w>
se ason</w>
hid matan</w>
aim an
ver si</w>
Euro pe
an lah</w>
on al
n ia</w>
ger ak</w>
U N
resul ts</w>
in tegr
fol low</w>
ur ing</w>
do or</w>
H anya</w>
indi vidu</w>
be bas</w>
I C
m ir
pro ject</w>
di ed</w>
memer lukan</w>
f ok
ans wer</w>
yak in</w>
peri od</w>
ho wever</w>
ber s</w>
meng um
ke tiga</w>
tem p
ban tuan</w>
semu anya</w>
l or
bang et</w>
b angkan</w>
ig r
bu m</w>
any one</w>
pres s</w>
j ak</w>
ser angan</w>
sa y
val ue</w>
ker as</w>
W ar
fav or
ch eck</w>
cu ba</w>
incre ase</w>
bo x</w>
ter kenal</w>
Tr ans
Э Э
ch alleng
se p</w>
buk ti</w>
Pres ident</w>
le gal</w>
c li
c ing</w>
h ands</w>
jar ingan</w>
st ems</w>
ul u</w>
Y ah
L E
mo bile</w>
lo y</w>
O b
maj or</w>
kan ila</w>
pan ahon</w>
Le bih</w>
B at
kon sum
compan ies</w>
versit as</w>
ab ove</w>
d h
ig h</w>
ka ilangan</w>
pe laj
Dav id</w>
M ore</w>
per h
kaw asan</w>
ha laman</w>
co ver</w>
Diy os</w>
o lah</w>
he ad
Ir an</w>
me e
Mak a</w>
di et</w>
kam p
f oc
us ers</w>
sk in</w>
ak tif</w>
bo l</w>
Se perti</w>
lag u</w>
Ph one</w>
c ks</w>
es tabl
kep ala</w>
ik sa</w>
ko men
re turn</w>
bay i</w>
si p
se par
ser ies</w>
l ingkungan</w>
mor ning</w>
m id
grap h
s ya</w>
Pro gram</w>
ila r</w>
pem impin</w>
angg ang</w>
j um
penge tahuan</w>
w ed</w>
ger a</w>
uku r</w>
id ed</w>
ent ang</w>
Fir st</w>
bab ly</w>
n asa</w>
la si</w>
an no
ad ded</w>
so on</w>
el ek
c op
on ton</w>
Th e
di anggap</w>
ex pla
v ic
se ems</w>
D ari</w>
pol ic
il ik</w>
lo kasi</w>
li ves</w>
f oun
meny atakan</w>
Jer man</w>
un ay</w>
se masa</w>
mem ahami</w>
aut om
Andro id</w>
un od</w>
di ken
P la
Twit ter</w>
mul ti
ar an
jelas kan</w>
hin d</w>
ber hasil</w>
mo ment</w>
k as</w>
ver sion</w>
bo t</w>
z ed</w>
n ah
men it</w>
Americ a</w>
M al
vir us</w>
ter y</w>
ber asal</w>
ka itan</w>
t ol
W as
ber kembang</w>
j ata</w>
Wh ile</w>
and ung</w>
B ank</w>
men urut</w>
C ap
L ang
o il</w>
be t</w>
ther e
M ungkin</w>
rela ted</w>
isi p</w>
chang es</w>
la bor
pre v
be autiful</w>
ste p</w>
H er
he he</w>
f ig
fin ancial</w>
har g
o g
he ar</w>
w el
re lig
depen d
fo to</w>
me as
f le
di ke
ber tanya</w>
kah it</w>
gra f
them selves</w>
S ta
d ra
Europe an</w>
P el
ig ig
publi k</w>
Nor th</w>
no ong</w>
memb angun</w>
relation ship</w>
Chin ese</w>
pas s
c os
p ala</w>
wan ts</w>
inclu de</w>
é n</w>
fir e</w>
ha p</w>
syar ikat</w>
con toh</w>
s mar
le ad</w>
V ie
I T
produ ction</w>
bis kan</w>
Fe bru
se x
b s</w>
ag re
c ost</w>
cer ita</w>
amp ilan</w>
Men urut</w>
m im
bay aran</w>
um ur</w>
dise ase</w>
S ol
man aj
fin al</w>
Mic ro
U K</w>
ac ross</w>
pert andingan</w>
ni agaan</w>
p on</w>
ma hal</w>
ev ent</w>
un kan</w>
Y es</w>
x im
L in
I S</w>
l ing
des ain</w>
Ac cording</w>
treat ment</w>
ku du</w>
up s</w>
ha ir</w>
co de</w>
ker eta</w>
T ha
cip takan</w>
si ze</w>
g ol
ro le</w>
F i
l en
W at
to wn</w>
il ed</w>
s ou
ch ance</w>
Se karang</w>
on y</w>
mem ulai</w>
T ak</w>
cre ated</w>
Mes kipun</w>
F ri
T em
in t</w>
eng ah</w>
R E
lo se</w>
A dak
ab ang</w>
an ong</w>
at us</w>
gaw in</w>
P lease</w>
log ical</w>
k m</w>
pes awat</w>
gu e</w>
ear th</w>
ri d</w>
him self</w>
j e</w>
ple ase</w>
pul uh</w>
d ly</w>
B it
ti ada</w>
g ah</w>
A le
D a
qu ite</w>
out side</w>
ver se</w>
rak yat</w>
is tan</w>
sej umlah</w>
th re
v ia</w>
menj aga</w>
r an
kal a</w>
or din
te xt</w>
M uh
M il
ik al</w>
rem ain
g em
u a</w>
B ur
D ev
se e
s we
kap an</w>
kap al</w>
Sy ar
B an
ber ikut</w>
m ine</w>
ter kait</w>
M ac
tru th</w>
mem ak
sour ce</w>
ke ber
r ate</w>
Adak ah</w>
y i</w>
ev ol
la ut</w>
add ition</w>
butu han</w>
men ang</w>
vis it</w>
e ither</w>
ir im</w>
S ome
re li
clas s</w>
necess ary</w>
O r</w>
u ser</w>
K ing</w>
beg an</w>
tak ut</w>
ab ung</w>
ter ed</w>
enjo y</w>
Se orang</w>
u angan</w>
k to</w>
pel bagai</w>
sa ve</w>
me t</w>
h orm
sem ula</w>
Pen y
k ha
manag ement</w>
hos ting</w>
ber temu</w>
signi fic
rang e</w>
ent ara</w>
sa fe</w>
p ain</w>
w id
ola hraga</w>
ba y</w>
ex t</w>
mela wan</w>
was n</w>
se gera</w>
j anj
pres sion</w>
bar kan</w>
D ar
pro bably</w>
typ es</w>
net work</w>
ur usan</w>
Kam u</w>
la p</w>
fic ation</w>
T ing
di ri
ak ar
K es
str eng
k in</w>
ig ing</w>
ber henti</w>
for man
h u</w>
d ol
kar tu</w>
dec ision</w>
un uh</w>
K aya</w>
ste ad</w>
ac k
w th</w>
f y</w>
le tak</w>
g as
nee ded</w>
lang it</w>
W ala</w>
o to
em er
r ap
Neg ara</w>
baha ya</w>
c rit
uk i</w>
n al
ul o</w>
te kanan</w>
ula t</w>
c tions</w>
der hana</w>
mar aming</w>
at asi</w>
ach ing</w>
per sen</w>
um e</w>
im u</w>
ke du
j our
Pres iden</w>
j angka</w>
beli ev
ker ajaan</w>
g es</w>
B e</w>
ne l</w>
ah at</w>
N abi</w>
inter est</w>
be hind</w>
d y
sen jata</w>
au l</w>
inf o</w>
la han</w>
dor ong</w>
si x</w>
I D
ro r</w>
dok ter</w>
k ana</w>
al one</w>
re commen
bun ga</w>
an ia</w>
mac am</w>
ib ig
s ag
i o</w>
marke ting</w>
in tel
as is
happen ed</w>
com mit
ke amanan</w>
jat uh</w>
happ en</w>
fok us</w>
ef for
si yang</w>
off ice</w>
di v
komun ikasi</w>
d ating</w>
pert anyaan</w>
adi an</w>
iy on</w>
der al</w>
da di</w>
at in</w>
un ds</w>
bu daya</w>
H i
Y ou
con tain
p u</w>
si ap</w>
mem u
ber ik
situ ation</w>
g el
ver age</w>
ar ds</w>
id ent
in side</w>
pem be
gr atis</w>
con tact</w>
um at</w>
C o</w>
ac tive</w>
jec ts</w>
b ata</w>
kas ino</w>
ne ar</w>
di a
Pro duk</w>
ESYEESYEESYEESYE ESYEESYEESYEESYE
lu pa</w>
Sau di</w>
pro se
B es
bo y</w>
men dukung</w>
maksu d</w>
re le
In sta
po wer
al low
pag i</w>
sis wa</w>
ener gi</w>
play ed</w>
a f</w>
al u</w>
e ja</w>
memen uhi</w>
dit emukan</w>
Chris t</w>
ta hap</w>
ques tions</w>
H ave</w>
A C
o x
si on
tap kan</w>
I D</w>
profes sional</w>
mengur angi</w>
ant ly</w>
ar ri
th ous
it ahu</w>
curr ent</w>
and ingkan</w>
an si</w>
e h
ju alan</w>
w ise</w>
ter lihat</w>
part ment</w>
iti ve</w>
tel ev
ca ses</w>
l igh
bang un</w>
arti kel</w>
St ate</w>
movi e</w>
C am
dis cus
wee ks</w>
ou d</w>
Muh am
On line</w>
tangg ung</w>
ter li
lapor an</w>
buil d</w>
are as</w>
sur at</w>
peng emb
O k
hu j
Meng apa</w>
pul kan</w>
fik ir</w>
utu skan</w>
buil t</w>
C er
do sa</w>
K um
R em
ak ake</w>
beg in
er y</w>
ber usia</w>
sim ilar</w>
for ward</w>
high er</w>
pr ay
dri ve</w>
ge ts</w>
mak lumat</w>
com for
per tem
on d</w>
ele br
e f</w>
h om
ati k</w>
R O
j am
pu la
de ad</w>
w ah</w>
Di os</w>
S ab
meng ikuti</w>
tr ade</w>
lo ss</w>
wor th</w>
ag no
at ay</w>
custom ers</w>
fak tor</w>
re port</w>
mem ber</w>
pen ting
ap apun</w>
P C</w>
b or</w>
c ell
se derhana</w>
K emudian</w>
al tern
b atu</w>
S pe
gi es</w>
o logi</w>
ma o</w>
w are</w>
en am</w>
M c
K el
o h</w>
des cri
Bus iness</w>
kem atian</w>
as soci
ro ad</w>
Tah un</w>
lu e</w>
ag ak</w>
t é
alis is</w>
gan ti</w>
d d
i er</w>
sle ep</w>
H ouse</w>
pinak am
b atan</w>
suc cess</w>
ugh ter</w>
Par k</w>
sen ang</w>
se tengah</w>
e x</w>
ap p</w>
utu p</w>
B est</w>
bo le
ur kan</w>
qu ick
pak aian</w>
Ge or
ba ga</w>
du ce</w>
mem utuskan</w>
C l
trav el</w>
ka d</w>
inf lu
big ay</w>
lar gest</w>
Brit ish</w>
Sch ool</w>
sen se</w>
al low</w>
opportun ity</w>
k emu
si p</w>
G ood</w>
ca ha
E very
comple te</w>
k y</w>
k il
K in
perf ect</w>
S A
terli bat</w>
Wh ere</w>
n amp
mak ak
nak ak
tah anan</w>
sim ply</w>
M an</w>
er an</w>
gro wth</w>
do ctor</w>
Tu be</w>
k ids</w>
mater ial</w>
in dah</w>
pas angan</w>
milit ary</w>
M B
g ig
g ave</w>
t d</w>
tur y</w>
lo wer</w>
re ly</w>
kun ci</w>
G am
Se latan</w>
pen duduk</w>
da hkan</w>
applic ation</w>
l ands</w>
a ses</w>
r ights</w>
ar on</w>
pr is
polit ical</w>
p it</w>
baha y</w>
ex trem
la un
da s</w>
anno un
con sis
gener al</w>
ke butuhan</w>
te h</w>
im pl
pres sure</w>
ing dom</w>
ta ong</w>
consi dered</w>
n anti</w>
pen uhnya</w>
lu an</w>
ec u
ang e</w>
ber ita</w>
al u
O c
cla im
su per
he bat</w>
al bum</w>
tur al</w>
aj ak</w>
ala tan</w>
B ahkan</w>
lam atan</w>
T w
ber gerak</w>
de k</w>
H en
h ou
dow nload</w>
S it
hel d</w>
T E
ex is
ber kaitan</w>
tra baho</w>
P S</w>
k ant
tr al</w>
mengemb angkan</w>
Gro up</w>
apan ese</w>
E ast</w>
im in
aj ar</w>
t ty</w>
ar en</w>
k ri
un ta</w>
R eg
foc us</w>
bac k
H os
str ateg
ju r</w>
ko d</w>
y ah</w>
t our
ak i</w>
itu lah</w>
janj ian</w>
on ally</w>
individu al</w>
mes ti</w>
wala upun</w>
pe ace</w>
eas ily</w>
mil iki</w>
situ asi</w>
gi atan</w>
el a</w>
per s</w>
tr ic
sar ili</w>
r ac
sa bi</w>
cover ed</w>
j us
ter j
pr im
pat kan</w>
ala mat</w>
ng unit</w>
S ci
ir i</w>
tit ik</w>
phys ical</w>
U g</w>
th inking</w>
S t</w>
up a</w>
ep ing</w>
um kan</w>
H igh</w>
custom er</w>
mening kat</w>
bang sa</w>
B ra
ver ti
ha ha</w>
educ ation</w>
trac t</w>
pas ukan</w>
gur u</w>
activ ities</w>
sig n</w>
form s</w>
quick ly</w>
ke untungan</w>
d ang
pro yek</w>
speci fic</w>
do g</w>
add ress</w>
aw ab</w>
Te ch
bre ak</w>
j ian</w>
Muham mad</w>
se cre
f un</w>
pr em
er ous</w>
it self</w>
al ik</w>
cu r</w>
Pr in
g adis</w>
se um</w>
ingk atan</w>
uj u</w>
tar get</w>
Man ag
M y
ib an</w>
ser ver</w>
distr ibu
hi ji</w>
In stit
ad ing</w>
s ong</w>
Or gan
stat us</w>
Bar u</w>
ma inta
atten tion</w>
c ari</w>
P os
ho l</w>
t ou
bag ong</w>
N ext</w>
ke banyakan</w>
kon tr
as ama</w>
h ak
butu hkan</w>
se hat</w>
d ation</w>
bij akan</w>
aiman apun</w>
é n
il mu</w>
ke cu
b ong</w>
We b</w>
artic le</w>
meny eles
forman ce</w>
se penuhnya</w>
h ug
cho ice</w>
re gar
ola k</w>
si bility</w>
pol ice</w>
ju k</w>
S A</w>
ci pl
writ ten</w>
di mana</w>
ip in
st and</w>
baba e</w>
Cen ter</w>
ar ian</w>
us ay</w>
ag amit</w>
ber usaha</w>
form asi</w>
requ ired</w>
effec tive</w>
S il
kat apos</w>
Sem entara</w>
k new</w>
anc ed</w>
ul arly</w>
h ost</w>
NA Y</w>
ter buka</w>
con tro
heal thy</w>
ng e
canc er</w>
par ts</w>
lin es</w>
mes kipun</w>
k os
t ely</w>
i b</w>
g oo
ex ten
se banyak</w>
all s</w>
l in</w>
w asa</w>
pop uler</w>
K ur
per niagaan</w>
la tihan</w>
min angka</w>
issu e</w>
G lo
econom ic</w>
Bag i</w>
kon g
w ood</w>
A w
for d</w>
ser ius</w>
le n</w>
K ini</w>
r on
in iti
perh atian</w>
lo kal</w>
pe l</w>
sy stems</w>
gam it</w>
Al though</w>
Tim ur</w>
D ata</w>
pad anya</w>
kes alahan</w>
h anggang</w>
r ic
kar ak
ap ag
In d
ah ari</w>
p it
Ear th</w>
g ni
ti l
f l
fur ther</w>
na ik</w>
mengha biskan</w>
ang unan</w>
mem bayar</w>
H al
h ilang</w>
la pan</w>
lear ning</w>
strate gi</w>
K ong</w>
K u</w>
B C</w>
av ing</w>
s ang
plan et</w>
berj aya</w>
my self</w>
Afr ika</w>
Pal es
ter diri</w>
K alau</w>
M e</w>
Micro soft</w>
wat ch</w>
b la
T el
f all</w>
g ay</w>
cond itions</w>
membu ka</w>
in dic
as akan</w>
en angan</w>
g ang</w>
desig ned</w>
w w
adi lan</w>
pe lajar</w>
S M
cas ino</w>
adv anta
shi ps</w>
re ve
recei ve</w>
men entukan</w>
f la
H ong</w>
roug ht</w>
invest asi</w>
A ko</w>
tin dak</w>
tum buh</w>
writ e</w>
pe t</w>
tiv ely</w>
Par is</w>
k op
c ut</w>
kecu ali</w>
m achine</w>
H am
ug ht</w>
e an</w>
um i</w>
unju k</w>
R umah</w>
in yong</w>
st er</w>
f ight</w>
ay ah</w>
k ac
A M</w>
y u
h it</w>
Syar ikat</w>
dag iti</w>
N a</w>
al ih</w>
mus ik</w>
L td</w>
ber t</w>
ger akan</w>
dul u</w>
I M
P aul</w>
j antung</w>
Vi deo</w>
os is</w>
en se</w>
id es</w>
eff ect</w>
ad d</w>
am e
oc c
k on</w>
is u</w>
pu tih</w>
un na</w>
mess age</w>
up aya</w>
y u</w>
val u
ra ther</w>
l us</w>
b ly</w>
S ig
l and
St re
A h
tur ut</w>
Ne t
or g</w>
n ature</w>
mu la
Li fe</w>
efe ktif</w>
pap er</w>
r encana</w>
tar uhan</w>
U p
tak kan</w>
Sin ce</w>
bi a</w>
an ku</w>
perk hidmatan</w>
b log
ind ungi</w>
anta i</w>
bl ing</w>
g s</w>
tur un</w>
do cu
train ing</w>
W est</w>
suk ses</w>
com pet
ber harap</w>
pla sti
sci enti
u ga</w>
ram but</w>
ec h</w>
activ ity</w>
U R
we d
ad s</w>
ter ms</w>
is tik</w>
ur at</w>
st yle</w>
bi han</w>
gi ving</w>
J apanese</w>
I l
lev els</w>
success ful</w>
res ol
G et</w>
A lam</w>
G ol
form ed</w>
Rus sia</w>
pin ag
G o</w>
M ul
ag an</w>
pengar uhi</w>
pin tu</w>
di la
recei ved</w>
m ar</w>
n it
Ap abila</w>
se hari</w>
Bar at</w>
wh ite</w>
ken y
per se
I P</w>
ap ar
T am
ungg uh</w>
ke selur
per tumbuhan</w>
ne w
S an</w>
M el
mo un
G un
im ia</w>
as sis
h out</w>
w uju
kan thi</w>
e u</w>
kill ed</w>
menik mati</w>
ch em
bro ther</w>
Men teri</w>
cr u
Lo ve</w>
sel l</w>
we we
chang ed</w>
la la
com mer
B lack</w>
for get</w>
ris is</w>
ik i
g in</w>
issu es</w>
berik utnya</w>
p ain
medic al</w>
wiwi wiwi
ther n</w>
f ar
an mu</w>
Jun e</w>
uk kan</w>
W ala
ad ministr
menyeles aikan</w>
fe ty</w>
tidak nya</w>
vit amin</w>
c m</w>
Insta gram</w>
t ter</w>
J ames</w>
kas ama</w>
s ter
kunkunkunkun kunkunkunkun
go es</w>
to de</w>
b lack</w>
P ac
cer tain
bu ong</w>
dag ang</w>
ut am
expec ted</w>
tr i</w>
A D
D ig
it is</w>
op tion</w>
u res</w>
H as
Mes in</w>
sen d</w>
h ing</w>
stat ement</w>
to l</w>
reco gni
parti cular</w>
c ak</w>
progr am
ang sa</w>
con sequ
eng kau</w>
A ug
rele ased</w>
un ik</w>
in tro
k ar</w>
We b
co co
for ce</w>
man ufactur
D ow
A da
F ren
te e</w>
be h</w>
o tak</w>
ter a</w>
pa ano</w>
spe ak</w>
enti re</w>
provid es</w>
b rain</w>
se tu
ent ed</w>
dom ain</w>
ex er
har usnya</w>
D en
w ouldn</w>
ter g
ish ing</w>
off ers</w>
go al</w>
per be
S ub
b t</w>
min um</w>
bin tang</w>
p ip
ila i</w>
ti p</w>
kar ya</w>
C u
w ers</w>
Com pan
w ag</w>
ba ikan</w>
rem o
mu ka</w>
cen tury</w>
ar aan</w>
ber ju
ti s
fe eling</w>
jab at</w>
equ ip
Pres s</w>
bet es</w>
in de
se lamat</w>
tem per
To day</w>
v ely</w>
spe c
inf ec
tim bangkan</w>
L um
g on
fe atures</w>
regi on</w>
H u
sk ills</w>
pro ces
P emb
asis wa</w>
begin ning</w>
ah ang
care er</w>
WAWAWAWAWAWAWAWAWAWAWAWAWAWAWAWA WAWAWAWAWAWAWAWAWAWAWAWAWAWAWAWA
eg ang</w>
loc ation</w>
la hir</w>
c ouldn</w>
wal k</w>
c elebr
il is</w>
meng hadapi</w>
U r
la laki</w>
at ang</w>
boo ks</w>
im por
ww w</w>
s pre
fel t</w>
i Phone</w>
si k</w>
N ap
T ake</w>
devel op</w>
en e
las s</w>
kemb angan</w>
ul ong</w>
dala wang</w>
st ore</w>
U tara</w>
loo ks</w>
sa bi
some times</w>
poten tial</w>
tr o</w>
B in
u tawa</w>
cak ap</w>
pik iran</w>
form er</w>
Jul y</w>
al lows</w>
curr ency</w>
M aj
fit ur</w>
B is
pe k</w>
invol ved</w>
eg ori</w>
k es</w>
di p
pering kat</w>
de te
pre gn
caha ya</w>
offic ial</w>
meny im
s ad
environ ment</w>
be lah</w>
W ar</w>
berbe za</w>
per awatan</w>
ex p
pelaj ari</w>
b ol
I A</w>
sar ta</w>
pag pap
fis ik</w>
ak un</w>
ob atan</w>
har apkan</w>
efe k</w>
F re
ke giatan</w>
read ing</w>
cou ple</w>
effec ts</w>
sen i</w>
com bin
mur ah</w>
provid ed</w>
op s</w>
impro ve</w>
Janu ary</w>
O N
stand ard</w>
z z
S ha
develop ed</w>
meningg al</w>
j ala</w>
tu lad</w>
writ ing</w>
sug ges
ting s</w>
He alth</w>
b rought</w>
dev ice</w>
aff ec
ak kan</w>
mar ried</w>
ad anya</w>
ic an</w>
m ab
M ake</w>
ex per
ter ima</w>
form ation</w>
pur na</w>
P us
li e</w>
in spir
atta ck</w>
per formance</w>
j aman</w>
vi ously</w>
ant e</w>
el i</w>
men unggu</w>
baha gi</w>
baw at</w>
g ikan</w>
Fren ch</w>
Mar ch</w>
r ia</w>
inves tig
ex pen
te ks</w>
S we
h ic
y er</w>
crip tion</w>
at temp
br and</w>
pes an</w>
K al
hus band</w>
tr an
menj awab</w>
H im</w>
bro w
f ish</w>
bar an</w>
di mulai</w>
pat i</w>
da mag
lug ar</w>
du an</w>
il and</w>
ten aga</w>
stu di</w>
W an
lolo lolo
Al so</w>
mel indungi</w>
om s</w>
k li
positi f</w>
bel ow</w>
k rit
fa ith</w>
F ree</w>
bil lion</w>
mee ting</w>
pli ed</w>
ka dar</w>
keselur uhan</w>
men ur
H I
an alisis</w>
pro g
n asi
ho t</w>
C E
kno ws</w>
Le ague</w>
ic o</w>
poin ts</w>
tr ic</w>
benef its</w>
da mp
M achine</w>
maa ari</w>
c lub</w>
per an</w>
e ye</w>
Bit coin</w>
re lev
spe ed</w>
di kan</w>
F er
p ool</w>
en ang</w>
kum pulan</w>
men ciptakan</w>
po h</w>
kar an</w>
las an</w>
cond ition</w>
L A
B la
an k
ab ot</w>
to wards</w>
iti f</w>
ha vi
sin abi</w>
hin dari</w>
ik lan</w>
dise babkan</w>
fun ction</w>
gag al</w>
sho ws</w>
es sen
ang in</w>
is try</w>
Bah asa</w>
ke t
s qu
Mas ter</w>
a a</w>
Fil m</w>
ke uangan</w>
positi ve</w>
uni que</w>
con st
u se
tu h</w>
av oid</w>
akib at</w>
scre en</w>
da ily</w>
amp i
pen dapat</w>
lar o</w>
R ec
stru ction</w>
E g
la wan</w>
ra ya</w>
h our</w>
B ay
ik eun</w>
enc ed</w>
sa b
mar k</w>
lag ang</w>
e ve</w>
b asan</w>
grad u
bak it</w>
it kan</w>
st o
ill ing</w>
ma in
F A</w>
o d
p ada
Ar ab
mence gah</w>
B re
differ ence</w>
n ation</w>
im medi
fil em</w>
to ko</w>
L ap
E r
loc ated</w>
ge us</w>
en ing</w>
Se cara</w>
mem o
fe ar</w>
V ir
B al
amp ilkan</w>
u di</w>
H el
menam bahkan</w>
mem bentuk</w>
dec ided</w>
B ab
per asaan</w>
diber i</w>
ak ui</w>
sa udara</w>
em as</w>
en sure</w>
ku l</w>
akar ta</w>
recor d</w>
E very</w>
ol es
ar ch
C hi
gar is</w>
Q uran</w>
po t</w>
r an</w>
f em
O R
sur ance</w>
lu w
ve hic
hit am</w>
kun j
w il
tal king</w>
t anan</w>
dre am</w>
gro ups</w>
fer ence</w>
meng un
im age</w>
kan ker</w>
tem en</w>
N at
der ita</w>
Ph ilip
tom s</w>
ali for
de wasa</w>
m ic
pak ai</w>
H on
d angkan</w>
vo ice</w>
pur pose</w>
ka um</w>
par tic
hing ton</w>
hi j
L alu</w>
om en</w>
t adi</w>
g one</w>
pic ture</w>
ur us</w>
Tim e</w>
loo ked</w>
sta r</w>
T H
run ning</w>
c uma</w>
P es
n inyo</w>
si h</w>
ut ang</w>
P ap
T ri
fr u
si r</w>
consi der</w>
tu tu
v es
par aan</w>
Gre at</w>
throug hout</w>
sabi hin</w>
K ota</w>
re ach</w>
je unna</w>
con tribu
Was hington</w>
ban sa</w>
Pro du
sal es</w>
im ag
B or
pem ber
dek atan</w>
duk ungan</w>
Fr ance</w>
as ia</w>
E lec
bon us</w>
nam ed</w>
w ro
men jelaskan</w>
but kan</w>
ac tions</w>
T ok
se em</w>
a as</w>
kur ing</w>
S ou
underst anding</w>
i en</w>
ah i</w>
col or</w>
ber ken
di katakan</w>
op tions</w>
p are</w>
alifor nia</w>
Per ancis</w>
N ar
gro w</w>
it es</w>
di um</w>
Ch il
Me dic
k awan</w>
su d
ag ed</w>
os s</w>
orig inal</w>
prote in</w>
pla ces</w>
ci es</w>
P lay
G us
pak sa</w>
es tern</w>
Ne ws</w>
pur ch
de g
spen d</w>
trans fer</w>
bi arkan</w>
milit er</w>
cha in</w>
abri k</w>
ak eun</w>
pen ingkatan</w>
mer e
do a</w>
ro on</w>
priv ate</w>
Tha iland</w>
hos pital</w>
Bu kan</w>
r us
wro te</w>
bun yi</w>
struk tur</w>
kam ar</w>
der a</w>
dem on
Col le
Dec ember</w>
n ab
L ay
min taan</w>
da ughter</w>
ik ita</w>
mun do</w>
men uju</w>
memen angkan</w>
h op
da w</w>
gi ves</w>
ti ps</w>
ev ents</w>
C al
ka in</w>
comple tely</w>
k nya</w>
mu k
memb unuh</w>
P E
m igr
s ports</w>
ent y</w>
res our
men dorong</w>
anj ing</w>
T al
B eg
ny ataan</w>
C alifornia</w>
da ma
se lain</w>
di agno
anc y</w>
ng ar
i als</w>
dah ulu</w>
pen ulis</w>
happen s</w>
vie ws</w>
pas s</w>
at ors</w>
k ill</w>
um ang</w>
so und</w>
Oc tober</w>
ta ge</w>
stan dar</w>
des tro
c ise</w>
w al</w>
T ag
ub an</w>
e ts</w>
C e
prote ct</w>
tri ed</w>
P ho
j an
di sa
Mar k</w>
Rus sian</w>
ini g</w>
ber langsung</w>
curr ently</w>
cr yp
sta ge</w>
hidu p
ng ad
se ks</w>
ban dar</w>
Si apa</w>
c lim
lu c
Th ere
se ven</w>
en ter</w>
duc ed</w>
ser ious</w>
ter letak</w>
pro ce
leng kap</w>
n am</w>
organ is
pad ha</w>
ab an</w>
S iya</w>
lo ts</w>
Sis tem</w>
gin awa</w>
polic y</w>
am b
foo tball</w>
bang unan</w>
ri age</w>
H y
bu kanlah</w>
hi on</w>
tek nik</w>
H ey</w>
we de</w>
si fat</w>
sen tiasa</w>
ia itu</w>
ke ce
G in
pre ci
Afr ica</w>
ber diri</w>
Ar ti
es ts</w>
ri es</w>
co t
sh e
lead ing</w>
men jual</w>
ys is</w>
at ever</w>
a verage</w>
ep on</w>
des tin
ter baru</w>
ac cep
ra di
l d
lam atkan</w>
mu m</w>
pre tty</w>
I T</w>
m g</w>
be havi
v al</w>
li br
mis alnya</w>
z on</w>
ul y</w>
o ds</w>
S ho
L ike</w>
der ing</w>
ep as</w>
m ik
f al
R ed</w>
F o
c y</w>
ing ly</w>
c ent</w>
tuju h</w>
al anya</w>
ul lah</w>
dr ink</w>
as nya</w>
ta y</w>
W ak
individu als</w>
luw ih</w>
j er
di si
pla ced</w>
berg abung</w>
Is lam
al em</w>
ser ve</w>
uj ian</w>
lim ited</w>
dem i</w>
i big</w>
s ts</w>
at an
ur u</w>
sy mp
tor an</w>
re ct</w>
sek su
mo tor</w>
tem a</w>
p ite</w>
beg in</w>
san akan</w>
gu y</w>
di ambil</w>
oc r
da patan</w>
ber akhir</w>
L ib
oug h
mer ah</w>
C us
c lu
as li</w>
res mi</w>
aktiv itas</w>
ex ac
Janu ari</w>
tar ik</w>
wa iting</w>
tah ankan</w>
pr ise</w>
sur vi
ep is
ke c
hada pan</w>
May be</w>
qu ar
su r</w>
il ya</w>
fin ally</w>
N gun
bal iknya</w>
fac il
Wala upun</w>
S ain
O N</w>
cip ta</w>
ba i</w>
o tom
ada p
N A</w>
Du a</w>
dia betes</w>
Off ice</w>
y ag</w>
An jeun</w>
fre e
mas ter</w>
we ar</w>
ain kan</w>
ta ur
lind ungan</w>
prac tice</w>
cir i</w>
menjal ankan</w>
kit ab</w>
hadi ah</w>
cap ital</w>
poten si</w>
it or</w>
requ ir
n af
appe ar</w>
for tun
ti mat
de pos
Se lama</w>
taw o</w>
op tim
Singap ore</w>
mak na</w>
th ro
tr ust</w>
Su dah</w>
da lam
On ce</w>
kon ten</w>
it in</w>
A T</w>
ra ja</w>
US D</w>
er ta</w>
v ision</w>
peng elu
pemas aran</w>
n ice</w>
ub at</w>
tri p</w>
ap poin
e dah</w>
P ub
pe kerja</w>
me ter</w>
men olak</w>
x ed</w>
up date</w>
ha bang</w>
k k
sem purna</w>
Per tama</w>
ch urch</w>
hig it</w>
om a</w>
menj adikan</w>
H an
i res</w>
ro und</w>
r ich</w>
se harusnya</w>
Ok tober</w>
any ol</w>
G usto</w>
po s</w>
li es</w>
Ap p</w>
ach ed</w>
la ted</w>
d an
sa yang</w>
i sed</w>
On ly</w>
kon trol</w>
tu lis</w>
vi de
ni ini</w>
vari ety</w>
Compan y</w>
ko le
H ap
popula tion</w>
ib atkan</w>
s un</w>
ha el</w>
emplo ye
gre at
s eng
fri end
ber tahan</w>
stud ent</w>
per kembangan</w>
Gener al</w>
ter nal</w>
ke ben
M os
ge lar</w>
is ing</w>
min ta</w>
enc an
s cen
so alan</w>
pengar uh</w>
Kap ag</w>
li er</w>
kant or</w>
ak ar</w>
no on</w>
ain ya</w>
There fore</w>
Wh ite</w>
k imia</w>
re k
e u
ac qu
Th ank</w>
hap s</w>
rul es</w>
sear ch
sho t</w>
Per ang</w>
mim pi</w>
con fir
consequ ences</w>
tel s</w>
r akan</w>
C ha
angg uan</w>
Chris t
coun t</w>
bu l</w>
W ill</w>
ka ian</w>
us alem</w>
ke bijakan</w>
Ke se
re present
bil an</w>
reas ons</w>
b in</w>
j em
prev ent</w>
Uni versitas</w>
me tode</w>
bo k</w>
his tor
ac her</w>
ah il</w>
op si</w>
cell s</w>
mo v
d he
Ter dapat</w>
G en
ung ai</w>
M i
pener bangan</w>
setu ju</w>
char ge</w>
tu lah</w>
imp act</w>
p ra
per ju
A ma
sci ence</w>
R M</w>
mo d
lis trik</w>
mel ibatkan</w>
O per
ber fungsi</w>
dr aw
R aja</w>
se tidaknya</w>
me aning</w>
direc tly</w>
sen y
C ur
ad ari</w>
ther ap
B ri
W E
sem ber</w>
meng hub
E d
angg u</w>
Wil li
re ported</w>
ak u
re duce</w>
M id
he ar
saha m</w>
ra id</w>
Pa ano</w>
Tw o</w>
P B
interes ted</w>
As soci
ag ing</w>
ge jala</w>
rec ent</w>
J un</w>
ip s</w>
tiv al</w>
per alatan</w>
S m
A K
pa id</w>
ar ai</w>
ээээээээ ээээээээ
k i
é r
signific ant</w>
ad akan</w>
mat ahari</w>
A z
cen ter</w>
K ah
e th
jar ak</w>
F ar
itu de</w>
H a
ter bang</w>
di lihat</w>
ka w</w>
Eng land</w>
du h</w>
x y</w>
s mo
re lease</w>
as tr
st anding</w>
pl or
min at</w>
Aug ust</w>
i ba
per mintaan</w>
publ ished</w>
il ih</w>
l ul
Sp ir
I N</w>
mem pengaruhi</w>
in depend
tang ga</w>
b y
s hap
sa d</w>
iti z
C y
kir anya</w>
A kan</w>
mil ik</w>
minim um</w>
sol ution</w>
meth od</w>
du t</w>
an ap</w>
Wan ita</w>
I bu</w>
trac k</w>
pres ident</w>
dike tahui</w>
unj ungi</w>
ha b
produ ce</w>
mem in
may be</w>
es ses</w>
mo tiv
ati r</w>
har apan</w>
s ilang</w>
seles ai</w>
U M
You Tube</w>
B ali</w>
pul ang</w>
di k</w>
la ge</w>
Kris tus</w>
N ama</w>
anjut nya</w>
t ary</w>
tit le</w>
R u
ok ay</w>
dib andingkan</w>
y ay
F orm
kan iya</w>
d kan</w>
cul ture</w>
Ma a
bil ik</w>
enti kan</w>
Com mun
al ip
exac tly</w>
t aran</w>
te g
f ans</w>
b ase</w>
ha i</w>
sk y</w>
L am
continu ed</w>
Pro duc
certain ly</w>
bole hkan</w>
g or
pro mis
Qu e
nag ing</w>
f igh
allow ed</w>
bu d
o logy</w>
Eg yp
N O
f requ
po or</w>
T in
waj ah</w>
SE O</w>
al in</w>
lem ak</w>
Tok yo</w>
bo t
ses ungguhnya</w>
lead er</w>
LOLO LOLO
IS O</w>
respon sible</w>
ula r</w>
T ag</w>
aut y</w>
ben da</w>
tu lis
hel ps</w>
kese lamatan</w>
eff ici
ber tindak</w>
karak ter</w>
memper oleh</w>
proper ty</w>
bir th</w>
Ses ungguhnya</w>
charac ter</w>
tech n
ing i</w>
de termin
ne igh
tradi sional</w>
fe ksi</w>
form at</w>
num bers</w>
er ia</w>
u cap
Ger many</w>
streng th</w>
H ub
ant as
P A</w>
e asi
g y
ra dio</w>
ny a
M ur
K it
Instit ute</w>
sis a</w>
bak ar</w>
bre ak
bersi h</w>
G ir
L it
cle an</w>
Ab out</w>
h ed</w>
n ye
off ici
mem be
pe dul
op ping</w>
h ad
can tik</w>
Yah udi</w>
ar ang</w>
bun uh</w>
s ambil</w>
meng el
ra ham</w>
i dad</w>
mem ainkan</w>
O ther</w>
gi c</w>
C O</w>
deg ree</w>
D uring</w>
mo de</w>
fore ign</w>
be comes</w>
J akarta</w>
t ment</w>
D om
S he
tu m</w>
pen dek</w>
pen jualan</w>
dom in
ar al</w>
C a
ay ong</w>
ad verti
diter ima</w>
Serv ice</w>
ent e</w>
st ates</w>
pers on
T ak
power ful</w>
d ings</w>
d ingin</w>
An y
respon se</w>
kor ban</w>
lay ar</w>
auth or
ie ce</w>
dar aan</w>
kan iyang</w>
penting an</w>
ag u</w>
T ar
p ped</w>
Q ur</w>
sho p</w>
isti wa</w>
inc i</w>
ab angsa</w>
h atikan</w>
c ast</w>
re vol
L oc
ng er
sat is
sik ap</w>
n aw
at trac
y ari</w>
b asa</w>
meny ak
al og</w>
dapat i</w>
symp toms</w>
por ting</w>
pas ien</w>
o le
par ang</w>
hug e</w>
elu arkan</w>
regu lar</w>
tem poh</w>
P rem
h uk
ong s</w>
a annya</w>
sol usi</w>
in fr
Mic hael</w>
Can ada</w>
sor ry</w>
sa fety</w>
kri p
B isa</w>
Ngun it</w>
c king</w>
isi ons</w>
Be ach</w>
yp e</w>
ke per
ent ing</w>
h em
ha ven</w>
D apat</w>
d ara</w>
jo in</w>
pe jabat</w>
Re ad</w>
In ilah</w>
organ ization</w>
c ked</w>
demon str
v in
b es</w>
kal an</w>
ik h</w>
Ke dua</w>
sub ject</w>
ju tan</w>
C our
Se belum</w>
Chris tian</w>
pen dapatan</w>
Me dia</w>
Ma c</w>
pand angan</w>
r is</w>
pas ang</w>
Ras ul
aw ag</w>
in stead</w>
star ting</w>
M u</w>
res pect</w>
achi ev
Ber ikut</w>
per nyataan</w>
kual iti</w>
gro wing</w>
pem bayaran</w>
al though</w>
kel e
bag aimanapun</w>
tech ni
L ook</w>
ide al</w>
R en
lay ak</w>
str ess</w>
C at
Pri v
hir kan</w>
E as
k ra
gre ater</w>
tr uly</w>
invest ment</w>
v eg
f it</w>
inta s</w>
N ang
ach es</w>
kem enangan</w>
C ro
p sy
Se cur
ch at</w>
ar ap</w>
aw i</w>
uk ai</w>
com pe
us ion</w>
rem ain</w>
tu han</w>
manaj emen</w>
dit e
d ance</w>
bo s</w>
soci ety</w>
Le e</w>
ev idence</w>
us ab</w>
Ero pah</w>
Me i</w>
ro l
k lub</w>
U N</w>
i h
sy n
cen der
part ner</w>
ke ts</w>
pl ikasi</w>
there fore</w>
Dev el
M ex
er al</w>
ahang lan</w>
Go vern
t ant</w>
F ol
ap ply</w>
sh oo
i z</w>
ba p
ba iki</w>
ah e
si bil
amp aikan</w>
syar at</w>
aj aran</w>
cre dit</w>
C op
p y</w>
enc our
pak e</w>
ac com
op h
se t
lam bat</w>
L ab
e ds</w>
lu k</w>
am u</w>
pemb angunan</w>
dalam nya</w>
alis asi</w>
Se kiranya</w>
du kan</w>
re view</w>
pula u</w>
F ather</w>
haha ha</w>
mak ita</w>
s é
mis i</w>
u tions</w>
ba an</w>
m b
tam bah</w>
en o
e dit
L uc
am az
th anks</w>
le ar</w>
C ho
s ungguh</w>
pu l</w>
r ace</w>
V il
berg antung</w>
Uni on</w>
Pang in
sa h</w>
col lec
maj u</w>
sa bar</w>
c ement</w>
tem por
co ff
ca used</w>
gam barkan</w>
ibig an</w>
peny eli
gener asi</w>
ber nama</w>
K im</w>
im pin
c um
inter nal</w>
baha gia</w>
s and
it em</w>
Ch urch</w>
wh om</w>
k atan</w>
probl ema</w>
Pe ter</w>
L ast</w>
Res ort</w>
il ang
ka beh</w>
har d
re ality</w>
ma upun</w>
inclu des</w>
Pem er
per aturan</w>
F ak
fam ous</w>
add itional</w>
se ts</w>
el ess</w>
gir ls</w>
al ikan</w>
tr e</w>
C he
fak ta</w>
sh or
Glo bal</w>
T engah</w>
on o</w>
d ong</w>
ber g</w>
ev alu
lis ten</w>
Is ang</w>
T or
ad ang</w>
sa k</w>
meny adari</w>
al ed</w>
A B
kar oon</w>
damp ak</w>
G ame</w>
ste ps</w>
lun ak</w>
aj i</w>
Be fore</w>
lay an</w>
ex pect</w>
Z e
go l</w>
e ating</w>
mid dle</w>
oc cur
ta g</w>
ka sebut</w>
wor ked</w>
n yo</w>
ba yan</w>
Ind ustr
r at
il nya</w>
tam u</w>
mu r</w>
Per usahaan</w>
seksu al</w>
hen dak
pre vious</w>
S hi
E ach</w>
it able</w>
ag en</w>
Vie t
ag ree</w>
pho to
ch i
R ic
Geor ge</w>
go d</w>
as abi</w>
ug an</w>
Dow nload</w>
V is
establ ished</w>
fe et</w>
ari o</w>
S har
do kum
extrem ely</w>
ch ester</w>
in ga</w>
A C</w>
F l
go als</w>
p air</w>
i ar</w>
aktiv iti</w>
H O
dir ancang</w>
pan tai</w>
li c</w>
ba las</w>
an umang</w>
I L
ber bahaya</w>
cra ft</w>
af raid</w>
parti ci
anal y
nom or</w>
H er</w>
S us
ke pentingan</w>
kar y
in feksi</w>
Gus ti</w>
di ser
pengemb angan</w>
h tt
S of
aw in</w>
S k
bu hkan</w>
et c</w>
at ang
pres sed</w>
g emb
pin dah</w>
Per k
bis an</w>
cas h</w>
in a
em ed</w>
kes ihatan</w>
anc ing</w>
um p
c ell</w>
wh ose</w>
cu sed</w>
r or
sup pli
ef on</w>
to ols</w>
dev ices</w>
Ger man</w>
vi ol
econom y</w>
t ool</w>
ji wa</w>
Christ mas</w>
F am
N E
ic t</w>
ik saan</w>
strateg y</w>
ter tinggi</w>
Bi g</w>
dow n
en angkan</w>
f ine</w>
mat ch</w>
Ye ah</w>
anim als</w>
E v
Se e</w>
menger ti</w>
en em
im bang</w>
produc ed</w>
s mil
H is
th ank</w>
B ible</w>
pad pad
samp ing</w>
pl ant</w>
inta i</w>
se di
he wan</w>
Li ga</w>
Ken apa</w>
In dian</w>
w all</w>
stu dies</w>
ne arly</w>
c ore</w>
ma bu
tra ff
unj ung</w>
ke tidak
Ju ga</w>
kur angan</w>
s lot</w>
D id</w>
ba pa</w>
alis t</w>
ang ku
ad er</w>
S M</w>
k us
ken apa</w>
Febru ary</w>
aw are</w>
ad y</w>
Stre et</w>
ed ul
Rasul ullah</w>
d ress</w>
com pared</w>
T U
associ ated</w>
an na</w>
er ve</w>
ser ved</w>
komun itas</w>
um umnya</w>
C D</w>
u ji</w>
g angguan</w>
ken alkan</w>
camp a
purch ase</w>
meng eluarkan</w>
pl ans</w>
dokum en</w>
ila ku</w>
pam ilya</w>
li ons</w>
Colle ge</w>
sep ak</w>
F ac
menyim pan</w>
se bahagian</w>
n alaman</w>
St ar
at lah</w>
pag katapos</w>
as awa</w>
nu tr
spre ad</w>
D el
mo ving</w>
Po wer</w>
P ag</w>
thous ands</w>
ld wide</w>
mu kaan</w>
g old</w>
bi bigay</w>
L eg
big gest</w>
hadi r</w>
al it</w>
res is
T re
u ti
ek str
immedi ately</w>
B ul
inta han</w>
lay u</w>
deta ils</w>
t ree</w>
pol isi</w>
fil es</w>
ati d</w>
sex ual</w>
N asional</w>
B akit</w>
ka lah</w>
membu atnya</w>
ay ai</w>
exc ell
re pu
T um
bas ic</w>
lo ved</w>
K ingdom</w>
coco k</w>
k lik</w>
requ ire</w>
B un
is tics</w>
T ex
ra m</w>
c lear
pem ilik</w>
wor ry</w>
cat eg
Hol y</w>
th a</w>
su hu</w>
ke padanya</w>
eng ine</w>
B on
R a
J am
cl ick</w>
R D</w>
o log
ap ik</w>
speci es</w>
spir itu
s or</w>
L is
ad unay</w>
L ar
it ely</w>
k ak</w>
ag am</w>
aw ar
F oun
prin sip</w>
C ome</w>
tion ed</w>
B ir
se ly</w>
or itas</w>
I ng</w>
Tur ki</w>
g ent
coo k
mem an
A L</w>
meng am
z ing</w>
bit kan</w>
meng andung</w>
te p</w>
An other</w>
h anan</w>
cep atan</w>
v ey</w>
I sa</w>
equip ment</w>
ju an</w>
pati ents</w>
Je ho
la test</w>
ide as</w>
announ ced</w>
o t
meng atasi</w>
gu ys</w>
Gr and</w>
peri ode</w>
at awa</w>
ak ita</w>
i w
progr ams</w>
d yo</w>
bur u</w>
IN G</w>
perbe daan</w>
trad itional</w>
m outh</w>
meng hindari</w>
mar riage</w>
ik annya</w>
in ation</w>
bat asan</w>
P M</w>
angg aran</w>
f lu
Th ose</w>
e i</w>
c old</w>
kal angan</w>
H it
ak al</w>
Re al</w>
ra w</w>
t y
search ers</w>
ber ikan</w>
j ang
B oo
ju dg
kerj asama</w>
mis s</w>
s aling</w>
or row</w>
Li ve</w>
j ar</w>
member itahu</w>
E s
str ug
ny aman</w>
S tar</w>
ter usnya</w>
mar ang</w>
t os
F eng</w>
ber guna</w>
M emb
an ci
pas aran</w>
appro ach</w>
P ala
benef it</w>
I tulah</w>
men cer
open ed</w>
Re search</w>
appe ared</w>
ad es</w>
s old</w>
partic ularly</w>
Devel op
i di
du s</w>
sis ter</w>
keper luan</w>
incre ased</w>
W a
konsum si</w>
Sy stem</w>
us ap</w>
ni e</w>
ok r
Ye ar</w>
c at</w>
for ces</w>
coff ee</w>
R ol
dit em
ir ing</w>
g ab
V ol
sem angat</w>
pedul i</w>
ie f</w>
fas il
ber basis</w>
p iece</w>
be basan</w>
ma ha
memper tahankan</w>
D A</w>
do lar</w>
M un
de ter
organ iz
believ ed</w>
mem ory</w>
Ale x
perc ayaan</w>
favor ite</w>
au di
lu ka</w>
kur angnya</w>
Min ister</w>
per janjian</w>
ev il</w>
i wan</w>
N as
gr ade</w>
Bra z
smar t
T S</w>
w aw
tamp ak</w>
se barang</w>
car ds</w>
pertem uan</w>
Fil ip
S or
vide os</w>
man i
Kris ten</w>
namp ak</w>
E k
kur sus</w>
ng an</w>
aju kan</w>
ab u</w>
T ai
dire ct</w>
tiv es</w>
fa il</w>
e ight</w>
De partment</w>
b ing
eng er</w>
T ent
la man
adv ice</w>
ta x</w>
fa atkan</w>
men de
B ook</w>
sum mer</w>
i i</w>
av es</w>
sto ck</w>
we ke</w>
in ov
mo m</w>
Wor d
Wi th
A tau</w>
cel ona</w>
terg antung</w>
gun aan</w>
H D</w>
aw ang</w>
p abrik</w>
R ak
nag pap
k and
keter ampilan</w>
t aman</w>
T C</w>
ba iknya</w>
gam bling</w>
rup a</w>
hi ya</w>
V ic
sta ff</w>
do on</w>
s cho
kis ah</w>
pr ay</w>
achi eve</w>
dat es</w>
yesyesyesyesyesyesyesyesyesyesyesyesyesyesyesyesyesyesyesyesyesyesyesyesyesyesyesyesyesyesyesyes yesyesyesyesyesyesyesyesyesyesyesyesyesyesyesyesyesyesyesyesyesyesyesyesyesyesyesyesyesyesyesyes
eng ine
keben aran</w>
tamp aknya</w>
T O</w>
graf i</w>
resour ces</w>
P am
penel iti</w>
cam era</w>
menem patkan</w>
st ro
per lindungan</w>
Se k
di ary</w>
A dam</w>
ul ts</w>
For ex</w>
dis cipl
b and
pe ti
men ak
signi f
ker tas</w>
z h
kon sep</w>
mic ro
advanta ge</w>
pas kan</w>
mer asakan</w>
damag e</w>
o lo
G al
Kan ada</w>
dok tor</w>
s cal
tou ch</w>
men u</w>
str ong
ah in</w>
ad ong</w>
nam es</w>
diken ali</w>
A h</w>
ch en</w>
laj aran</w>
high est</w>
n or</w>
mit ted</w>
sup ply</w>
on ed</w>
ob s</w>
C up</w>
meng atur</w>
nal ika</w>
a o</w>
uw ag</w>
identi fikasi</w>
oto t</w>
M as</w>
Man chester</w>
lap angan</w>
B umi</w>
I R
ear lier</w>
A D</w>
Sun day</w>
ke cepatan</w>
bur g</w>
car ry</w>
kat aan</w>
tu lang</w>
H or
s it</w>
Fri day</w>
en ess</w>
ug s</w>
pub lik
hen teu</w>
Ne w
easi er</w>
tung gal</w>
lead ers</w>
mem ik
W el
gun ung</w>
P ay
no te</w>
Ab raham</w>
sho wn</w>
we ap
Pangin oon</w>
f an</w>
ber bagi</w>
res taur
otom atis</w>
win ning</w>
pres i</w>
T R
P T</w>
kop i</w>
men derita</w>
impl em
Di rec
ahe ad</w>
D in
Ital ia</w>
it ors</w>
onal d</w>
ris e</w>
sim pan</w>
communic ation</w>
gener ally</w>
dr ama</w>
kontr ak</w>
kam o</w>
mater ials</w>
lam p
g ug
anyanyanyanyanyanyanyanyanyanyanyanyanyanyanyanyanyanyanyanyanyanyanyanyanyanyanyanyanyanyanyanyanyanyanyanyanyanyanyanyanyanyanyanyanyanyanyanyanyanyanyanyanyanyanyanyanyanyanyanyanyanyanyany anyanyanyanyanyanyanyanyanyanyanyanyanyanyanyanyanyanyanyanyanyanyanyanyanyanyanyanyanyanyanyanyanyanyanyanyanyanyanyanyanyanyanyanyanyanyanyanyanyanyanyanyanyanyanyanyanyanyanyanyanyanyanyany
pu k</w>
un i</w>
ik iran</w>
U kra
ak ak</w>
Pr ancis</w>
contro l
P N</w>
str a
ti ll</w>
Per s
T ang
g it
pangg il</w>
T it
as pek</w>
ur uh</w>
Pus at</w>
ber tanggung</w>
meng unjungi</w>
ok ong</w>
cap e</w>
ag on</w>
impin an</w>
ЭЭ ЭЭ
per istiwa</w>
M ary</w>
M A</w>
ak up</w>
ke y
kat egori</w>
re pe
men onton</w>
ing atkan</w>
u to</w>
an eh</w>
z y</w>
m asi</w>
de ep</w>
Singap ura</w>
tain ment</w>
interes ting</w>
exer cise</w>
per mukaan</w>
du we</w>
com man
c ut
il angkan</w>
Jun i</w>
ka ibigan</w>
c ab
per ilaku</w>
men yes
Ch ampi
c ities</w>
sek tor</w>
gre en</w>
en ded</w>
fac tors</w>
high ly</w>
dal ikan</w>
appro pri
dri ver</w>
pres ence</w>
mo ved</w>
ari es</w>
A G
sh ar
se ction</w>
hub ung</w>
ub atan</w>
Sam sung</w>
c les</w>
at ory</w>
com pla
Jen is</w>
J us
per man
sen ior</w>
Bar celona</w>
gen e
sig ned</w>
B lo
ir im
ken daraan</w>
A v
da m
p ick</w>
es an</w>
kej adian</w>
kir akan</w>
con ver
Me layu</w>
isti lah</w>
pati ent</w>
se besar</w>
ir s</w>
V eg
go t
es is</w>
te ori</w>
ing inan</w>
F a
pro mi
ala hkan</w>
mah asiswa</w>
ac cept</w>
ar ily</w>
wis ata</w>
C H
m aw
Mo del</w>
L aw</w>
c in
kli en</w>
vol ume</w>
applic ations</w>
ex tra</w>
ag al</w>
g w</w>
ber mula</w>
as ok</w>
W he
al o
trans port
sou l</w>
kre dit</w>
J awa</w>
U se</w>
W alang</w>
i ed</w>
g anda</w>
ber buat</w>
b anding</w>
ven tion</w>
mer ek</w>
S S</w>
O ut
j o</w>
A P</w>
on er</w>
pas sed</w>
tel epon</w>
v el</w>
tain ed</w>
di pilih</w>
fil led</w>
inst itu
su ami</w>
eng g
ph et</w>
manag er</w>
tu red</w>
pon en</w>
spo t</w>
Bes ar</w>
meng ikut</w>
han ap</w>
li an</w>
h utan</w>
ac ity</w>
ter ang</w>
memas uki</w>
k ers</w>
lem ah</w>
men deng
gin agawa</w>
A R</w>
c itiz
cour t</w>
in surance</w>
j id</w>
ko t</w>
brow ser</w>
Jul i</w>
off ered</w>
Se jak</w>
mengum pulkan</w>
O K</w>
ag ad</w>
вввввввв вввввввв
se y</w>
si f</w>
Af g
in come</w>
In di
gener ation</w>
Islam ic</w>
Is land</w>
Mu seum</w>
prote ction</w>
s la
Sy ria</w>
pag la
Viet nam</w>
To p</w>
nak ilala</w>
man di</w>
ak é</w>
mur id</w>
rem aja</w>
Coun cil</w>
kong si</w>
da p</w>
promis e</w>
kam era</w>
anjut kan</w>
dom es
effor t</w>
or an</w>
kay u</w>
sal uran</w>
Ob ama</w>
D at
Produc ts</w>
prov in
ta pa</w>
Por tu
Manag ement</w>
ge d
u el</w>
pop ul
D C</w>
D ok
har ian</w>
pang alan</w>
L ev
L em
P ur
adi k</w>
inclu ded</w>
ungk apkan</w>
bar at</w>
P lan
h any
hap us</w>
essen tial</w>
de al
sal ita</w>
ay aw</w>
pag ba
meny em
ol der</w>
gi ft</w>
ex cept</w>
han tar</w>
K un
igh t
il ies</w>
t ant
g awa</w>
Ama zon</w>
defin itely</w>
D it
dire k
igig igig
y ond</w>
spen t</w>
graph y</w>
rec ently</w>
dr ug</w>
b om
I P
con struction</w>
un to</w>
appe ar
PB B</w>
secre t</w>
sim ula</w>
ber ani</w>
eno men
regu la
N y
ben arkan</w>
din am
LE D</w>
wed ding</w>
ex change</w>
jar ang</w>
har ta</w>
follow ed</w>
struc ture</w>
anal ysis</w>
let ter</w>
mus uh</w>
op ini
signif ikan</w>
po hon</w>
di d
res h</w>
work ers</w>
w angan</w>
res pec
sin o</w>
conne ction</w>
bin asa</w>
ung jawab</w>
neg atif</w>
ro man
E U</w>
qu o
techn ical</w>
tan aman</w>
las h</w>
c ool</w>
ber hubungan</w>
maj ority</w>
pag tu
kedu anya</w>
ter batas</w>
do w</w>
kap i</w>
de p
st one</w>
it men</w>
W omen</w>
Mad rid</w>
per intah</w>
Ab u</w>
w illing</w>
lit er
T en
traff ic</w>
nak at
sch edul
ah aman</w>
K ata</w>
N i
Mes ir</w>
lear ned</w>
L ou
multi ple</w>
kon ek
F ur
tur ns</w>
g ency</w>
is land</w>
nik ahan</w>
ko tak</w>
Neg eri</w>
k aca</w>
b ik
mem pelajari</w>
Ter ima</w>
P ost</w>
Word Press</w>
as ai</w>
ka jian</w>
p tion</w>
g l
r ingan</w>
S atur
comfor table</w>
Pak istan</w>
s ha
in nov
bu n</w>
D ri
T om
di butuhkan</w>
alip as</w>
di am</w>
ab ase</w>
P ener
The ir</w>
th day</w>
oper ation</w>
versit i</w>
g ain</w>
use ful</w>
O ld</w>
ay os</w>
neg ative</w>
Sci ence</w>
T es
an n
p sik
pos ting</w>
heav en</w>
T im</w>
par temen</w>
J umlah</w>
ak er</w>
Sup er</w>
ag u
gr and
ul i
st ars</w>
uni vers
P ok
dar k</w>
pres iden</w>
Se kolah</w>
ula d</w>
ar gu
Associ ation</w>
tan ong</w>
kil ome
anc urkan</w>
gon na</w>
bak a</w>
l il
G ala
cos ts</w>
hi b
it ems</w>
rul e</w>
Sur iah</w>
w é</w>
peri badi</w>
mengum umkan</w>
menc akup</w>
D an
L y
U l
min ute</w>
hen dak</w>
gig i</w>
N ic
u x</w>
Pro fes
K elu
T A</w>
Mis alnya</w>
os i</w>
ini lah</w>
pat h</w>
H arga</w>
hi c</w>
in jur
w it</w>
sup er</w>
yay ari</w>
pak atan</w>
ber sam
dit am
n on
su dut</w>
Tech nology</w>
M S</w>
te acher</w>
F I
pre par
all er</w>
dise diakan</w>
hur t</w>
di men
de ui</w>
laman ya</w>
dag ing</w>
l ari</w>
ell o</w>
da g</w>
le k
M aha</w>
as sum
ag en
it in
dec ide</w>
w atir</w>
Spir it</w>
remain s</w>
kelu arkan</w>
kas al
pho to</w>
pr ing</w>
bat ang</w>
oper ating</w>
as h</w>
nak ita</w>
kal ig
medi s</w>
wh atever</w>
at mos
Le ar
H uwag</w>
si c</w>
tu be</w>
pre pared</w>
meth ods</w>
P lus</w>
contain s</w>
sip asi</w>
o ga</w>
B A</w>
se per
ap in</w>
du it</w>
u dah</w>
par ent</w>
Cen tral</w>
do c
car ian</w>
Y un
any e</w>
web sites</w>
pur an</w>
u ble</w>
E mp
ad angan</w>
la l
Ting gi</w>
ro ck</w>
ol ong</w>
U m
prac tic
do k</w>
it akan</w>
B aha
W ed
has ilan</w>
dou ble</w>
wala y</w>
an é</w>
e ding</w>
pan el</w>
Mus lim
ka bu
um pang</w>
alis m</w>
memer iksa</w>
struk si</w>
us tus</w>
Joh n
mainta in</w>
pan an</w>
m ung</w>
menam bah</w>
diri an</w>
u lah</w>
j ana</w>
te en</w>
utam anya</w>
pas tikan</w>
S D</w>
So ci
mag iging</w>
B ad
ter ror
pro ud</w>
sus ah</w>
n imo</w>
kla im</w>
berken aan</w>
Mo bile</w>
ma xim
des ire</w>
fe ature</w>
pu lak</w>
P ow
ell ing</w>
com pon
Sp anyol</w>
x es</w>
T un
meng and
is ian</w>
h na</w>
busin esses</w>
be auty</w>
Se bagian</w>
cender ung</w>
un sa</w>
ac cur
clo sed</w>
Sit us</w>
ati on
colle ge</w>
Op en</w>
s word</w>
Mex ico</w>
mar ah</w>
re n</w>
D ahil</w>
auth or</w>
L ak
infr astr
sel ling</w>
di kemb
U p</w>
T empat</w>
any i</w>
ter tarik</w>
Se bab</w>
I sa
j ad
n uc
ger eja</w>
tron ik</w>
penyeli dikan</w>
or ing</w>
ati ves</w>
on an</w>
mov ement</w>
memak ai</w>
Jer usalem</w>
Ac adem
expen sive</w>
ef isi
ut ara</w>
H uman</w>
s angg
Chris ti
min uman</w>
jal ur</w>
M E
ag e
din ding</w>
Mus a</w>
po ses</w>
Febru ari</w>
keny ataan</w>
té h</w>
t ally</w>
be coming</w>
sy m
Some times</w>
is teri</w>
p re</w>
b alan</w>
ri bu</w>
se si</w>
men im
di bangun</w>
D ani
provid ing</w>
S ul
se belah</w>
B ila</w>
n ur
com pu
employe es</w>
tre at</w>
o kan</w>
Secur ity</w>
kep t</w>
Ro yal</w>
P lay</w>
tr ain</w>
Pi ala</w>
De sember</w>
u da</w>
Mus ic</w>
mil iar</w>
sho wed</w>
S pan
S amp
pri sed</w>
h h</w>
huj an</w>
i ans</w>
meng gun
Sel epas</w>
Pr o</w>
CE O</w>
l on
tangg ungjawab</w>
s li
Tex as</w>
ch ec
qu es</w>
menye lamatkan</w>
sig ns</w>
st ation</w>
ol ic</w>
kom ple
W alau</w>
P D
Ke ep</w>
pr ices</w>
bul kan</w>
n ay</w>
v il</w>
any ar</w>
spiritu al</w>
pes erta</w>
id ents</w>
r ay</w>
bu sy</w>
harg aan</w>
al ig
jo y</w>
la ws</w>
cryp to
c aya</w>
I br
peng unjung</w>
W estern</w>
g us
ab sol
ke kurangan</w>
dit ulis</w>
por kan</w>
mak ap
lig ence</w>
cre ating</w>
mar ami</w>
as s</w>
tes ts</w>
E li
F i</w>
I kaw</w>
men yang</w>
produ kto</w>
us akan</w>
Mar ia</w>
cur kan</w>
S un</w>
ish ment</w>
au dio</w>
A sian</w>
men ampilkan</w>
cor rect</w>
L atin</w>
in sta
hol i
sing kat</w>
menjal ani</w>
kom itmen</w>
og é</w>
fer ensi</w>
trans aksi</w>
al ized</w>
inst it
d ali</w>
li ved</w>
aw alnya</w>
Maa ari</w>
ber tar
T I
pro jects</w>
Har ry</w>
depos it</w>
plan ning</w>
S ak
ta il</w>
fas hion</w>
Bu ku</w>
pay ment</w>
appe ars</w>
dra w</w>
C lub</w>
bu tan</w>
hel ped</w>
S cot
ta c
par k</w>
kom er
k us</w>
requir ements</w>
n av
res er
US A</w>
Bu dd
Chil dren</w>
excell ent</w>
G ames</w>
w ati</w>
Dig ital</w>
th r
R adi
sp on
D onald</w>
B os
temper ature</w>
B ac
sur face</w>
di pl
J ack</w>
ap er</w>
gun akake</w>
mel anjutkan</w>
si r
mos i</w>
sol di
tro p
and u</w>
Mar et</w>
aju an</w>
l us
D ina</w>
per kataan</w>
to k</w>
er ja</w>
ar ankan</w>
Li hat</w>
il er</w>
ne go
tom orrow</w>
challeng e</w>
mem egang</w>
pic tures</w>
dr y</w>
our selves</w>
pin es</w>
f light</w>
me chan
develop ing</w>
Ker ajaan</w>
therap y</w>
In c</w>
Ro bert</w>
H um
ko p</w>
fig ure</w>
D am
pen dekatan</w>
Bu il
AN G</w>
ans wer
B uk
B ay</w>
prof it</w>
ho k</w>
penj ara</w>
all ed</w>
mem bolehkan</w>
in d</w>
di jual</w>
me kan
gol ongan</w>
ak adem
ber harga</w>
ter ia</w>
tu big</w>
cro ss</w>
ess or</w>
ti pe</w>
hany alah</w>
conf lic
oc cur</w>
kir i</w>
dem and</w>
ad ed</w>
in ks</w>
plasti k</w>
kon gan</w>
L im
ka ayo</w>
Par ty</w>
pho tos</w>
A H
M it
S ila</w>
C oo
comple x</w>
re turned</w>
cla im</w>
agre ement</w>
bat tle</w>
k has</w>
Se cre
experi enced</w>
k ir</w>
jour ney</w>
fam ilies</w>
meny ukai</w>
ant an</w>
fem ale</w>
p en</w>
respon sibility</w>
U R</w>
bah in</w>
na is</w>
den ly</w>
ad law</w>
I ra
p ping</w>
compet ition</w>
S ay
at ar</w>
gu ide</w>
be las</w>
im ages</w>
tain s</w>
s port</w>
kary awan</w>
ir ap</w>
ka ug
kha watir</w>
deng annya</w>
requ est</w>
ti red</w>
C i
kom bin
pe kan</w>
wak ili</w>
S W
Ang el
gu ess</w>
ang kap</w>
I II</w>
Inter nasional</w>
appropri ate</w>
conne cted</w>
k g</w>
tel e
f antas
con tract</w>
ah e</w>
man tan</w>
gaw e</w>
hij au</w>
inst all</w>
foo ds</w>
friend ly</w>
al itas</w>
ul l</w>
N um
fru it</w>
ber i</w>
an ja</w>
free dom</w>
So cial</w>
ke percayaan</w>
meng irim</w>
deter mine</w>
see ing</w>
os yo</w>
tulis an</w>
cep tion</w>
do h</w>
K ec
Lay anan</w>
ecu tive</w>
l ying</w>
Al la
ke ker
ro ll</w>
E R</w>
Ng ayon</w>
me l</w>
ha dir
g ala
z aman</w>
mu wan</w>
amp ang</w>
konsum en</w>
t ana</w>
tel efon</w>
pu ti</w>
pemer intahan</w>
ung er</w>
telev ision</w>
sal e</w>
n ic
dou bt</w>
bu an</w>
it ation</w>
bu tang</w>
fac tory</w>
is ip
relig ion</w>
tim ate</w>
Se lamat</w>
in da</w>
direc tor</w>
e th</w>
pis ah</w>
O kay</w>
menyer ang</w>
deta il</w>
ang er</w>
Men y
sa la
s cor
se terusnya</w>
secur e</w>
memper timbangkan</w>
se tting</w>
ir iman</w>
in is</w>
re ached</w>
cat atan</w>
he at</w>
Th anks</w>
E duc
mun a</w>
p m</w>
as as</w>
LO RD</w>
fa ult</w>
con duc
Bo th</w>
mo di
gum awa</w>
prin t</w>
ten ang</w>
st op
ge o
te a</w>
ar in</w>
kon tak</w>
spir it</w>
te tep</w>
any akan</w>
an asan</w>
suk ar</w>
ESYEESYEESYEESYEESYEESYEESYEESYE ESYEESYEESYEESYEESYEESYEESYEESYE
mela porkan</w>
ij ing</w>
meny enangkan</w>
sub st
kom ponen</w>
marke ts</w>
kap as
du ga</w>
ba bar
pre hen
c ac
In de
ca uses</w>
in os</w>
ber kualitas</w>
L a</w>
P ilip
jan ji</w>
qu ali
o kok</w>
or is</w>
ru angan</w>
Ro ad</w>
S ang</w>
mah usay</w>
pe dia</w>
se ek</w>
B aca</w>
flo or</w>
plan ts</w>
nger ti</w>
mul ti</w>
vir tual</w>
so al</w>
F es
sup pl
l intas</w>
en try</w>
ar g
L an
Th om
re searchers</w>
expla in</w>
Pre vious</w>
S qu
f at
em at
th us</w>
Re public</w>
lam pu</w>
spes ies</w>
f low
ar ch</w>
aff ect</w>
pon sel</w>
is yon</w>
su ku</w>
uh kan</w>
peng obatan</w>
ala la</w>
S T
as ur
C N
bay ad</w>
on ing</w>
ber pu
ex am
ng ag
ba has</w>
g ain
en e</w>
he hehe</w>
per buatan</w>
relig ious</w>
tran sa
Pro te
ilang ang</w>
ten ce</w>
cap acity</w>
J alan</w>
th ough
uni versity</w>
Ak hir
Ti ada</w>
ko h</w>
An tar
per a</w>
great est</w>
kam ing</w>
P ic
k it</w>
lem baga</w>
ven ue</w>
Govern ment</w>
as ana</w>
im e
se tahun</w>
I ts</w>
en h
Me la
ke kal</w>
ab ly</w>
anc angan</w>
ak tor</w>
meng akui</w>
K aw
te ams</w>
Jep un</w>
Do es</w>
Mo ses</w>
pin jaman</w>
tech no
con centr
en to</w>
un aan</w>
ke bebasan</w>
Ter baik</w>
J ac
pla te</w>
des a</w>
A F
ak ala</w>
la an</w>
uni versitas</w>
Gre en</w>
sur ro
effor ts</w>
m ys
se emed</w>
fin ished</w>
nak alipas</w>
kal im
we ather</w>
fortun ately</w>
smart phone</w>
V o
i ously</w>
ke eping</w>
Be ijing</w>
meng anggap</w>
th es</w>
li y
Kom un
Wat ch</w>
Fam ily</w>
ni yo</w>
orig in
ti ket</w>
B ol
Willi am</w>
influ ence</w>
af ter
men eg
ter api</w>
vehic le</w>
n uk
m and</w>
nov el</w>
ul ty</w>
N an
In formasi</w>
bal ance</w>
bet ting</w>
campa ign</w>
De wan</w>
bi r</w>
Tim es</w>
descri bed</w>
R ight</w>
con cept</w>
du ction</w>
anyanyanyany anyany
Serv ices</w>
oo th</w>
Braz il</w>
k ol
di ku
wat ching</w>
lo t
el ian</w>
en ding</w>
dr ugs</w>
An dre
in s
Eng kau</w>
on to</w>
sa u
cer ti
ar ikan</w>
cro w
tal ian</w>
al um
car ried</w>
bis yo</w>
su e</w>
v ity</w>
sig ht</w>
pro to
v ac
a aral</w>
Tent u</w>
os an</w>
te k</w>
aw aran</w>
or ders</w>
sin ya</w>
sa ved</w>
kon tribu
menang ani</w>
es sed</w>
ten ing</w>
ste el</w>
ma lah</w>
wee ken
L oo
vis ual</w>
P R
F it
men el
uju k</w>
bab nya</w>
Du bai</w>
centr al</w>
f low</w>
En ter
M P</w>
P O
f ing
Air port</w>
un ah
Ag ustus</w>
jaw aban</w>
amaz ing</w>
ph ere</w>
amp ung</w>
hap ter</w>
l ung
ber tujuan</w>
n es</w>
g ad
dec lar
F ood</w>
f i</w>
and atang
C C
F as
Ste el</w>
F oo
menur unkan</w>
v ak
er ship</w>
A ut
Egyp t</w>
inter aksi</w>
kal inya</w>
du p</w>
all ing</w>
H T
per form</w>
j ahat</w>
En er
sek it
J i
Rom a</w>
ke ur</w>
dro p</w>
H aw
Philip pines</w>
tim bang</w>
Sem oga</w>
h ood</w>
de tik</w>
O ver</w>
ke ten
parti es</w>
V it
I eu</w>
L ong</w>
ting g
t ari
ok si
ow ner</w>
pad aku</w>
Web site</w>
Ch ic
dis play</w>
gem ar</w>
es timat
us ual</w>
stor ies</w>
man age</w>
wor ldwide</w>
Mid dle</w>
sour ces</w>
te ach</w>
Rem ember</w>
C E</w>
lo ck</w>
gu aran
requ ires</w>
de lapan</w>
ka g</w>
ul itan</w>
M ang
ber tahun</w>
P L
h luk</w>
opportun ities</w>
tre ated</w>
dite tapkan</w>
WE B</w>
se latan</w>
n ations</w>
ba ba</w>
aha i</w>
ar m</w>
s ort</w>
D ik
dis covered</w>
P R</w>
lu m</w>
Bla ck
sam b
te x
Man ufactur
heav y</w>
ber sedia</w>
Mon day</w>
di ha</w>
wit ch</w>
ur unan</w>
ing kang</w>
chang ing</w>
si ang</w>
HI V</w>
ul ing</w>
Ar t</w>
ma inkan</w>
uw ih</w>
di vid
Se a</w>
ten d</w>
p ak</w>
bag an</w>
M o</w>
Ba ik</w>
cor por
any more</w>
pray er</w>
ro u
berju ang</w>
the ory</w>
ham il</w>
a c</w>
f ill</w>
Ke banyakan</w>
dala wa</w>
tur ning</w>
for ced</w>
W ater</w>
appear ance</w>
enter ian</w>
f ly</w>
popula si</w>
La ut</w>
E conom
kar on</w>
anim al</w>
nang ing</w>
tin at
el ang</w>
ar akan</w>
Un i</w>
ah atan</w>
gu id
ple as
bl ig
ko de</w>
n k</w>
Ital y</w>
I B
huk uman</w>
win dow</w>
com par
A li
m al</w>
mac hin
mala king</w>
G B</w>
D ap
p apan</w>
M O
de dic
im inal</w>
j asa</w>
ti a</w>
cli ents</w>
v isa</w>
ber maksud</w>
dire ction</w>
vi et</w>
crip t</w>
Pemer intah</w>
mengen al</w>
po in</w>
spe aking</w>
ber operasi</w>
j in</w>
p ajak</w>
i ses</w>
S on</w>
mela k
v an</w>
ph ones</w>
bri dge</w>
commer cial</w>
al er
iz ing</w>
tant angan</w>
i P
T ro
adi l</w>
tron ic</w>
pro jek</w>
Tan pa</w>
kat awan</w>
rah asia</w>
dist ance</w>
R oo
log am</w>
B ill</w>
kemu ka</w>
pem in
ma laman</w>
at at</w>
for ever</w>
fa ir</w>
fasil itas</w>
ses sion</w>
Ger eja</w>
la bel</w>
Li ver
der aan</w>
f lik</w>
c ars</w>
mene tapkan</w>
anci ent</w>
o b</w>
P op
Ch el
mer s</w>
ku men
al y
me ant</w>
aj ah</w>
dit awarkan</w>
yak ni</w>
tent ara</w>
a e</w>
lu ck</w>
kel ihatan</w>
S ana</w>
br a</w>
c ting</w>
charac ter
hum ans</w>
am but</w>
g ula</w>
em ahan</w>
per nikahan</w>
ak s</w>
me tal</w>
Char les</w>
j ari</w>
Kor ean</w>
con vers
D re
A ct</w>
t ali</w>
sig uro</w>
mak at
fu sed</w>
baha gi
lo gies</w>
us h</w>
di hasilkan</w>
At lan
pe ta</w>
ek or</w>
di keluarkan</w>
ta ught</w>
ab a</w>
memik irkan</w>
perc uma</w>
m é
y m
exp lo
g k</w>
p isan</w>
sep h</w>
pl us</w>
R os
re ports</w>
C inta</w>
ta lagang</w>
ber cakap</w>
pus o</w>
S angat</w>
pol is</w>
psy cho
top ik</w>
O o</w>
S to
e pe
up an</w>
ap e</w>
mor al</w>
inter pre
di bawa</w>
Con tact</w>
Afg han
r on</w>
krip si</w>
on ic</w>
di miliki</w>
en na</w>
clear ly</w>
be yond</w>
aw am</w>
ib er</w>
ka bel</w>
anta u</w>
bu wan</w>
B ahan</w>
t emb
ti r</w>
si asi</w>
wen to</w>
s ons</w>
d ll</w>
angg ar</w>
kin erja</w>
menggun akannya</w>
as king</w>
ar am
bah nya</w>
khus usnya</w>
S ama</w>
komen tar</w>
adv anced</w>
ter kemuka</w>
men tioned</w>
Afghan istan</w>
kay sa</w>
So viet</w>
D im
res toran</w>
ak eh</w>
colle ction</w>
B lue</w>
istr i</w>
bud get</w>
le wat</w>
Stu d
D E
men cu
for um</w>
mas s</w>
pen carian</w>
on i</w>
ac adem
antar abangsa</w>
Bel anda</w>
me dyo</w>
b ra
Arti kel</w>
im mun
c ik</w>
Develop ment</w>
Gam bar</w>
may roon</w>
u loy</w>
Al i</w>
meng gambarkan</w>
ce an</w>
hu wag</w>
ap preci
an at
L in</w>
tan i</w>
Jo seph</w>
ip ag</w>
il ian</w>
Wh ich</w>
atta cks</w>
S ir</w>
ob jec
si apkan</w>
ber manfaat</w>
cl oud</w>
A I</w>
abil ities</w>
ex ist</w>
s h</w>
ku cing</w>
and angan</w>
ac ts</w>
commit ted</w>
up o</w>
um en</w>
w aan</w>
Veg as</w>
su itable</w>
n ating</w>
kep ada
ang annya</w>
be da</w>
se berapa</w>
bro ken</w>
oper ations</w>
te aching</w>
mi ah</w>
n ako</w>
ker usakan</w>
uk ar</w>
al iran</w>
ber ter
pan ts</w>
F u
kat i</w>
Liver pool</w>
Yo ung</w>
Que en</w>
sur prised</w>
un less</w>
in struc
N u
M ari
Wak tu</w>
Men jadi</w>
sh ared</w>
m ali
clim ate</w>
or gan</w>
al ty</w>
Wor d</w>
M ain</w>
gan tikan</w>
sem ac
ow ned</w>
ngad to</w>
dri ving</w>
nak a</w>
be kas</w>
ner aka</w>
n ung</w>
lar ger</w>
rem ove</w>
memper baiki</w>
P un
r igh
M ess
ser upa</w>
s per
com ment</w>
y ment</w>
ker ing</w>
Man usia</w>
mir ip</w>
il os
tro uble</w>
altern atif</w>
emu i</w>
am al</w>
g res
ke dai</w>
la b
Sain t</w>
Th ree</w>
si y
D V
ab ungkan</w>
pregn ant</w>
Ka ilangan</w>
In formation</w>
qu ick</w>
T ry</w>
veg e
lan tai</w>
K is
S abi</w>
scal e</w>
real ize</w>
lan dia</w>
in stru
sel anjutnya</w>
ter nyata</w>
spes if
t unggu</w>
Th us</w>
er ror</w>
S O
J aw
Su per
s low</w>
in tah
J our
cop y</w>
y ani</w>
M ir
ger y</w>
ta ga</w>
Pok er</w>
se dangkan</w>
i da</w>
dang erous</w>
Cor por
h ell</w>
con v
ba u</w>
kese pakatan</w>
Academ y</w>
fa il
da man</w>
pol a</w>
shap e</w>
L ight</w>
kin ds</w>
Cas ino</w>
f ying</w>
b lue</w>
c ayai</w>
ham ba</w>
blo ck
fam ili
Per mainan</w>
mengh entikan</w>
h ong</w>
de cre
M L</w>
p wede</w>
at ically</w>
j aga</w>
p t</w>
dre ds</w>
Muslim s</w>
aj ian</w>
continu es</w>
ak en</w>
sem es
ko hol</w>
though ts</w>
il muwan</w>
ten si</w>
sin ar</w>
He av
o blig
harg ai</w>
is on</w>
Se j
si buk</w>
anc aman</w>
bir thday</w>
mis kin</w>
S how</w>
e e
in j
sh ouldn</w>
pr o</w>
E st
untu t</w>
tel ls</w>
lak as</w>
Jeho va</w>
Pen el
dama ian</w>
ng gak</w>
p ab
si la
per haps</w>
ke inginan</w>
par u</w>
angg ih</w>
reve aled</w>
ket at</w>
C ong
sh opping</w>
open ing</w>
S I
il ity</w>
peti si</w>
l om
F C</w>
al co
menik ah</w>
meng ingat</w>
sus u</w>
r awatan</w>
c em
H ak
ber la
wal king</w>
T om</w>
air craft</w>
asi un</w>
L ahat</w>
ra ise</w>
mel u
prim ary</w>
tek nis</w>
meng ungkapkan</w>
d ala</w>
fir m</w>
D NA</w>
Dani el</w>
jut kan</w>
antar anya</w>
h ik
affec ted</w>
Kah it</w>
si hkan</w>
po p</w>
di buka</w>
Per dana</w>
tutu p</w>
k id
Every one</w>
ber e
as am</w>
pak ar</w>
in sp
membu k
kal kan</w>
kin ahanglan</w>
im en</w>
if ic</w>
P las
ar ahan</w>
n em
off ering</w>
ind u</w>
B ib
ma da
Akhir nya</w>
ak tif
sen tr
cir cum
s ungai</w>
a set</w>
meng es
ma p</w>
O ly
o ke</w>
con ven
mem biarkan</w>
bil itas</w>
g il
emp re</w>
figh ting</w>
ous ness</w>
ame ter</w>
el ements</w>
den ing</w>
it ec
D O
h imo</w>
irim kan</w>
er o
publ ic
pac k
ar o</w>
se bagaimana</w>
der ful</w>
sin s</w>
min it</w>
pengelu aran</w>
arri ved</w>
mengh ilangkan</w>
C os
Re publik</w>
p ingg
ber iman</w>
Co de</w>
Lin ux</w>
lapor kan</w>
chem ical</w>
movi es</w>
bu ang</w>
M ari</w>
lim it</w>
meny us
h ate</w>
ch ief</w>
uku m</w>
Foun dation</w>
ul ly</w>
pla ys</w>
mis sing</w>
exis ting</w>
R ah
ad op
Te knologi</w>
dec isions</w>
tan ian</w>
it ah
offici als</w>
nap ak
deli ver
M asa</w>
je j
P ilih</w>
pem bu
bo dies</w>
Mar tin</w>
pembe lajaran</w>
abil is</w>
Mem ang</w>
and er</w>
J or
tol er
be tapa</w>
In v
A plikasi</w>
und red</w>
tr ig
inves tor</w>
ck y</w>
mak hluk</w>
ber fikir</w>
semac am</w>
H i</w>
eles aian</w>
res tric
w est</w>
St and
ter ol</w>
wel come</w>
parti cip
um a
ini um</w>
an aknya</w>
behavi or</w>
v acc
Ada lah</w>
Satur day</w>
na on</w>
vis itors</w>
Chel sea</w>
on ya</w>
Ad ministr
No te</w>
t itude</w>
tw ice</w>
stra ight</w>
b ought</w>
H AN</w>
Prem ier</w>
menye but</w>
y right</w>
vil lage</w>
T ype</w>
kand ungan</w>
Fr anc
im bangan</w>
H un
par an</w>
dipl om
fe el
on is</w>
te ach
ben er</w>
ber isi</w>
or ial</w>
regar ding</w>
ber makna</w>
B lu
Au th
pro of</w>
meli hat
suc i</w>
r ah</w>
sa lam</w>
I mag
ec es</w>
aj arkan</w>
ju di</w>
coo per
é ng
Wh at
meng on
sol utions</w>
re por
ti mur</w>
pag es</w>
ba d
inspir asi</w>
com plic
N ig
aka un</w>
z es</w>
bu ying</w>
ber ry</w>
ori da</w>
lem en</w>
n abi</w>
scho ols</w>
sa dar</w>
Ad v
se san</w>
g ay
x ing</w>
fun c
at ong</w>
mas yon</w>
N ik
T ek
con trac
thous and</w>
la bas</w>
k risis</w>
pin ess</w>
j ack</w>
bo y
nam anya</w>
it ang</w>
D ag
laun ched</w>
lar ang</w>
un ding</w>
i hin</w>
en tal</w>
regi onal</w>
p anya</w>
as inya</w>
bay angkan</w>
ala g
ev entu
Pales tina</w>
babar aha</w>
Bag ian</w>
Tai wan</w>
cli ent</w>
re alis
relev ant</w>
form ing</w>
se tt
Cus tom
pagkak ata
lak kan</w>
grap hic</w>
li ber
z at</w>
got ten</w>
ug ian</w>
smar t</w>
D ou
om bang</w>
attemp t</w>
C ath
as ar</w>
B oleh</w>
le aving</w>
tur a</w>
Mas ih</w>
cur i</w>
Ku ala</w>
se baliknya</w>
ata upun</w>
im possible</w>
our th</w>
Pub lic</w>
mem bel
pemb elian</w>
pak et</w>
dis ini</w>
ni at</w>
tab let</w>
Pac ific</w>
challeng es</w>
bur ung</w>
pag gamit</w>
Un dang</w>
el ds</w>
men angg
on ia</w>
komple ks</w>
G uru</w>
ra ised</w>
medic ine</w>
I E
ther wise</w>
pen urunan</w>
Mo ham
AN G
elec tion</w>
comple ted</w>
answer ed</w>
Ing ger
se c
ti le</w>
ic ian</w>
kunkunkunkunkunkunkunkun kunkunkunkunkunkunkunkun
kes ulitan</w>
bro ad
fo cused</w>
fin ish</w>
i ve</w>
S and
depen ds</w>
O ver
Brit ain</w>
B ack</w>
hum an
u f</w>
si bawa</w>
no tice</w>
be at</w>
uti li
t our</w>
e ing</w>
C ris
elek tronik</w>
mo on</w>
B E
pangg ilan</w>
ish es</w>
se olah</w>
v ation</w>
promo sikan</w>
coun ter</w>
V MB
Yun ani</w>
lap isan</w>
pro per</w>
appoin ted</w>
ter aan</w>
goo ds</w>
jal ma</w>
in asi</w>
crit ical</w>
ko s</w>
num erous</w>
kej ahatan</w>
independ ent</w>
prog ress</w>
f resh</w>
meman faatkan</w>
kun o</w>
Lang kah</w>
M inggu</w>
is ola
c risis</w>
clo thes</w>
ven ess</w>
ng ala
Educ ation</w>
S wis
Ingger is</w>
call s</w>
ng an
teng ok</w>
n ilang</w>
dah ilan</w>
H ello</w>
ba har
ke wangan</w>
recommen ded</w>
se ctor</w>
it asi</w>
lo sing</w>
VMB Q
tabl es</w>
W H
sit ting</w>
sy ukur</w>
fi f
stu ff</w>
Gi ve</w>
V PN</w>
P ula
en ab
pal su</w>
mem impin</w>
S at
mengh ancurkan</w>
di am
a id</w>
ip e</w>
pen e
se pak
P um
K ab
p aha
gag awin</w>
penye bab</w>
so kongan</w>
de ep
so d</w>
won der</w>
uk tur</w>
C A</w>
stop ped</w>
nang yari</w>
tes ting</w>
prose dur</w>
d hu
k top</w>
feel ings</w>
ku da</w>
N ah</w>
nuc lear</w>
keker asan</w>
Span ish</w>
ke baikan</w>
dat abase</w>
St ation</w>
sur ve
or ed</w>
exc ited</w>
sem bunyi</w>
re kan</w>
jal ankan</w>
me wakili</w>
ber dua</w>
maxim um</w>
gemb ira</w>
a agi</w>
des er
mem angg
ch i</w>
ir t</w>
z er</w>
ref le
viol ence</w>
pag su
de fe
com ments</w>
l ars</w>
nam ing</w>
s low
si bly</w>
D ut
pin aka</w>
M aha
cas inos</w>
I C</w>
Indones ian</w>
andatang ani</w>
dik si</w>
nya éta</w>
r s</w>
lin ks</w>
ik kan</w>
pem ahaman</w>
telev isi</w>
wewe wewe
Mak anan</w>
melak sanakan</w>
uj ar</w>
Tur key</w>
Pas tikan</w>
US B</w>
se puluh</w>
pert am
let te</w>
manaj er</w>
sen eng</w>
saha bat</w>
Ho t</w>
di e
per tu
scen e</w>
nak ar
con sci
la st
kas o</w>
V en
re a</w>
ik lim</w>
ly wood</w>
meny ampaikan</w>
r ates</w>
weeken d</w>
ser i</w>
win d</w>
f ell</w>
w ine</w>
te ch</w>
pem ikiran</w>
pl ane</w>
kam ay</w>
ing ing</w>
un o</w>
pun cak</w>
tung kan</w>
N O</w>
M en</w>
Le laki</w>
v el
stre et</w>
t ask</w>
sh aring</w>
keku asaan</w>
un sur</w>
l anc
J ack
epis ode</w>
t ations</w>
kontribu si</w>
kamp ung</w>
emu an</w>
st ated</w>
me tab
co w</w>
accoun ts</w>
Medic al</w>
fa ham</w>
alis me</w>
S P
la bing</w>
t ad
se siapa</w>
B O
Fes tival</w>
f ir</w>
to ward</w>
se benar</w>
Fin d</w>
sin asabi</w>
H ou
C le
syar atan</w>
An y</w>
blo ck</w>
D oc
Pr ime</w>
ku an</w>
ha h</w>
av a</w>
log o</w>
gam ing</w>
di laporkan</w>
Nang ing</w>
auth ority</w>
tr us
kan imo</w>
ven ture</w>
der ation</w>
v an
vari asi</w>
et te</w>
g ampang</w>
pen umpang</w>
G a
ri er</w>
el emen</w>
ah usay</w>
n en
A ri
ham ilan</w>
separ ate</w>
ber banding</w>
Pen didikan</w>
jum pa</w>
tun ay</w>
pass word</w>
mil k</w>
ge lap</w>
war m</w>
expla ined</w>
j et</w>
butu h</w>
B ulan</w>
N az
S mar
ma ayo</w>
mem ula
kon flik</w>
lo an</w>
Dis ney</w>
D ili</w>
sol id</w>
pro file</w>
ap ps</w>
mele takkan</w>
do s</w>
o es</w>
Pula u</w>
isti me
il an
pat uloy</w>
dis h</w>
air port</w>
ag ency</w>
n ing
pec ts</w>
to too</w>
ar tinya</w>
disi pl
Ibr ah
dit u
k itu</w>
swe et</w>
over all</w>
Mis s</w>
peng u
tr ial</w>
it er</w>
mal e</w>
h undred</w>
bang ga</w>
inter view</w>
mendeng arkan</w>
speci fic
fun da
Ker ja</w>
opini on</w>
lap it</w>
pre viously</w>
ac ting</w>
at ak
priv acy</w>
Afr ican</w>
lo k</w>
to hnya</w>
cre ation</w>
asi on</w>
organiz ations</w>
mang sa</w>
das arnya</w>
W ould</w>
su it</w>
Des ign</w>
is nya</w>
di ka
la ban</w>
pre pare</w>
t unya</w>
Sp ain</w>
iz inkan</w>
E qu
sig n
ug h</w>
H ukum</w>
stu dio</w>
Lit tle</w>
Re u
Produ ct</w>
mil es</w>
pag tat
Bis nis</w>
men an
mul ut</w>
ch er</w>
ke pem
y ers</w>
conne ct</w>
kan kah</w>
N av
f ts</w>
N ations</w>
ber kuasa</w>
mem ec
manag ed</w>
Ker ana</w>
is tic</w>
ri kan</w>
sud denly</w>
sedi h</w>
ter rit
ka edah</w>
el imin
dr am
beg ins</w>
di panggil</w>
hir an</w>
P S
meny el
iy an</w>
peng hargaan</w>
happen ing</w>
emer gency</w>
en ed</w>
depen ding</w>
ali ve</w>
ser bisyo</w>
G ra
seku tif</w>
mil lions</w>
K i
is in
them e</w>
adverti sing</w>
d é
kelu arg
an ian</w>
parti sipasi</w>
p al</w>
anc am</w>
g ri
y én</w>
G O
mengg anggu</w>
Swis s</w>
per atus</w>
ar my</w>
wan ag</w>
p id
Po int</w>
sis ten</w>
fe deral</w>
ter paksa</w>
si hat</w>
B il
law anan</w>
liy ane</w>
ic ial</w>
cal on</w>
al kohol</w>
Rak yat</w>
k w
eventu ally</w>
L T
az ine</w>
fe els</w>
mas ukkan</w>
occ up
lap top</w>
pem enang</w>
star ts</w>
Cour t</w>
b inc
ac id</w>
inst ance</w>
ho p</w>
cy cle</w>
g ila</w>
si l</w>
pertem puran</w>
bel anja</w>
membuk tikan</w>
Pro ject</w>
waj ib</w>
tu long</w>
le ts</w>
ic y</w>
j il</w>
con tain</w>
bin atang</w>
men utup</w>
Ira q</w>
j akan</w>
infec tion</w>
menghub ungi</w>
mag kak
won derful</w>
fas ter</w>
mag karoon</w>
mat aas</w>
C B
pu h</w>
am kan</w>
lar awan</w>
to y</w>
ar ia</w>
bo ys</w>
c lin
ar ity</w>
encan akan</w>
Th ur
ung nya</w>
d ated</w>
komer sial</w>
i pag
neg osyo</w>
menang is</w>
we alth</w>
ter ri
L L
des pite</w>
concer ned</w>
ant aran</w>
ter kena</w>
hap on</w>
G az
li am
P age</w>
An tara</w>
elec tric</w>
la lo</w>
ko y</w>
ay am</w>
cul tural</w>
oles terol</w>
cl usi
T aman</w>
bu dak</w>
di le
em osi</w>
N ame</w>
profes sion
n gi</w>
nom bor</w>
bar is</w>
hun dreds</w>
ho tels</w>
ay akan</w>
gam itin</w>
fin ding</w>
ro l</w>
ng aj
re duc
meng ajar</w>
jus tice</w>
g lass</w>
Se t</w>
om ong</w>
kem ajuan</w>
ro oms</w>
no tic
P ad
A pan</w>
po t
suff ering</w>
men u
cap able</w>
atan api</w>
dit entukan</w>
ya iku</w>
plasti c</w>
bro thers</w>
pur poses</w>
roug h</w>
z one</w>
th i
ta wan</w>
out put</w>
chan nel</w>
n d</w>
mele wati</w>
top ic</w>
buk as</w>
al and</w>
Hen ry</w>
mela inkan</w>
yak inan</w>
Arab ia</w>
incre asing</w>
pl es</w>
dur e</w>
Per t
suc ce
st y
L i</w>
WAWAWAWAWAWAWAWAWAWAWAWAWAWAWAWAWAWAWAWAWAWAWAWAWAWAWAWAWAWAWAWA WAWAWAWAWAWAWAWAWAWAWAWAWAWAWAWAWAWAWAWAWAWAWAWAWAWAWAWAWAWAWAWA
j obs</w>
ar ahkan</w>
pering atan</w>
con tr
le bihan</w>
P har
Pol it
po kok</w>
tiv ity</w>
ka m</w>
cal cu
produ k
ka bar</w>
kos ong</w>
iti onally</w>
pen ampilan</w>
Ar gent
sug ar</w>
diter bitkan</w>
nam ang</w>
seg alanya</w>
il eg
L as</w>
Reu ters</w>
In stead</w>
bi e</w>
tu tor
ga ther
Champi ons</w>
eng ers</w>
fun ds</w>
A ward</w>
scienti fic</w>
H igh
ba bagan</w>
so lar</w>
D ol
leng th</w>
ter an</w>
he aring</w>
se juk</w>
author ities</w>
gu il
eh ong</w>
ir us</w>
xim ately</w>
respon d</w>
at en</w>
s ongs</w>
dol lar</w>
in as</w>
bi d
ar oon</w>
un uhan</w>
min eral</w>
relation ships</w>
peng gemar</w>
sa f
H P</w>
mag anda</w>
didi rikan</w>
K no
ir anya</w>
pem buatan</w>
Beg itu</w>
Tr ade</w>
pur a</w>
wiwiwiwi wiwiwiwi
conf idence</w>
li r</w>
ner ship</w>
cho sen</w>
ban kan</w>
T ung
ri buan</w>
mit ra</w>
r ying</w>
wuju d</w>
d res
Tu juan</w>
stand ards</w>
Ti ga</w>
am ihan</w>
Aut om
fa iled</w>
In f
ce tak</w>
fac tor</w>
Soci ety</w>
Ric hard</w>
foo t</w>
ay e
K emb
Prin ce</w>
men dalam</w>
peny er
pro mosi</w>
g t</w>
Lum pur</w>
kar bon</w>
Net work</w>
Y O
z i</w>
Pales tin
ul us</w>
charac ters</w>
Filip ina</w>
ter lebih</w>
ob jek</w>
G A</w>
Tr u
tu kar</w>
seny um</w>
il miah</w>
din y
Al kitab</w>
s ent
meng adakan</w>
menim bulkan</w>
unah ing</w>
se bag
restaur ant</w>
bi y
With out</w>
favor it</w>
wor se</w>
ad ults</w>
car bon</w>
ke ting</w>
Sor ry</w>
ri c</w>
ef ully</w>
s al</w>
R ob
ting in</w>
mela yani</w>
was te</w>
tr ess</w>
ada r</w>
col labor
typ ically</w>
hidup nya</w>
sm aller</w>
M A
valu es</w>
impor tance</w>
sele ct</w>
tem patan</w>
C la
meng alahkan</w>
righ te
gag alan</w>
S as
dre ams</w>
Ri ver</w>
famili ar</w>
tr end</w>
inde ed</w>
bi asaan</w>
enter ed</w>
al angan</w>
th ir
pert eng
nasi b</w>
ro ong</w>
Ke tua</w>
Se hingga</w>
a be
ic on</w>
stor age</w>
bi an</w>
Per lu</w>
ad or</w>
ac cor
at uan</w>
bro ker</w>
ter ing</w>
L ine</w>
hear ts</w>
ca ught</w>
ou l</w>
pag kain</w>
bi es</w>
a ang</w>
kin aka
hel ping</w>
bak at</w>
mon itor</w>
mah imo</w>
b our
fe ed</w>
ker ugian</w>
Se arch</w>
TU HAN</w>
ke jut</w>
p ig
suff ici
be ach</w>
asur ansi</w>
conven i
id ing</w>
an mar</w>
om an</w>
dhe weke</w>
de b
P C
pan duan</w>
kedu dukan</w>
bersi fat</w>
sever e</w>
prog res
writ er</w>
foun ded</w>
O s
per ut</w>
pag sas
be ar</w>
pregn ancy</w>
he l</w>
recommen d</w>
as tron
P ada
is tered</w>
mengun tungkan</w>
identi al</w>
ap s</w>
m ang</w>
for th</w>
pun an</w>
Y et</w>
S U
Man aj
as ter</w>
jelas an</w>
is iko</w>
kombin asi</w>
horm on</w>
g un</w>
S ri</w>
meng inginkan</w>
Com mission</w>
n ine</w>
ber kel
dol lars</w>
man is</w>
An a</w>
ter asa</w>
kar ir</w>
Ma x</w>
mas y
is ikan</w>
dar at</w>
C lin
SW T</w>
Y en</w>
dik irim</w>
k ingdom</w>
ter atur</w>
audi ence</w>
k ai</w>
pan tas</w>
j ah</w>
sta bil</w>
el it</w>
wor ship</w>
sem i</w>
Fe deral</w>
kamp anye</w>
occur s</w>
so unds</w>
bu o</w>
menang kap</w>
s aran</w>
promo te</w>
mat at
i OS</w>
l ights</w>
ah iran</w>
me ja</w>
sem inggu</w>
pro ve</w>
ku wi</w>
L I
c ket</w>
da mi</w>
r in
secon ds</w>
u re
hat ag</w>
hon an</w>
tu mu
me an
H all</w>
T ips</w>
bi hi</w>
comfor t</w>
pe gaw
ini wala</w>
g ate</w>
da laman</w>
anta s</w>
s ick</w>
pu kul</w>
maa f</w>
fil ter</w>
d less</w>
lo s</w>
ar us</w>
neigh bor
weap ons</w>
s car
b re</w>
pet unjuk</w>
peng am
d h</w>
le uwih</w>
on e
pl enty</w>
fun ctions</w>
k lin
hand le</w>
an x
I ki</w>
ha r</w>
bir u</w>
li pat</w>
h es
exis tence</w>
ev ening</w>
wid ely</w>
perju dian</w>
langu ages</w>
c am</w>
lem but</w>
kam ah</w>
ob ject</w>
ad os</w>
S D
mag ic</w>
di harapkan</w>
au an</w>
ni la
f li
E l</w>
Austr alian</w>
any where</w>
sk i</w>
be ban</w>
aba ikan</w>
Rom an</w>
accom pl
or ang
sti ck</w>
jo ined</w>
n ings</w>
ta pos</w>
mu seum</w>
identi fy</w>
Mas alah</w>
sum pah</w>
My anmar</w>
a ilangan</w>
mengen dalikan</w>
sur gery</w>
S w
se babnya</w>
us ak</w>
mer a
S ite</w>
ici ans</w>
P art</w>
man ual</w>
com mon
di be
uh u</w>
y l</w>
refer red</w>
W rit
un ded</w>
ben c
ig o</w>
K a</w>
im er</w>
enem y</w>
at annya</w>
boo k
Sm ith</w>
care ful</w>
du m</w>
part ners</w>
kat nya</w>
man ner</w>
al es</w>
peng h
smil e</w>
tel ur</w>
par an
Oly mp
l on</w>
Se con
ib in
Lu ar</w>
impor masyon</w>
pun ika</w>
combin ation</w>
T ell</w>
s itu</w>
sen arai</w>
re aksi</w>
mele paskan</w>
techni ques</w>
A H</w>
fail ure</w>
htt p</w>
s day</w>
p he
kre atif</w>
experi ences</w>
nang ang
ordin ary</w>
back ground</w>
intro duced</w>
kit chen</w>
ri an</w>
meli puti</w>
peng iriman</w>
ke hamilan</w>
mak si
si d
cr ime</w>
az ah</w>
nge unaan</w>
all er
produ sen</w>
Kese hatan</w>
we k
leng kapi</w>
y el
c us</w>
b oss</w>
R evol
si des</w>
ce dera</w>
pin ap
agre ed</w>
any any</w>
c er</w>
dg n</w>
mengur angkan</w>
mo dal</w>
fir man</w>
dir ilis</w>
Y A</w>
conflic t</w>
determin ed</w>
im bawa</w>
hou se
tin u
Wed nes
cre ative</w>
gr up</w>
dise ases</w>
beg ini</w>
si ji</w>
pan an
Cen tre</w>
lam in</w>
c ita</w>
se at</w>
kon sul
Con trol</w>
T entang</w>
P y
con ference</w>
Bu at</w>
sho es</w>
meng in
crypto currency</w>
them at
mengand ungi</w>
lo s
dem ocr
remo ved</w>
spe ech</w>
claim s</w>
ju dge</w>
inter ior</w>
ekon om
meas ure</w>
ber sa
C amp
D on
pre dic
Y ung</w>
men a
Th ings</w>
M other</w>
cat ch</w>
sak si</w>
diagno sis</w>
De f
Every thing</w>
men ahan</w>
do kumen
h ara</w>
a on</w>
z im</w>
t p</w>
sen dirian</w>
gen der</w>
B log</w>
tiv itas</w>
John son</w>
be ses</w>
S am</w>
Ibrah im</w>
e dad</w>
W iki
ul ugan</w>
res t
Je ws</w>
hol ding</w>
H D
Gre ek</w>
Se dangkan</w>
o be
nag tat
Sej arah</w>
X ia
G old</w>
claim ed</w>
H aving</w>
ter bukti</w>
in et</w>
bor der</w>
peng adilan</w>
kepada mu</w>
si um</w>
ro bot</w>
S ala
cook ies</w>
ba ju</w>
Ital ian</w>
Tu es
unju kan</w>
la tar</w>
Ze aland</w>
Lo gin</w>
Ber apa</w>
Thom as</w>
br ang</w>
Ch eck</w>
os ing</w>
sa babaraha</w>
bot tom</w>
is co</w>
dise butkan</w>
Kem enterian</w>
ul ture</w>
tuju i</w>
cir cu
sa iki</w>
dem okr
sub s
kon omi</w>
J ar
mele bihi</w>
Per janjian</w>
ten ed</w>
dis cover</w>
St at
d us
pe lak
C C</w>
S tor
ter pisah</w>
i et</w>
un able</w>
ag ent</w>
pat ut</w>
di han</w>
br an
pemer iksaan</w>
ik ha</w>
s op
mel un
or al</w>
fir masi</w>
G ay
m ak</w>
R ights</w>
sup posed</w>
D I
Fin ally</w>
mo ga</w>
An ti
K ay</w>
mod els</w>
N ang</w>
ek sp
Sh ang
L aman</w>
kah win</w>
s cr
L en
l ess
ha iwan</w>
proces sing</w>
ang y
g abi</w>
ol ik</w>
ris ks</w>
t est
r agu</w>
Com mit
pas sion</w>
rang kaian</w>
promi sed</w>
ila ian</w>
J ur
h anda</w>
dikemb angkan</w>
m angg
com mand</w>
Hi dup</w>
ba lah</w>
ig it</w>
en ever</w>
bil angan</w>
ber doa</w>
bl ed</w>
hadir an</w>
an ug
deli very</w>
ter hubung</w>
bur n</w>
mag andang</w>
e w
S S
Des cription</w>
ar ms</w>
ser ang
mener apkan</w>
ak h
v isi</w>
pang unahing</w>
peny elesaian</w>
Hos pital</w>
par ehong</w>
huj ung</w>
am o</w>
tu kang</w>
per tahanan</w>
s kala</w>
kom petisi</w>
proper ly</w>
kaw alan</w>
Budd ha</w>
manufactur er</w>
Fl orida</w>
Meng gunakan</w>
melihat nya</w>
tel ling</w>
exper ts</w>
Des pite</w>
deli ver</w>
accep ted</w>
Wednes day</w>
dr inking</w>
spo ke</w>
P ilihan</w>
confir med</w>
Bi asanya</w>
vil le</w>
z ona</w>
Un der
ident ity</w>
kapas itas</w>
lis ted</w>
lo ves</w>
fa ir
S hin
memas ukkan</w>
Se benarnya</w>
tu ig</w>
holi day</w>
pres tasi</w>
was ta</w>
ro id</w>
D af
B I</w>
par e
cu ti</w>
Americ ans</w>
L an</w>
par ah</w>
Un fortunately</w>
e z</w>
altern ative</w>
to x
ap plied</w>
pur cha
su b</w>
St ore</w>
en tr
pres ents</w>
di simpan</w>
S tan
s pl
hi buran</w>
str ik
tempor ary</w>
anyanyanyanyanyanyanyanyanyanyanyanyanyanyanyany anyanyanyanyanyany
pro perti</w>
P asi
ne ar
sur ga</w>
sek iranya</w>
Fo to</w>
us yon</w>
anyanyanyanyanyanyanyanyanyanyanyanyanyanyanyanyanyanyanyanyanyany anyany</w>
sup ported</w>
z ik</w>
ber kesan</w>
fu el</w>
interes ts</w>
k h
docu ments</w>
scienti sts</w>
la sa</w>
Pro phet</w>
H om
m ood</w>
ab ing</w>
ch e</w>
fle x
se gi</w>
n one</w>
pos sibility</w>
Gala xy</w>
S H
Fr an
per lukan</w>
K e</w>
M oun
Ber ry</w>
ph ilos
meny okong</w>
kon sentr
pri or</w>
f ourth</w>
meas ures</w>
P aling</w>
O ut</w>
se pe
mar an
pi eces</w>
hin tay</w>
sej auh</w>
dedic ated</w>
arti st</w>
anyanyanyanyanyanyanyanyanyanyanyanyanyanyanyanyanyanyanyanyanyanyanyanyanyanyanyanyanyanyanyanyanyanyanyanyanyanyanyanyanyanyanyanyanyanyanyanyanyanyanyanyanyanyanyanyanyanyanyanyanyanyanyanyanyanyanyanyanyanyanyanyanyanyanyanyanyanyanyanyanyanyanyanyanyanyanyanyanyanyanyanyanyanyanyanyanyanyanyanyanyanyanyanyanyanyanyanyanyanyanyanyanyanyanyanyanyanyanyanyanyanyanyanyanyanyanyany anyanyanyanyanyanyanyanyanyanyanyanyanyanyanyanyanyanyanyanyanyanyanyany</w>
k ilala</w>
h il
diri kan</w>
Tues day</w>
per anan</w>
é k</w>
ha bit
T at
la ser</w>
uc ture</w>
mess ages</w>
z en</w>
tre es</w>
tion ary</w>
c ry</w>
re sep</w>
an jeunna</w>
ad akah</w>
but ton</w>
N om
T i</w>
a yang</w>
e ur</w>
o ts</w>
Min istry</w>
in ts</w>
fil ms</w>
alco hol</w>
Bo ard</w>
ant ang</w>
tat long</w>
t s
ha hanap</w>
call ing</w>
Has il</w>
ir o</w>
Sh ould</w>
D istr
K ong
Mu dah</w>
D y
ig n
kur si</w>
hon est</w>
Thur sday</w>
hy dro
Mar ket</w>
fer red</w>
k id</w>
Bang sa</w>
nav ig
mem akan</w>
l er
tamp il</w>
G or
è h</w>
S ports</w>
pun ta</w>
sebag ainya</w>
R ou
L os</w>
men dapati</w>
ung e</w>
pela tihan</w>
I d
o logical</w>
K asi</w>
cro s
ent asi</w>
pin tar</w>
eg an</w>
ha la
W all</w>
en der</w>
aw ard</w>
ber h
jec ted</w>
What s
h es</w>
W ay</w>
pemb unuhan</w>
program me</w>
per formed</w>
ori um</w>
proces ses</w>
sar iling</w>
jam inan</w>
Penel itian</w>
meng identifikasi</w>
T P</w>
ear n</w>
al im
lik es</w>
fac es</w>
Bang kok</w>
nes ses</w>
Pro f
cu aca</w>
moun tain</w>
M ike</w>
ber lebihan</w>
n in
lo d</w>
ju jur</w>
akhir i</w>
mem promosikan</w>
bo ga</w>
lead ership</w>
a hal</w>
Go ji</w>
un its</w>
perteng ahan</w>
ti lah</w>
Secon d</w>
di lengkapi</w>
meng akses</w>
wuju dkan</w>
oper ator</w>
N atur
pagkakata on</w>
men daftar</w>
we ak</w>
gar den</w>
da ble</w>
bat tery</w>
mel arikan</w>
ila lim</w>
Sam peyan</w>
Whe ther</w>
M ag</w>
ut kan</w>
circum st
ag ot</w>
min ister</w>
r at</w>
alis ts</w>
r ent</w>
tom bol</w>
As k</w>
ac tual</w>
wa e</w>
u red</w>
bak teri</w>
B apa</w>
B en</w>
hur uf</w>
W ol
as o</w>
SA W</w>
peng er
in ary</w>
ke yakinan</w>
B M
per syaratan</w>
i x</w>
Vie w</w>
citiz ens</w>
ng ng
LA H</w>
commer ce</w>
facil ities</w>
P ak</w>
e up</w>
ta as</w>
lak sanakan</w>
her o</w>
ob tain</w>
r are</w>
sum us
li ya</w>
enc ing</w>
lu bang</w>
Pro vin
pag iging</w>
hal os</w>
ag er</w>
pegaw ai</w>
li buran</w>
bu g</w>
im panan</w>
G an
equ al</w>
T ay
ti ally</w>
mem at
lead s</w>
Hap py</w>
fle k
o tor
suk ai</w>
elec tr
angg ur</w>
se kurang</w>
bo c
pu tra</w>
mang rup
un y
z u
ke can
mos tly</w>
mas ak</w>
uh in</w>
Se x</w>
de h</w>
til ity</w>
laun ch</w>
kan ako</w>
an tar</w>
S ad
Y é
meng angkat</w>
minim al</w>
cle an
ber n
uj ung</w>
er ial</w>
cre dit
Con ne
et ary</w>
k ila
mengh or
st res</w>
ab o</w>
Kelu arga</w>
kum pul</w>
pris on</w>
ent ation</w>
pat nya</w>
imag ine</w>
te was</w>
form al</w>
ber hak</w>
ant en</w>
as ih</w>
ka ilangang</w>
aye una</w>
gr at
N g</w>
ala gi</w>
appro ximately</w>
ne uro
men ilai</w>
bo at</w>
mener us</w>
kay aan</w>
li p
bes i</w>
di minta</w>
s outh</w>
ke waj
ch ron
ber as
mengel ola</w>
sol ve</w>
se tempat</w>
ab di</w>
ir ik</w>
g lu
thre at</w>
A th
am alan</w>
kalig us</w>
Gre e
o i</w>
pen s
de but</w>
po tong</w>
Ne ver</w>
bla ck
ke ep
memula kan</w>
sa cri
R ac
l or</w>
ter kejut</w>
Whats App</w>
ut k</w>
pes akit</w>
er ai</w>
c adangan</w>
Be ing</w>
An im
pang ang
P U</w>
unt ung</w>
di s</w>
keluarg anya</w>
lin ked</w>
me at</w>
man u
sur vey</w>
R oc
tre n</w>
A K</w>
Ser ies</w>
o v</w>
Sp ace</w>
To tal</w>
convers ation</w>
Pilip inas</w>
st itu
le ep</w>
can di
mag ne
we aring</w>
mer ang
V C</w>
em an</w>
Mon ey</w>
Chic ago</w>
I b
estimat ed</w>
Ar sen
ta yong</w>
mo honan</w>
C ar</w>
dek ade</w>
um s</w>
jur u</w>
li qu
bre a
For ce</w>
kela hiran</w>
rat usan</w>
pe dagang</w>
cipl es</w>
Y u
Ang katan</w>
Un it</w>
inc ess</w>
hap piness</w>
W i</w>
A qu
ut ely</w>
iba dah</w>
pro ye
enomen a</w>
emat ika</w>
clo ser</w>
gin agamit</w>
ri de</w>
k ilang</w>
du han</w>
sus unod</w>
Un der</w>
Sun da</w>
e ign</w>
ar rang
st on</w>
San ta</w>
ter day</w>
L at
C all</w>
angy ari
mengg abungkan</w>
as aran</w>
fr ustr
A sh
prose so</w>
ob ati</w>
B ap
bak aran</w>
ng gawe</w>
ter utamanya</w>
Ex c
i th
sear ching</w>
nor th</w>
in tu
je laj
te or
Coun ty</w>
fr ame</w>
du ct</w>
f os
G B
es sing</w>
gr am
Bo x</w>
g al
clas s
vi ola
mel anggar</w>
has ilnya</w>
f ik</w>
ke biasaan</w>
Pag katapos</w>
wak e</w>
e book</w>
sur prise</w>
mali it</w>
Bab y</w>
Mar keting</w>
relev an</w>
Ch ris</w>
ter s
la g</w>
peng urusan</w>
fore x</w>
Gol den</w>
d asi</w>
men teri</w>
spec tive</w>
S till</w>
an ak
pu tus</w>
Isra eli</w>
gir l
pr ene
priv asi</w>
tu l
ow ners</w>
la ugh
bas kan</w>
Argent ina</w>
Mem buat</w>
ar is</w>
fol lows</w>
FI FA</w>
seng aja</w>
administr ation</w>
it aan</w>
v ital</w>
li fes
yu ta</w>
pl ore</w>
pos ite</w>
we ak
ng ab
intel ligence</w>
na i
meng ajukan</w>
to koh</w>
in aw</w>
as is</w>
His tory</w>
sesu aikan</w>
pri ba
Pan el</w>
mence tak</w>
dec ades</w>
vehic les</w>
im prov
re action</w>
ge t
M a</w>
akib atkan</w>
block chain</w>
at awan</w>
le gen
is kan</w>
ka fir</w>
di mainkan</w>
pat en</w>
h ur</w>
in sul
sab en</w>
hom es</w>
di sen
ex ec
memb ina</w>
Pol ice</w>
mis takes</w>
S cre
flow ers</w>
Cl oud</w>
effici ent</w>
inten ded</w>
ak anlah</w>
gel ombang</w>
P P</w>
tung od</w>
i anya</w>
ung annya</w>
ber ulang</w>
se kaligus</w>
N ag</w>
e ar</w>
pag ka
stro ke</w>
T angg
gan itong</w>
rela tively</w>
ke bang
meng isi</w>
ke empat</w>
men entang</w>
D or
Ag ung</w>
é h</w>
di produksi</w>
m id</w>
W oo
d est</w>
hol ds</w>
ma lapit</w>
hab is</w>
kar ani
benc ana</w>
C el
kak ak</w>
meng irimkan</w>
L ake</w>
M E</w>
Perk hidmatan</w>
rum it</w>
P ER
it nya</w>
R aya</w>
wor st</w>
sem bly</w>
uk sesan</w>
D ir
Ar my</w>
common ly</w>
b kan</w>
A wards</w>
ju dul</w>
kon sisten</w>
con sul
gam ot</w>
kele bihan</w>
Jo e</w>
sag ot</w>
defin ed</w>
F ire</w>
tar ian</w>
th ly</w>
H ak</w>
Wor k</w>
nag sas
hol y</w>
rela tif</w>
speci ally</w>
deal er</w>
mad aling</w>
aj an</w>
ad to</w>
re di
nak ap
Vit amin</w>
ko t
gi veness</w>
co very</w>
Gun akan</w>
ann ual</w>
Vic tor
m ari</w>
mas jid</w>
efisi en</w>
M S
ten tera</w>
pos sibly</w>
S ino</w>
S top</w>
ala h
gro wn</w>
O k</w>
initi al</w>
jour n
U s
sun od</w>
m l</w>
D er
s pring</w>
destro yed</w>
L A</w>
direc ted</w>
A ff
pan nya</w>
Commit tee</w>
S pa</w>
aff ili
memper kenalkan</w>
ng anti</w>
notic ed</w>
add res
id er</w>
injur y</w>
discus s</w>
ser ving</w>
tes ted</w>
f iz
n alang</w>
hh h</w>
tas te</w>
dete ksi</w>
An ti</w>
ke gagalan</w>
Se baliknya</w>
C ard</w>
zh ou</w>
R ev
intah kan</w>
ri ver</w>
nego ti
fr on
d ness</w>
ok asi</w>
identi fied</w>
m m
Br un
inov asi</w>
du du
machin es</w>
rus ak</w>
suff er</w>
proper ties</w>
ac tor</w>
K r
Li ber
mis take</w>
Mo m</w>
J uan</w>
usu l</w>
par ti</w>
mera ih</w>
mik ro
me al</w>
recogni zed</w>
win ter</w>
instit usi</w>
Mo bil</w>
la tions</w>
reli able</w>
ligh tly</w>
real ized</w>
ed ge</w>
pel ik
ur y</w>
ng ah
Industr i</w>
istime wa</w>
underst ood</w>
g ahan</w>
techno logies</w>
ste in</w>
il iki</w>
M ula</w>
w ad
tur unan</w>
prac tical</w>
strug g
teach ers</w>
su pl
thre at
exc iting</w>
sc ore</w>
Dem ocr
di ikuti</w>
penye dia</w>
inc or
kap atid</w>
T ab
pus tak
spe k
dila hirkan</w>
re land</w>
hub ungi</w>
Eng ine
Gir l</w>
big ger</w>
p in</w>
ex plor
ci ple</w>
s mel
se dar</w>
i ons</w>
E S</w>
Stand ard</w>
dum ating</w>
bu hat</w>
M and
bac teria</w>
peng aw
mer ujuk</w>
fur nit
ka yong</w>
ala ga</w>
d ele
mer okok</w>
polic ies</w>
anc er</w>
te dly</w>
kem ahiran</w>
Ch an
map ag
uk ah</w>
g lad</w>
fi elds</w>
ha w
g ers</w>
san aan</w>
frequ ently</w>
nak a
DV D</w>
b é
Sum ber</w>
Y un</w>
kin abu
mat apos</w>
bu m
L ist</w>
pem baca</w>
effec tively</w>
Ber ita</w>
per tanian</w>
menghor mati</w>
hou ses</w>
compon ents</w>
isti rah
ham dul
partici pants</w>
O x
J on
men datang</w>
as pects</w>
peng aturan</w>
prof il</w>
fe e</w>
ill ed</w>
Tur k
ju bkan</w>
me dit
recor ded</w>
pem ilihan</w>
graf is</w>
del a</w>
ber warna</w>
diny atakan</w>
su asana</w>
ke dah</w>
Ro h</w>
camp uran</w>
Cop yright</w>
engg ara</w>
W is
recogni ze</w>
d un</w>
S ila
ik on</w>
tah unan</w>
meny i
manufactur ing</w>
Pem ain</w>
mak a
des ktop</w>
Pe ace</w>
ing redi
S T</w>
UR L</w>
lang kung</w>
mo le
da pur</w>
en dar</w>
nak as
conduc ted</w>
y ar</w>
ul ihan</w>
Pers onal</w>
tour nam
arch itec
c up</w>
daf taran</w>
suffici ent</w>
ser iously</w>
Jour nal</w>
but nya</w>
ans in</w>
ah ang</w>
A lat</w>
d osis</w>
Ay ah</w>
wek tu</w>
un in</w>
t ons</w>
eng gar
os ter
autom atically</w>
Corpor ation</w>
k orang</w>
resis tance</w>
ber ta
u aikan</w>
meng hapus</w>
so lat</w>
Christi ans</w>
lo y
S ug
meng aku</w>
ba bay
ir am
dama i</w>
bo doh</w>
E konomi</w>
x i</w>
fi x</w>
s wasta</w>
destro y</w>
control led</w>
domes tic</w>
tain ing</w>
pus h</w>
medi um</w>
vie wed</w>
F ull</w>
T y
mi ingon</w>
k é</w>
j al</w>
di m
angk asa</w>
emo tional</w>
M ars</w>
H adi
hi dr
kemu dahan</w>
industr ial</w>
li ga</w>
s at</w>
V E</w>
member sihkan</w>
v s</w>
mat eri</w>
er no</w>
e dy</w>
Su ci</w>
mal u</w>
De partemen</w>
dak wa</w>
Ste ve</w>
P ul
Al um
ka dagiti</w>
an cara</w>
tradi si</w>
I reland</w>
ci um</w>
Hub ungi</w>
me t
sa ingan</w>
il lah</w>
memper hatikan</w>
mo tor
seg ar</w>
kab ilang</w>
r ak</w>
ber kongsi</w>
V an
Hol lywood</w>
pan ag
consum ers</w>
po unds</w>
kno wing</w>
do gs</w>
t iti
M s</w>
diper kirakan</w>
sta ble</w>
o a</w>
dika itkan</w>
oto hanan</w>
Sof tware</w>
li ver</w>
fes tival</w>
r ics</w>
boy friend</w>
ac le</w>
Mos cow</w>
ik atan</w>
qu ant
ver if
F O
pat ay</w>
Or ig
dir imu</w>
H us
Direc tor</w>
di jalankan</w>
as t
Angel es</w>
vi sed</w>
t ch</w>
m ing
ny o
ur ga</w>
An al</w>
IS IS</w>
menyak sikan</w>
sho wing</w>
Gaz a</w>
ke tahui</w>
co ach</w>
ba ja</w>
bersi han</w>
gr ace</w>
Pol icy</w>
edit or</w>
sa we
de bt</w>
A A</w>
c ute</w>
Wel come</w>
ill er</w>
Te am</w>
hi dro
Lap oran</w>
konsentr asi</w>
ch ances</w>
L aw
pos t
K now</w>
k ris
ing kali</w>
L ag
mem bahas</w>
pengelu ar</w>
menj amin</w>
as ts</w>
Ver y</w>
Mo on</w>
kla sik</w>
the e</w>
her self</w>
Di se
memangg il</w>
lolololo lolololo
ar res
L agi</w>
komen das
mengen ali</w>
menc intai</w>
ang ry</w>
Ar tic
meng klaim</w>
il legal</w>
perf ec
ye ah</w>
cour ses</w>
r ar
apar tment</w>
a ing</w>
iP ad</w>
Je wish</w>
spen ding</w>
Pala ce</w>
ha y
inst alled</w>
w oo
taw aran</w>
w ave</w>
ro h</w>
St art</w>
pil ot</w>
air s</w>
gan ap</w>
squ are</w>
Ber lin</w>
dy nam
i on
pes anan</w>
th o
ay ahnya</w>
horm at</w>
lu cky</w>
d dy</w>
am inya</w>
C hat</w>
sin yal</w>
men engah</w>
ingg alkan</w>
leg is
su kan</w>
sti c</w>
R I</w>
l ers</w>
hol e</w>
pen uhi</w>
hy dr
sug gest</w>
di atur</w>
hid den</w>
kun di</w>
ab at</w>
nam en</w>
commun ities</w>
c anggih</w>
mas aya</w>
institu tions</w>
mul i</w>
ad ding</w>
bij ak
mis sed</w>
anti bio
Pada hal</w>
im ming</w>
elec tronic</w>
pum unta</w>
tif y</w>
am ang</w>
sar af</w>
centr e</w>
at ap</w>
berju dul</w>
P AS</w>
memper siapkan</w>
E h</w>
reg istr
ta ya</w>
diper oleh</w>
do ors</w>
prak tik</w>
J ava</w>
ken aikan</w>
pu as</w>
la tor</w>
di ble</w>
NA SA</w>
jen dela</w>
positi ons</w>
cho ices</w>
es cape</w>
low ing</w>
f ted</w>
sta f</w>
Th er
gum agamit</w>
hel p
t ough</w>
ab sor
aktif kan</w>
ig il</w>
el la</w>
Pen ye
strate gies</w>
ber salah</w>
fol io</w>
T op
pos ts</w>
prak tis</w>
ang kah</w>
I V</w>
maj lis</w>
sim pl
J ab
ox y
gu ard</w>
fac ts</w>
at orium</w>
situ ations</w>
environ mental</w>
se ss</w>
n is
artic les</w>
sap ag
divid ed</w>
an dia</w>
min san</w>
Shang hai</w>
Fre e
Su ch</w>
ici ous</w>
s ity</w>
c and
Qu ality</w>
bo m</w>
sa ha</w>
per ubatan</w>
la kaan</w>
circumst ances</w>
oper ate</w>
Com mer
te eth</w>
H ur
nak ikita</w>
hop es</w>
lu p
eg o</w>
gradu ate</w>
hal us</w>
tic ally</w>
nag la
B um
insp ired</w>
ber hati</w>
go s</w>
por tion</w>
sep atu</w>
mah irap</w>
il la</w>
al le
T M</w>
Or der</w>
mer cy</w>
tu bu
me wah</w>
sip il</w>
am aan</w>
He art</w>
inf lam
W ong</w>
ala s</w>
din ner</w>
pen i
ir on</w>
academ ic</w>
Sin abi</w>
Fin ancial</w>
B ug
Lou is</w>
Con toh</w>
Kum pulan</w>
Mo tor</w>
as il</w>
a im</w>
P K
pelaj aran</w>
commit ment</w>
V ene
tutor ial</w>
cor rup
kaug al
B and
ur al</w>
l inya</w>
men untut</w>
f ro
m es</w>
W on
has n</w>
F al
M alah</w>
ka is
kat ap
new sp
resul ta</w>
de pression</w>
é hna</w>
colle ct</w>
wed eng</w>
Be t
li ar</w>
D ad</w>
ala wang</w>
perju angan</w>
pol y
sel s</w>
ch ip</w>
transport asi</w>
di dasarkan</w>
suppli er</w>
I K
mengen akan</w>
Cath olic</w>
ber komunikasi</w>
di h
ili g</w>
Jor dan</w>
Jac ob</w>
tamp ilan</w>
hor se</w>
me yak
g on</w>
di dukung</w>
ucap an</w>
pu tting</w>
ing atan</w>
S ay</w>
wi j
el ig
per lahan</w>
pen ce
R ome</w>
ber asa</w>
kal i
Ras ul</w>
an in</w>
e over</w>
th ou</w>
emu di</w>
ing katkan</w>
Re gi
profession als</w>
du anya</w>
ben ci</w>
hendak lah</w>
b eng
em ia</w>
cr imin
am oun
kill ing</w>
sibil ities</w>
prote cted</w>
sig nal</w>
bertar uh</w>
Ir ak</w>
metab ol
kas yon</w>
ik lah</w>
h ani</w>
mabu ti</w>
advanta ges</w>
A yo</w>
men des
man eh</w>
hi asan</w>
igh ty</w>
mer on</w>
gam baran</w>
ref ug
main ly</w>
pertu karan</w>
m ama</w>
la hnya</w>
m il</w>
M B</w>
nutr isi</w>
car efully</w>
ber tambah</w>
plan ned</w>
M ik
yo unger</w>
ling go</w>
lay er</w>
em ph
t yle</w>
immun e</w>
L es
se es</w>
P l
kah w
belie f</w>
ke kayaan</w>
rem em
mengu asai</w>
Se oul</w>
to tally</w>
ans wers</w>
bu g
any an</w>
ber umur</w>
la luan</w>
disipl in</w>
a is
Ke pala</w>
as y
Par ang</w>
schedul e</w>
pem ak
engine ering</w>
pen awaran</w>
consum ption</w>
est ate</w>
Uni versiti</w>
rem in
for est</w>
ma m</w>
g aji</w>
H z</w>
Daf tar</w>
T ul
un k</w>
d ney</w>
br ings</w>
sa j
fal se</w>
la b</w>
Ber dasarkan</w>
sawe tara</w>
Th ink</w>
Squ are</w>
net works</w>
muk ha</w>
meng gantikan</w>
n itong</w>
ke temu</w>
ber partisipasi</w>
maksu dkan</w>
S arah</w>
ku r</w>
bl es</w>
B BC</w>
p ong</w>
L agu</w>
ber encana</w>
at on</w>
B ut
N al
Pla t
tun ai</w>
ant inya</w>
prak ti
c s</w>
pre diksi</w>
seles aikan</w>
m abilis</w>
sy a
Me tal</w>
proce dure</w>
ay u</w>
U s</w>
ti e</w>
K y
th or
pay ing</w>
st asiun</w>
prem ium</w>
Ah li</w>
mer ancang</w>
exper t</w>
pl ano</w>
S ungai</w>
pos al</w>
Sab tu</w>
pack age</w>
sa lamat</w>
tu n</w>
de ad
o therwise</w>
nuk lir</w>
no ted</w>
gag asan</w>
nag bibigay</w>
n au
per or</w>
D il
J os
s on
ph ase</w>
ig an</w>
re duced</w>
der i
tain able</w>
aw ala</w>
Austr ia</w>
n il
g aling</w>
f s</w>
B ak
sa ins</w>
mela hirkan</w>
h ake</w>
ig ay</w>
h angat</w>
C ra
mer usak</w>
pemas ok</w>
ob serv
iz in</w>
baba w</w>
ah an
sele cted</w>
s n
dit utup</w>
maksi mum</w>
h ome
op is
tar ikh</w>
kole ksi</w>
S wit
pag itan</w>
nik al</w>
Lear n</w>
di inginkan</w>
po und</w>
investig ation</w>
C in
N ak</w>
recor ds</w>
ser tif
reg ularly</w>
liam ent</w>
ib unya</w>
Tra vel</w>
g u</w>
inves tors</w>
help ful</w>
peny impanan</w>
accur ate</w>
Mo der
du ty</w>
pat ah</w>
menghub ungkan</w>
cap kan</w>
Di ff
L ady</w>
ang kau</w>
U pang</w>
win ner</w>
allow ing</w>
spesif ik</w>
ram ah</w>
par tai</w>
in her
Priv acy</w>
mem ori</w>
kahw inan</w>
pinakam ahusay</w>
ad aran</w>
tim s</w>
T our
st an</w>
ie un</w>
sin a</w>
di pasang</w>
provid er</w>
ig ar
sim bol</w>
in ated</w>
de partment</w>
bahagi aan</w>
H E
p y
N ah
olog is</w>
mat ang</w>
re ward</w>
Di rek
è n</w>
menak jubkan</w>
bit coin</w>
ch ic
S af
consis ts</w>
ээээээээээээээээ ээээээээээээээээ
naf as</w>
sh irt</w>
rela tions</w>
pe fully</w>
av o
offic er</w>
Gar den</w>
Coo k
gre w</w>
ke ke
har mon
ad jus
A rea</w>
to t</w>
cer das</w>
Cl ick</w>
Gay un
ba w</w>
r d</w>
re place</w>
le aves</w>
F our</w>
ber tanggungjawab</w>
form ula</w>
f a</w>
kunj ungi</w>
kilome ter</w>
survi ve</w>
ac u</w>
C las
ng anggo</w>
Per haps</w>
Sur at</w>
Q atar</w>
absol utely</w>
meng akibatkan</w>
mem produksi</w>
N G</w>
H im
Gun ung</w>
achiev ed</w>
s apa</w>
di capai</w>
say uran</w>
issu ed</w>
wor thy</w>
Or a</w>
Hel p</w>
a at</w>
ent re
sus pen
N i</w>
belie vers</w>
har m
Ar chi
D ur
lis tening</w>
so k</w>
Arsen al</w>
un te
f ung
assis t</w>
did to</w>
hi de</w>
J al
vic tory</w>
kon firmasi</w>
pe gang</w>
bu kannya</w>
war ning</w>
p aman</w>
g el</w>
cor rec
to k
Stu di</w>
ke tak
pli es</w>
kes uksesan</w>
Mem iliki</w>
Aw ak</w>
vo te</w>
sem bilan</w>
Num ber</w>
Bag aimanapun</w>
Peny akit</w>
abri c</w>
s anc
br o</w>
men tion</w>
B S</w>
qu iet</w>
é k
ra f</w>
R p</w>
for giveness</w>
emb re</w>
S tory</w>
r asanya</w>
incre ases</w>
meng ec
jen eng
on om
G um
heal th
pen ilaian</w>
in ti</w>
menge jar</w>
differ ences</w>
Radi o</w>
particip ate</w>
kes ak
mal ik</w>
h oo
reco gn
S uk
it oring</w>
slow ly</w>
c it
present ed</w>
ter uk</w>
def ense</w>
dr a</w>
ex pression</w>
bo und</w>
Ro ck</w>
mas sa</w>
p ad</w>
W A</w>
it ung</w>
Pr ice</w>
meng al
Col um
pre fer</w>
pin aagi</w>
trans port</w>
appro ved</w>
u b</w>
di kel
lim it
Gu ar
pes ta</w>
se cu
m ini</w>
Spe cial</w>
Ad d
Mat the
v ul
bre ad</w>
Ram ad
const antly</w>
re ka</w>
sens or</w>
M ain
menyes uaikan</w>
encour age</w>
is ta</w>
Ch ro
di laksanakan</w>
tam bahnya</w>
ar sit
In tel
y ente</w>
adv ance</w>
sej en
tel inga</w>
um pa</w>
Par tai</w>
epe kto</w>
che ap</w>
padpad padpad
ra p</w>
op ti
kon struksi</w>
declar ed</w>
istirah at</w>
lo aded</w>
sh es</w>
ing nya</w>
enter tainment</w>
ber agam</w>
Ener gy</w>
z er
buil dings</w>
norm ally</w>
ing u
Pi hak</w>
d os
peny em
j el
gab ungan</w>
strug gle</w>
univers al</w>
h atkan</w>
el ev
Wiki pedia</w>
AL LAH</w>
pert ar
N ight</w>
Cong ress</w>
ter ies</w>
se moga</w>
de cor
C lo
compu ters</w>
elek trik</w>
ng ayong</w>
ul tural</w>
am ed</w>
es a</w>
tent angan</w>
mas sive</w>
Franc isco</w>
P on
p ack</w>
Kit ab</w>
For d</w>
D e</w>
re cip
Cu ba</w>
aba s</w>
l el
konek si</w>
kasal uku
gl ory</w>
M rs</w>
j a
see king</w>
ku ha</w>
untu k
menj adi
En viron
ci vil</w>
memo tong</w>
M am
D ic
te ka</w>
Pro ses</w>
No thing</w>
meng harapkan</w>
L and</w>
P E</w>
c tive</w>
aran jeunna</w>
mat ters</w>
cre am</w>
emo tions</w>
sepe da</w>
atmos phere</w>
concer n</w>
j amin</w>
prin ciples</w>
al in
assis tance</w>
K os
kul iah</w>
Nig eria</w>
Th ough</w>
mag ulang</w>
em asan</w>
z aan</w>
Peng gunaan</w>
R ab
pem andangan</w>
recei ving</w>
lu k
in put</w>
st ood</w>
menye butkan</w>
ic ide</w>
es ome</w>
th eless</w>
maj alah</w>
Ale x</w>
compet itive</w>
har aan</w>
R abu</w>
M T</w>
specific ally</w>
we et</w>
ang el</w>
hir ap</w>
r apat</w>
tur ing</w>
n t</w>
J umat</w>
ver theless</w>
H S</w>
ke hadiran</w>
J ones</w>
foun dation</w>
ak ti
Pu tih</w>
a a
Ing at</w>
Peng guna</w>
su m</w>
ag puan</w>
am arga</w>
rem ar
TH E</w>
In ves
Inv est
an ch
Air lines</w>
o ka</w>
s p</w>
al ization</w>
sej ati</w>
hu a</w>
im ula</w>
al ities</w>
membu ang</w>
di bayar</w>
L or
Kat egori</w>
Den mark</w>
lam un</w>
n aan</w>
angk atan</w>
girl friend</w>
tu p</w>
Chi ef</w>
K uring</w>
mo tion</w>
clas ses</w>
ar m
y ou
wis dom</w>
ka yak</w>
on able</w>
C ou
pat utnya</w>
peng um
n and
sens itive</w>
techni que</w>
ad opsi</w>
ob jects</w>
dar urat</w>
eks per
Un sa</w>
ung kap</w>
Ti ong
ex plore</w>
sup ports</w>
kat ulad</w>
col ors</w>
luc u</w>
Mo vi
in aan</w>
Me an
re ction</w>
as sets</w>
some body</w>
ad ult</w>
docu ment</w>
Y an</w>
lul us</w>
in er</w>
teg angan</w>
Ste ph
z e
pos ted</w>
dit angkap</w>
wor ried</w>
cover s</w>
at om</w>
di larang</w>
D um
enjo yed</w>
kal ori</w>
spo ken</w>
funda mental</w>
Ukra ine</w>
Pap ua</w>
ca using</w>
soldi ers</w>
spo kes
kha wat
consum er</w>
per batasan</w>
pu tri</w>
e ast</w>
w estern</w>
de ar</w>
wen ang</w>
Mul ti
dro me</w>
M ata</w>
Se g
docu men
div or
kan kan</w>
te pi</w>
p ali
U E
kar ag
jo int</w>
U mum</w>
ny awa</w>
S I</w>
G et
ma themat
nu tri
x x
Tag s</w>
O il</w>
Bo b</w>
organ ik</w>
ba lay</w>
menyer tai</w>
ho t
D al
waw ancara</w>
doc tors</w>
le bar</w>
ro ut
tan k</w>
as ses
or dered</w>
cover ing</w>
sk ill</w>
g h</w>
philos oph
pres yo</w>
Ser ver</w>
Lo g
bu malik</w>
ber kualiti</w>
Il mu</w>
em e</w>
W ow</w>
stor es</w>
an ji</w>
the ast</w>
aw e</w>
ula si</w>
gan ito</w>
ka baba
di sesuaikan</w>
do t</w>
i di</w>
N on</w>
di benarkan</w>
o bes
p any
ken dali</w>
I G
emplo yment</w>
in depen
J an</w>
mengu capkan</w>
ic u</w>
pe per
Res pon
hamdul illah</w>
per gerakan</w>
bl ind</w>
A SE
we h</w>
reg istered</w>
w ur</w>
ke tua</w>
Organ isasi</w>
blog ger</w>
mula an</w>
meng hargai</w>
oo oo
Dut ch</w>
la o</w>
op ol
tes ti
Samp ai</w>
destin ation</w>
s ment</w>
refer ence</w>
aj at</w>
us apan</w>
S aw
Sek itar</w>
T I</w>
bersa ing</w>
el ed</w>
di sem
s antai</w>
wak tunya</w>
categ ory</w>
T uan</w>
te kan</w>
wh ere
U sa</w>
angku t</w>
st ands</w>
trad er</w>
g is
ib ility</w>
separ uh</w>
me ters</w>
dis pu
resol ution</w>
bo g</w>
A y</w>
ex ternal</w>
acc ident</w>
mac em</w>
Ho tels</w>
kal u
mah imong</w>
dis k</w>
di pakai</w>
Bro wn</w>
Victor ia</w>
an ana</w>
L un
ang a</w>
dis k
ker ap</w>
re plied</w>
j ak
stre aming</w>
Organ ization</w>
ref lec
ro da</w>
sumus unod</w>
M uk
meng akhiri</w>
clo thing</w>
remain ed</w>
every body</w>
val id</w>
pic ked</w>
dij adikan</w>
menge jutkan</w>
ap art</w>
libr ary</w>
am an
su lat</w>
ha laga</w>
ex press</w>
ex ecutive</w>
hy per
in um</w>
U dara</w>
an ay</w>
B aka</w>
en able</w>
w ah
C ru
Ad dress</w>
valu able</w>
Tan ah</w>
qu e
per baikan</w>
HT ML</w>
sy en</w>
U L
ban j
D ro
pik irkan</w>
per anti</w>
ban ks</w>
se min
re ply</w>
Pr ia</w>
practic es</w>
menc atat</w>
im pression</w>
termin al</w>
ple ased</w>
meny arankan</w>
bar eng</w>
stre am</w>
bi ji</w>
communic ate</w>
vic tims</w>
F un
p lu
ula san</w>
h uling</w>
ul um</w>
NO T</w>
fac ing</w>
inter n
Sy dney</w>
T uh
concer ns</w>
ban jur</w>
K ir
ex act</w>
ter kini</w>
H ai</w>
pustak aan</w>
kalim at</w>
arti s</w>
believ es</w>
Str ate
meneg askan</w>
ne u
hon or</w>
K ali</w>
er at</w>
Pas ar</w>
la ugh</w>
S peci
ma i
Y er
E C
pen cari</w>
angyari han</w>
nag sis
wer en</w>
i ak</w>
fic ate</w>
o to</w>
B ar</w>
ent h</w>
occur red</w>
hit ung</w>
pos ure</w>
sp ac
cut ting</w>
me lamp
bir d</w>
po wers</w>
men andatangani</w>
stan bul</w>
char ged</w>
guaran tee</w>
regi ons</w>
Per ubahan</w>
memo hon</w>
T el</w>
meny um
Lang u
gu ests</w>
hard ware</w>
Ap plic
Pel anggan</w>
er de
K ant
diken akan</w>
Se lasa</w>
ng é</w>
No ong</w>
as a
akadem ik</w>
la dy</w>
su l</w>
bre ath</w>
In n</w>
an jutan</w>
kas ing</w>
Stud ents</w>
E uro</w>
sepak bola</w>
cam p</w>
kan ser</w>
iy e</w>
r ub
de gre
cra zy</w>
te en
M ada
Emp ire</w>
Portu gal</w>
ak urat</w>
par king</w>
sa iz</w>
li p</w>
pemb eli</w>
tum or</w>
depend ent</w>
htt ps</w>
Bad an</w>
sh oul
fac ebook</w>
mem andang</w>
strong er</w>
w ada
se tia</w>
memas ang</w>
con text</w>
ar annya</w>
ke b
Val ley</w>
id en
b ike</w>
kak a
Matthe w</w>
deliver ed</w>
mencer itakan</w>
da p
bersam aan</w>
kece lakaan</w>
mem or
kunj ungan</w>
mel em
M ilan</w>
Perk ara</w>
fic ations</w>
ng omong</w>
or e
Gu ang
win dows</w>
op pon
V e
evalu asi</w>
polit ics</w>
b ung
lin ed</w>
meny u
impro ved</w>
Th rough</w>
shoo t</w>
uni verse</w>
sele ction</w>
ar anya</w>
ter lepas</w>
ad u</w>
hop ing</w>
ku lar</w>
bat erai</w>
seku tuan</w>
y n</w>
per gian</w>
Dr agon</w>
stat istik</w>
Su atu</w>
ad ala</w>
pen jelasan</w>
kas ikan</w>
sup porting</w>
an da
tu tan</w>
men dirikan</w>
ent eng</w>
su por
sol id
ad u
Sen in</w>
memas ak</w>
utu san</w>
rela syon</w>
U sing</w>
M akan</w>
Ber sama</w>
s lightly</w>
os y
reco very</w>
descri be</w>
b lu
il u</w>
communic ations</w>
yo ga</w>
pu asa</w>
To wn</w>
ed back</w>
dit an
Ag ain</w>
ber kat</w>
inv est</w>
ref ers</w>
band ara</w>
res tor
Mar aming</w>
jaw ab
mat ematika</w>
kom en</w>
al lah</w>
M I</w>
emb ar
head s</w>
Bu d
di lan
ng al
c ake</w>
fi xed</w>
sak e</w>
run s</w>
p h</w>
men un
it ate</w>
perse tujuan</w>
ar at</w>
paran tos</w>
satis fied</w>
komendas ikan</w>
ar lah</w>
in it</w>
sej ah
wit ness</w>
aiman akah</w>
sup por
e es</w>
U C
t to</w>
spes i
er as</w>
u log</w>
kum aha</w>
ob vious</w>
ac ted</w>
ap nya</w>
remo te</w>
combin ed</w>
pat tern</w>
di aan</w>
cooper ation</w>
amoun ts</w>
Mes ki</w>
j ac
De ath</w>
res cu
swe ar</w>
se demikian</w>
mis sion
K ol
I stanbul</w>
Mus im</w>
signific antly</w>
bo tol</w>
U ser</w>
r u</w>
I L</w>
blo k</w>
Loo king</w>
on ym
tu mat
f are</w>
mende kati</w>
crit ic
m um
boc ah</w>
ter sisa</w>
in si
S ony</w>
karani wang</w>
e g</w>
ar alan</w>
o tan</w>
sas aran</w>
re less</w>
S C
inter face</w>
con clu
ju taan</w>
sem pat</w>
s tic
mengha diri</w>
ident itas</w>
SM S</w>
degre es</w>
pen emuan</w>
th row</w>
M enc
kem an
c able</w>
ber ed</w>
AP I</w>
Ag ency</w>
es ia</w>
C lar
sam pel</w>
Manaj emen</w>
menger ikan</w>
se lamanya</w>
mem baw
Ram ai</w>
ju kan</w>
she et</w>
r ati
R onal
pag mam
r ase</w>
S E</w>
smo king</w>
Commun ic
kam an</w>
K adang</w>
b antu</w>
s witch</w>
babay e</w>
jaw apan</w>
wak il</w>
sig en</w>
motiv asi</w>
P ort</w>
st a</w>
To wer</w>
men ar
k ati
pas al</w>
m ol
di ction</w>
p id</w>
histor ical</w>
kal e
ad min</w>
ir man</w>
l angg
N aj
success fully</w>
S atan</w>
Par t
it ary</w>
str ange</w>
kewaj iban</w>
T ER
en tuk</w>
S C</w>
W ahai</w>
be an</w>
h d</w>
T our</w>
H il
follow ers</w>
ie ty</w>
si hir</w>
ic ked</w>
tem ple</w>
ne ither</w>
angku tan</w>
memat uhi</w>
re ti
lifes tyle</w>
an e
i babaw</w>
distribu tion</w>
Har us</w>
kas an</w>
ai b</w>
he y</w>
br inging</w>
menjadi kannya</w>
kat otohanan</w>
inc in</w>
Mean while</w>
tr on</w>
id o</w>
per damaian</w>
fun ny</w>
accor dance</w>
kej ayaan</w>
Val ent
ter dengar</w>
penting nya</w>
C ir
for give</w>
ba th
N ur
Se seorang</w>
anj ikan</w>
Dok ter</w>
as ks</w>
con duct</w>
mus cle</w>
jang anlah</w>
coo king</w>
pem uda</w>
maha laga</w>
os pel</w>
D I</w>
pas an</w>
ber syukur</w>
Fr ank</w>
S ong</w>
Sel anjutnya</w>
c ker</w>
Cer ti
es h</w>
p ine</w>
g itu</w>
demokr asi</w>
lun ch</w>
ro ti</w>
ag ung</w>
Bo y</w>
sa r</w>
ob tained</w>
ju ara</w>
im migr
res idents</w>
quar ter</w>
CO V
L ima</w>
meng ukur</w>
mel eng
loc ations</w>
ha ir
kar amihan</w>
pun ishment</w>
v in</w>
si bel</w>
as ons</w>
sol e</w>
r ice</w>
ditam bah</w>
Ay aw</w>
an al</w>
enem ies</w>
For um</w>
b one</w>
U P</w>
mu zik</w>
di adakan</w>
ula tion</w>
d or</w>
suff ered</w>
di ct</w>
mengu ji</w>
kas ar</w>
Qu es
per mohonan</w>
sen g</w>
ke bakaran</w>
Ex change</w>
melun curkan</w>
M P
sh el
enti rely</w>
men on
iy ak</w>
ke te
ID S</w>
War na</w>
k ia</w>
kas ay
wil d</w>
Ses u
D S</w>
every day</w>
sub jek</w>
tem ukan</w>
Foo tball</w>
sig h
ken e</w>
origin ally</w>
kamp us</w>
nasi hat</w>
cr ying</w>
Semu anya</w>
sa yo</w>
wal ked</w>
was h</w>
Des ain</w>
ditem patkan</w>
Bu kankah</w>
r ancangan</w>
ad at</w>
al t</w>
ur utan</w>
ber upa</w>
kur an</w>
hal nya</w>
pu tr
pur e</w>
ath le
lind ungi</w>
pot ongan</w>
ab road</w>
W ire</w>
didi k</w>
J es
arres ted</w>
ber nilai</w>
yes terday</w>
Enter tainment</w>
p lug
Sem asa</w>
il et</w>
u wa</w>
lung sod</w>
organ ic</w>
har m</w>
grap h</w>
tek nikal</w>
hit ungan</w>
ell ed</w>
val ent</w>
Per empuan</w>
E M</w>
M ini</w>
em ap</w>
aba y</w>
defin isikan</w>
g im
Per i
ko we</w>
jaw atan</w>
G O</w>
fo to
acc es
jec tion</w>
di jelaskan</w>
hy po
am p</w>
berter usan</w>
Sim on</w>
ig id</w>
Turk ish</w>
c ope</w>
tu loy</w>
al ok</w>
ka un
em ic</w>
ur s</w>
insul in</w>
Alex ander</w>
memen angi</w>
C ari</w>
t les</w>
sh it</w>
le k</w>
instruc tions</w>
discus sion</w>
atten d</w>
abe th</w>
sa v
A yon</w>
entre prene
se baik</w>
ber lari</w>
tr as
invol ves</w>
p ace</w>
us us</w>
R e</w>
break fast</w>
H ill</w>
Uni vers
pla cement</w>
du ha</w>
id os</w>
per si
sh ut</w>
ex clusi
const itu
ras mi</w>
sig ur
vis ited</w>
la hi</w>
mer awat</w>
kk kk
Dri ve</w>
ro se</w>
Buil ding</w>
b im
To yo
p ons</w>
b ill</w>
Manag er</w>
S ing</w>
Z h
ir u</w>
ber pengalaman</w>
peng ajaran</w>
He ad</w>
ungg ulan</w>
tas ks</w>
s ara</w>
Lu ke</w>
mag azine</w>
Sul tan</w>
infrastr ucture</w>
Ar ts</w>
s ore</w>
krit ik</w>
peng en</w>
F A
tol ong</w>
eg or
is ter
Medic ine</w>
hir up</w>
un nya</w>
trad ition</w>
H ung
ig i</w>
Sh er
a ah</w>
P il
inc ident</w>
Kemb ali</w>
W ant</w>
E ff
erde kaan</w>
pers ons</w>
bre aking</w>
pe tugas</w>
e us</w>
ph er
ton ight</w>
establ ish</w>
ke turunan</w>
imp ian</w>
ter buat</w>
ber alih</w>
WH O</w>
bat h</w>
log is</w>
y outh</w>
ph y
l it</w>
w alls</w>
pen si
wat er
An aly
p andang</w>
ter per
W ang</w>
ng gunakake</w>
J ose</w>
com prehen
lo l</w>
g age</w>
bij ak</w>
d unya</w>
i as</w>
sta l</w>
F el
op posite</w>
lag ay</w>
a is</w>
la bi</w>
st om
pem buat</w>
so brang</w>
all ery</w>
Sam uel</w>
so si
s asa</w>
m ation</w>
Pu tin</w>
memb atasi</w>
di r</w>
remain ing</w>
dhu wur</w>
ate ful</w>
di masukkan</w>
hi yon</w>
ap ped</w>
pel anggaran</w>
memec ahkan</w>
ken deraan</w>
k ula</w>
E D</w>
sugges ted</w>
kel emahan</w>
su rely</w>
me wujudkan</w>
bi d</w>
el ement</w>
bir ds</w>
con struc
ru tin</w>
c abang</w>
om pa</w>
pen u
inv ited</w>
L ama</w>
tar ge
kal idad</w>
ur ip</w>
s apat</w>
ing ga</w>
kag ing</w>
B ased</w>
sangg up</w>
Ban dar</w>
ang ay</w>
ca iran</w>
H ab
pelik ula</w>
kinaka ilangan</w>
d ati</w>
sis tema</w>
ek sekutif</w>
leg s</w>
pleas ure</w>
o an</w>
igigigig igigigig
man akah</w>
M EN
Secre tary</w>
ul ungan</w>
war tawan</w>
tidak lah</w>
pen g</w>
di l
M alam</w>
de presi</w>
kes adaran</w>
pertam anya</w>
B ilang</w>
ketak utan</w>
ter oris</w>
man ufac
M ount</w>
smo ke</w>
seku tu</w>
memak sa</w>
corpor ate</w>
kaugal ingon</w>
Gre en
hid mat</w>
clo ck</w>
si ri</w>
P enc
ЭЭЭЭ ЭЭЭЭ
akhir at</w>
shoo ting</w>
mala ikat</w>
Commun ity</w>
ng aw
pec ah</w>
dag hang</w>
F L</w>
Ch en</w>
ill ness</w>
tal ks</w>
ag gres
Hub ungan</w>
bro ke</w>
fa ith
ju gak</w>
A m</w>
tur namen</w>
mad ali</w>
kon teks</w>
se d
tap ak</w>
pagba bago</w>
ber isiko</w>
fel low</w>
K ang</w>
tal ent</w>
Elec tric</w>
kon tro
re present</w>
K o</w>
R um
ras ul</w>
tw enty</w>
mengal ir</w>
provin si</w>
Plat form</w>
v o</w>
lala ke</w>
n ala
au i</w>
tak at</w>
r ito</w>
kon ferensi</w>
e o</w>
indepen den</w>
ab and
meng ingatkan</w>
repu tation</w>
lic ense</w>
conf ident</w>
I mam</w>
tr um</w>
partici pat
timat ely</w>
Eas tern</w>
de fault</w>
ken ing</w>
y stal</w>
E le
H ati</w>
enti al</w>
Heav en</w>
Ste p</w>
sal inan</w>
kin s</w>
em at</w>
co l</w>
sab da</w>
t v</w>
l m</w>
f alls</w>
Ronal do</w>
ig nor
dik asi</w>
A Y</w>
gi h</w>
sch ol
ren der</w>
up ayaan</w>
jen ama</w>
agen da</w>
br ight</w>
ke d
Est ados</w>
sle eping</w>
menger jakan</w>
E mer
ser ial</w>
ng en
tes is</w>
Am ong</w>
a ths</w>
X X
K ak
utu pi</w>
вввввввввввввввв вввввввввввввввв
om on</w>
Re view</w>
makak uha</w>
Lo w</w>
ged he</w>
Dou ble</w>
dik al</w>
person ality</w>
ju red</w>
provin ce</w>
f ting</w>
func tion
bo w</w>
I k
consi dering</w>
maksu d
H ope</w>
M ama</w>
N is
territ ory</w>
vac ation</w>
E lek
mengemb alikan</w>
pul l</w>
lis ensi</w>
Distr ict</w>
nap ili</w>
t ong
Pas sword</w>
bag ikan</w>
r as</w>
offici ally</w>
Palestin ian</w>
For eign</w>
Mela lui</w>
li ft</w>
Ne ther
Un idos</w>
Kat olik</w>
cer em
seles a</w>
em i</w>
kum panya</w>
Se lalu</w>
Ing in</w>
mak ah
ven si</w>
fig ur
ari um</w>
be d
mem bi
G PS</w>
meng hi
sa wij
di ingat</w>
M eg
Swe den</w>
Fr ank
Custom er</w>
samp ah</w>
Sup port</w>
se kadar</w>
Fe b</w>
Jack son</w>
m p</w>
spe ktif</w>
U K
ASE AN</w>
examp les</w>
dag an</w>
je jak</w>
is ih</w>
Al ways</w>
K re
deta iled</w>
strate gic</w>
cri be</w>
at al</w>
tic ket</w>
P eg
ch ose</w>
Ke amanan</w>
hos pit
kar ap
per spective</w>
J im</w>
Nat al</w>
Mak ing</w>
Se belumnya</w>
Vene zu
bo hong</w>
effici ency</w>
se j</w>
any o</w>
L E</w>
sel uler</w>
infrastr uktur</w>
di akui</w>
F lo
ter se
ko lam</w>
hang a</w>
re venue</w>
menge kalkan</w>
vi c</w>
D P</w>
Man ila</w>
vis ible</w>
Nar ito</w>
the tic</w>
di maksudkan</w>
ol ing</w>
da un</w>
and akan</w>
al ita</w>
Wa it</w>
z ek
Kam is</w>
L ain</w>
n els</w>
ex plan
di ubah</w>
e y
co ordin
as ahan</w>
iz za</w>
flo wer</w>
supl emen</w>
E specially</w>
B I
in ner</w>
ch a</w>
taw ag</w>
LOLOLOLO LOLOLOLO
Roo m</w>
lar angan</w>
Andre w</w>
min ing</w>
amp ala
consis tent</w>
ab e</w>
y an
anc ong</w>
or bit</w>
dang er</w>
num ero</w>
ren cies</w>
sta yed</w>
mis sions</w>
Bes ides</w>
berj anji</w>
sugges ts</w>
ul ti</w>
p is</w>
em ang</w>
W as</w>
Har v
Kur sus</w>
pem ulihan</w>
peng li
da e</w>
pembe kal</w>
di dapati</w>
ic ing</w>
J ud
pol lu
ob viously</w>
loc k
concer ning</w>
tim bul</w>
ustr u</w>
memb ang
tur o</w>
T a</w>
Le ban
lal unya</w>
stud ying</w>
M ol
aw ei</w>
T as
oxy gen</w>
M ana</w>
mas k</w>
Natur al</w>
pet itif</w>
se bulan</w>
ah lian</w>
foo t
L uk
T enggara</w>
fol ks</w>
pul uhan</w>
Ch ange</w>
pe tu
ex ce
meng hantar</w>
Ser i</w>
uw i</w>
men dat
d ary</w>
P ope</w>
ar med</w>
ber pendapat</w>
s om
dat angan</w>
memper luas</w>
ik h
ci vil
be ings</w>
dag dag</w>
cam pur</w>
jur u
COV ID</w>
men emui</w>
No bel</w>
per mulaan</w>
up grade</w>
tric ity</w>
ti se</w>
Fil em</w>
ter al</w>
Hit ler</w>
th read</w>
qu ir
rah mat</w>
nag ara</w>
IN G
he ight</w>
pro ba
prof essor</w>
ro ot</w>
se ekor</w>
mus lim</w>
m ate</w>
Mer ah</w>
defin ition</w>
dis order</w>
la ke</w>
la des
un known</w>
Dap atkan</w>
meng ancam</w>
eksp or</w>
Pang eran</w>
M eks
clo sely</w>
E ver
May roon</w>
y os
ak aran</w>
li ance</w>
Ex press</w>
co baan</w>
seper tinya</w>
bal ita</w>
er r
Ch u</w>
ber minat</w>
se u
plat forms</w>
K ala
tu t</w>
hendak i</w>
re views</w>
Ab dul</w>
en sya</w>
s pin
es ted</w>
Ke pada</w>
ser at</w>
re placed</w>
co late</w>
at ag</w>
Ne ed</w>
j an</w>
n ation
Per dagangan</w>
Pa us</w>
pir ang</w>
ind akake</w>
set tings</w>
y ours</w>
ke bahagiaan</w>
H and
Vil la</w>
Meks iko</w>
pas sing</w>
pa agi</w>
Sta y</w>
da hnya</w>
cal ories</w>
sens itif</w>
di beli</w>
cus tom</w>
ba la
G il
te gas</w>
Pe la
tem pur</w>
k akan</w>
co ins</w>
h ung
anc arkan</w>
l ia</w>
mo den</w>
ma inten
ala ki</w>
com pli
ko labor
after noon</w>
Fi re
ta m</w>
lo ba</w>
lo h</w>
re l</w>
whe el</w>
f ra
arti sts</w>
m mg</w>
Bi o
ri l</w>
mem benarkan</w>
ad tong</w>
Haw ai
hin a</w>
at titude</w>
R T</w>
an jang</w>
cur rencies</w>
every where</w>
Ka bu
ber ke
we t</w>
pem egang</w>
P lan</w>
Un til</w>
dip impin</w>
Re d
op ter</w>
memper kuat</w>
pen dukung</w>
sol o</w>
emo sional</w>
P VC</w>
e uro</w>
ref er</w>
b ung</w>
contribu te</w>
ke da
dhe we</w>
k ness</w>
k ings</w>
j ikan</w>
ell s</w>
sekit aran</w>
moun tains</w>
rou lette</w>
mis mo</w>
S ir
read ers</w>
T ig
wak ilan</w>
disk usi</w>
pemb entukan</w>
keten tuan</w>
sou thern</w>
Equ ip
Dat uk</w>
meng arah</w>
Ke y
Pasi fik</w>
adi se</w>
ber lalu</w>
train ed</w>
K lik</w>
se patutnya</w>
kun ing</w>
gr an
zer land</w>
pray ers</w>
id ly</w>
B ou
equ i
sep si</w>
in jured</w>
l engan</w>
a un</w>
ani um</w>
educ ational</w>
ti r
Kis ah</w>
transa ctions</w>
S aha
Fi ve</w>
ber fokus</w>
draw n</w>
mainten ance</w>
r é
cal m</w>
sub si
pak ita</w>
celebr ate</w>
Cho ose</w>
in ila
ch o</w>
emb atan</w>
Ed ward</w>
ex posure</w>
se baiknya</w>
der ajat</w>
ok sigen</w>
fl ying</w>
D ad
aj a
Eli z
Y am
law ak</w>
pro mp
hib ition</w>
di ka</w>
sil ver</w>
mada las</w>
f ont</w>
str ike</w>
R AM</w>
O pen
it im
gol f</w>
diter apkan</w>
adap tasi</w>
PD F</w>
I F
fu cking</w>
Tiong kok</w>
wh enever</w>
k n</w>
dag han</w>
ili asi</w>
Mess enger</w>
gain ed</w>
B ag</w>
ta b</w>
emp ty</w>
no ti
p ili
Hu awei</w>
ingredi ents</w>
cr iminal</w>
ar ep</w>
di yan</w>
he imer</w>
m ari
per lawanan</w>
ing er</w>
Per nah</w>
so c
ju d</w>
W ho
gan un</w>
R ose</w>
anim e</w>
meng us
for gotten</w>
Sig uro</w>
ar awan</w>
samp le</w>
mendes ak</w>
ku la
Ke j
complic ated</w>
vic tim</w>
Bang lades
L e</w>
bas ta</w>
kap it
mangrup ikeun</w>
se tan</w>
kinabu hi</w>
inov atif</w>
s age</w>
gum ag
tam ang</w>
le ague</w>
otor itas</w>
S om
den s</w>
di pin
m ig
m mm</w>
mat ches</w>
C hapter</w>
reg ister</w>
a x
kla se</w>
Di v
anj urkan</w>
sta ying</w>
An ton
Gir ls</w>
lu hur</w>
ic als</w>
Ak ib
ver sions</w>
O ri
ing kir
masy adong</w>
guid ance</w>
pe tang</w>
go ta</w>
sy urga</w>
Sing le</w>
x ury</w>
Swit zerland</w>
Mar ami</w>
bahar u</w>
fac ed</w>
may roong</w>
tun tutan</w>
utu s</w>
ro ute</w>
pr ime</w>
di antara</w>
waj ar</w>
di atas</w>
han cur</w>
Ur ang</w>
H ampir</w>
de wa</w>
j ing</w>
Is lands</w>
fr ag
Yé sus</w>
lus if</w>
perman ent</w>
da da</w>
ta bel</w>
Per be
sawij ining</w>
z ero</w>
pemb ic
Scot t</w>
Sy rian</w>
ent ary</w>
ter senyum</w>
Antar abangsa</w>
Wh atever</w>
up load</w>
big yan</w>
at uh</w>
Nether lands</w>
kom petitif</w>
judg ment</w>
ata annya</w>
pun o</w>
karak ter
sak in</w>
ma ayos</w>
cha ir</w>
af kan</w>
ak uan</w>
C are</w>
di os</w>
categ ories</w>
usi aan</w>
ter kadang</w>
tu l</w>
Lev el</w>
Baha gian</w>
jad wal</w>
Da ily</w>
ba se
cour age</w>
B ola</w>
tur an</w>
mak as
be pergian</w>
pad an</w>
c hapter</w>
trad ers</w>
Car ol
S alam</w>
ting gian</w>
un di</w>
crow d</w>
G ri
po w
sa yan</w>
uni versiti</w>
M C</w>
cho osing</w>
kes u
reg ard</w>
ra baho</w>
I de
vege tables</w>
Pow er
e dit</w>
B ig
ug nay</w>
di bentuk</w>
B ala
Artic le</w>
Tek nik</w>
v ag
furnit ure</w>
L ang</w>
inst al
hin ah
Pla ce</w>
Y es
mis ter
le g</w>
ag res
Sm all</w>
eng e</w>
ap os
day aan</w>
mur ni</w>
mo al</w>
ter bentuk</w>
hi hi
as pir
De pen
fin ds</w>
gu a</w>
memu dahkan</w>
car rying</w>
meng ajarkan</w>
ter dekat</w>
men um
ik inya</w>
um ahan</w>
th esis</w>
succe ed</w>
fic i
I ya</w>
ber interaksi</w>
ibu tan</w>
ileg al</w>
foun der</w>
pr a</w>
Smar t</w>
dik um
be g</w>
ul es</w>
mak sim
integr asi</w>
t one</w>
it age</w>
mur der</w>
gener ate</w>
mak ikita</w>
sing er</w>
Bay i</w>
u ka</w>
pengam bilan</w>
Jus tice</w>
const ant</w>
meng eks
K O
fin ance</w>
bag inya</w>
di penuhi</w>
fic ial</w>
gan i</w>
clas si
conf ig
amb ung</w>
ke tball</w>
o ven</w>
T apos</w>
pen daftaran</w>
ter sembunyi</w>
Lib r
pen ul
il ingi</w>
bu ta</w>
mene kan</w>
H ay
ter daftar</w>
Pa ulus</w>
tin y</w>
la ba</w>
inc ian</w>
E N</w>
clas sic</w>
ex pressed</w>
wat ak</w>
on ship</w>
peng hasilan</w>
bu hok</w>
fru its</w>
Maj lis</w>
consi der
Mor eover</w>
tah u
prin ciple</w>
For tun
dit ahan</w>
bur ning</w>
Fol low</w>
in dahan</w>
mak ers</w>
per kahwinan</w>
P it
sa laku</w>
semes ta</w>
mel arang</w>
E UR</w>
on ers</w>
S pes
S ky</w>
menye bar</w>
Tr ading</w>
Geor gia</w>
kam at
blog ging</w>
iz es</w>
lanc ar</w>
nor thern</w>
pu kan</w>
f lat</w>
berla tih</w>
U na</w>
tur b
peng acara</w>
me lam
fli x</w>
kar en
serang kaian</w>
trav eling</w>
evol usi</w>
s s
P sy
pen cer
appreci ate</w>
pember on
Bu ah</w>
se wa</w>
Hon da</w>
AF P</w>
fiz ikal</w>
ou ts</w>
fu ck</w>
as ingly</w>
er ever</w>
U tama</w>
cur e</w>
T an</w>
sat elit</w>
ek tur</w>
un e</w>
Ar ch
ber tentangan</w>
ke bo
Toyo ta</w>
Au to</w>
p ungk
se ke
ber potensi</w>
men tah</w>
res ort</w>
mat ag</w>
di as
Tay lor</w>
la bor</w>
be ts</w>
gen re</w>
Ind ustry</w>
vis iting</w>
mu t
T est</w>
Ke bijakan</w>
um umkan</w>
tu duhan</w>
resol usi</w>
gi e</w>
in om</w>
meny emb
pen onton</w>
al leg
pul ong</w>
al ize</w>
hol ders</w>
en th
tem uan</w>
mon d</w>
fol der</w>
betu lan</w>
S P</w>
amp ing</w>
So sial</w>
lic en
cook ie</w>
C ab
cru cial</w>
Oper asi</w>
mo ments</w>
kerj akan</w>
ab ihin</w>
mar ry</w>
C F
y n
domin asi</w>
am ahan</w>
progr ama</w>
univers ities</w>
A lasan</w>
Ma af</w>
distr ict</w>
su res</w>
bre ast</w>
si x
ko ordin
p ha
pen de
K anggo</w>
ol dest</w>
mag pap
meny ambut</w>
shar es</w>
k ara</w>
lik ed</w>
diper caya</w>
kak ay
cle aning</w>
k ne
ang le</w>
Se ver
tan ang</w>
ben ta</w>
men sa
Tre at
cap aian</w>
li ps</w>
kac ang</w>
Tha i</w>
anj ung</w>
produc tive</w>
peng an
fe edback</w>
N ilai</w>
ber kumpul</w>
Bon us</w>
su aminya</w>
dep th</w>
s ali
se kel
A IDS</w>
fak tur</w>
T ou
ti yak</w>
bel anj
au to</w>
di ay</w>
il le</w>
Can adian</w>
T ug
Engine ering</w>
par ag
di akses</w>
di ciptakan</w>
U A
pas ok</w>
spl it</w>
rit is</w>
Em ir
g anyan</w>
H at
Pr incess</w>
un ayan</w>
Br asil</w>
a vi
M ulai</w>
P G</w>
Administr ation</w>
ro kok</w>
ani b</w>
Min yak</w>
Se ks</w>
des cription</w>
im ah</w>
un t</w>
ex ists</w>
tro ops</w>
ku ensi</w>
peng ikut</w>
men ca
S alamat</w>
ser ingkali</w>
am ah</w>
Be lajar</w>
bu lu</w>
eng aged</w>
Ch ang
de aling</w>
K ul
K anak</w>
T ele
bo ost</w>
Chan nel</w>
Diff er
char ges</w>
kul o</w>
dr al</w>
guil ty</w>
ne ck</w>
pri ority</w>
AN D</w>
P ay</w>
V an</w>
tr us</w>
H an</w>
y onal</w>
f alling</w>
k hidmat</w>
mer ely</w>
tu k
ng am
Yo han
F ile</w>
sw imming</w>
tal ked</w>
B N</w>
Eliz abeth</w>
cor ner</w>
cen tu
dev o
ip u</w>
v ary</w>
S ap
dh ood</w>
enh ance</w>
str umen</w>
testi mon
ma laki</w>
Ac tually</w>
character istics</w>
stor ed</w>
w ay
diffic ulty</w>
A ge</w>
s ala</w>
f und</w>
mus ta
A mat
tron ics</w>
du res</w>
O cean</w>
M ap
br ands</w>
Stu dies</w>
ju ang</w>
com pati
ku pi</w>
U kuran</w>
tr age
t ata</w>
J im
H ell</w>
f lu</w>
V A</w>
H id
vak sin</w>
r ating</w>
pri ses</w>
mem icu</w>
sau dar
R ap
Lak ukan</w>
di bat
mekan isme</w>
ba lap</w>
pen am
Mac hin
pers onally</w>
incor por
LT D</w>
diper cayai</w>
discus sed</w>
S imp
produc ing</w>
O bat</w>
vers ary</w>
Bug is</w>
pela tih</w>
eg gs</w>
bes aran</w>
n ative</w>
Rol l</w>
extrem e</w>
peng in</w>
des ired</w>
H ang
tournam ent</w>
near by</w>
peng end
an o
ans ang</w>
pu tar</w>
sa ving</w>
let ters</w>
Mak lumat</w>
Dem ikian</w>
us in</w>
ber bentuk</w>
nang yayari</w>
ada i</w>
An ong</w>
d ose</w>
R S</w>
Bos ton</w>
menyer ahkan</w>
mene kankan</w>
Tal k</w>
di on</w>
ka yang</w>
mo del
ris ing</w>
di bunuh</w>
ur angan</w>
uku l</w>
abu se</w>
ged ung</w>
L ink</w>
cul tiv
regula tions</w>
s k</w>
natur ally</w>
ku lasi</w>
po d</w>
P enting</w>
des kripsi</w>
g n</w>
se as</w>
ni c</w>
H indu</w>
B log
di gunakake</w>
naf su</w>
tar ikan</w>
Bri dge</w>
pam eran</w>
j er</w>
ok ake</w>
dec ade</w>
f lash</w>
ku keun</w>
Re port</w>
Up date</w>
uju kan</w>
per soalan</w>
exp and</w>
Ke ku
affec ts</w>
gr upo</w>
pagkak a
employe e</w>
gur uan</w>
Econom ic</w>
sh ed</w>
repu tasi</w>
pag sus
Pemb angunan</w>
mak er</w>
soldi er</w>
K az
ber variasi</w>
Dem okr
Cur r
ken angan</w>
iram dam</w>
w l</w>
poten sial</w>
no tes</w>
up per</w>
ala kkan</w>
ke adilan</w>
d ust</w>
S akit</w>
prov en</w>
cu ses</w>
Industr ial</w>
mem ories</w>
Ter min
mem atikan</w>
Tr ust</w>
g ik
ter luka</w>
Sa yang</w>
draw ing</w>
man awa</w>
Gree ce</w>
ke padaku</w>
Bo eing</w>
pra ise</w>
mes ki</w>
tan e
z o
est ly</w>
dit unjukkan</w>
Meng en
at tribu
meng analisis</w>
ad vis
Ac cess</w>
b sp</w>
Ba iklah</w>
ex posed</w>
keber hasilan</w>
pas ir</w>
gu est</w>
se malam</w>
em is
gy m</w>
tang annya</w>
Dar k</w>
na a</w>
fav our
r ick</w>
ke cer
men nang</w>
c al</w>
En d</w>
p angan</w>
pos ses
ten sion</w>
collec ted</w>
F la
ph a</w>
baba k</w>
Doc tor</w>
inde x</w>
tin dihan</w>
dis ampaikan</w>
in k
se kelompok</w>
é s</w>
w ika</w>
be er</w>
K on</w>
ter tutup</w>
j ack
con cep
per mission</w>
Moder n</w>
Banglades h</w>
kese imbangan</w>
an sial</w>
P U
be ta</w>
mus cles</w>
bl essed</w>
F lor
Cr yp
el is</w>
T E</w>
tru ction</w>
Bo dy</w>
dri ven</w>
N u</w>
Stu dio</w>
Mas yarakat</w>
J am</w>
Dem i</w>
hal imbawa</w>
jen engan</w>
be k</w>
mani pu
pu taran</w>
dit ampilkan</w>
D ue</w>
me dan</w>
sem ata</w>
ic h
tent unya</w>
offic ers</w>
al thy</w>
min d
Sit emap</w>
diper kenalkan</w>
bing ung</w>
di baca</w>
ku tha</w>
kad o</w>
meny erah</w>
ha wa</w>
Some thing</w>
mengh emat</w>
Cap ital</w>
pass engers</w>
MB A</w>
ko sa</w>
bab alik</w>
par as
di lun
Pas ukan</w>
z heimer</w>
ha z
Ac count</w>
Wal es</w>
D asar</w>
h ali
kepem impinan</w>
S lo
en tah</w>
dik i</w>
nen ek</w>
K ev
Tal iban</w>
pen is</w>
P is
Langu age</w>
ab or
purcha sed</w>
Play er</w>
ibig ay</w>
it ter</w>
sa hiji</w>
challeng ing</w>
Tem ple</w>
adi lah</w>
Mem per
th in</w>
ik ti
ex tent</w>
R yan</w>
us ugan</w>
Ah mad</w>
Sau l</w>
M aya</w>
ell er</w>
log in</w>
memb akar</w>
eng ines</w>
strateg is</w>
bat o</w>
bla me</w>
dir iku</w>
incre asingly</w>
V ari
initi ally</w>
pl ying</w>
li at</w>
to w
He bre
P RO
Jab atan</w>
Al hamdulillah</w>
uni on</w>
organ ized</w>
si yon</w>
some where</w>
c ts</w>
Ch em
pro spe
Inde ed</w>
v ast</w>
lo ading</w>
autom o
l emb
Hadi ah</w>
Bel um</w>
medic ation</w>
aw asi</w>
Ex ecutive</w>
e da</w>
on tal</w>
bes arkan</w>
o ge</w>
pres sive</w>
In tegr
p ungg
j angk
p ant
G adis</w>
Br u
d ations</w>
he aling</w>
C ateg
conv inc
Ar th
ter tulis</w>
C ross</w>
stom ach</w>
ik ir</w>
rap idly</w>
ox id
elec tricity</w>
reas onable</w>
wh el
s m</w>
mi x</w>
reduc ing</w>
all paper</w>
Pol isi</w>
our ce</w>
K us
Ph il
s ile</w>
Wat er
serv ant</w>
r ab
Sel f</w>
Jo b</w>
pat ung</w>
Ker eta</w>
um u
appoin tment</w>
F is
Per jalanan</w>
typ ical</w>
A aron</w>
im am</w>
pro fit
uni or</w>
no ise</w>
bis ita</w>
orig in</w>
n anya</w>
prim arily</w>
du go</w>
sen ding</w>
kum ain</w>
ol o</w>
ung gal</w>
st oc
ad equ
Sh are</w>
il in</w>
perse gi</w>
li fe
insta l</w>
fik iran</w>
mo ves</w>
e ded</w>
lup akan</w>
ag ric
Nal ika</w>
as pect</w>
ag ement</w>
Tr ue</w>
G aya</w>
or ds</w>
v ar
samb ungan</w>
di g</w>
innov ation</w>
occ asi
ak es</w>
so l</w>
sal t</w>
wan na</w>
equip ped</w>
tinat awag</w>
cre w</w>
D he
pel e
mer en
ster dam</w>
menge lakkan</w>
de par
Pener angan</w>
ne pi</w>
Me diter
t and
ber se
cl usion</w>
Bat tle</w>
Man faat</w>
des erve</w>
en z
camp us</w>
di dalam</w>
f enomena</w>
Yah oo</w>
hi la
H ong
min kan</w>
usu f</w>
su icide</w>
Brun ei</w>
mole kul</w>
agen cies</w>
oper asikan</w>
ear th
T H</w>
on ik</w>
mun dur</w>
har am</w>
da pit</w>
ek si</w>
O lim
kunj ung</w>
ik ong</w>
Equip ment</w>
ala king</w>
am er
de als</w>
enter ing</w>
ic king</w>
encan aan</w>
de wan</w>
Se kali</w>
G M</w>
kar anasan</w>
mar ks</w>
ter pilih</w>
expla ins</w>
w ayat</w>
Is n</w>
se sama</w>
alis a</w>
ar ts</w>
R un
Sum mer</w>
Ke uangan</w>
Y u</w>
meng awal</w>
alum inium</w>
infec ted</w>
arri ve</w>
di in</w>
bac aan</w>
S crip
A str
f iber</w>
vol unte
g la
t ung</w>
S ave</w>
Gr an
Re la
em a
leg itim
con serv
ber itahu</w>
ell ite</w>
To o</w>
gather ed</w>
lay unin</w>
Men ye
h uli</w>
fla v
lim its</w>
accom mo
soc cer</w>
F le
pad at</w>
test oster
ter atas</w>
transa ction</w>
ser t</w>
min uto</w>
pers is</w>
gr ateful</w>
sa atnya</w>
j ustru</w>
m un</w>
sho w
s now</w>
Su c
Da erah</w>
hab its</w>
im port</w>
won dering</w>
la id</w>
H as</w>
kan inyo</w>
N S</w>
sas ak
sh ops</w>
C lass</w>
fe es</w>
di bagi</w>
di alog</w>
r ong</w>
sem bahan</w>
di de
yo p</w>
th y
Kant or</w>
o cean</w>
Sen i</w>
win s</w>
K ids</w>
n ai</w>
D eng
v y</w>
di bawah</w>
dr inks</w>
pert unjukan</w>
war r
An na</w>
melamp aui</w>
di maksud</w>
Alla ta
meng ing
Manufactur er</w>
ber de
la ing</w>
m omen</w>
ang ku</w>
dar inya</w>
men curi</w>
as set</w>
registr ation</w>
C ould</w>
Venezu ela</w>
perbe zaan</w>
Nak ak
wala u</w>
re fused</w>
Al zheimer</w>
se ed</w>
pa th
Malay sian</w>
tari f</w>
scar ed</w>
oper s</w>
wat ched</w>
ng alan</w>
e ase</w>
sym bol</w>
sak ing</w>
transport ation</w>
meng arahkan</w>
mul ia</w>
aha laan</w>
krit is</w>
N ing
A ya</w>
newsp aper</w>
great ly</w>
T ik
ur ban</w>
Lis ten</w>
per sekitaran</w>
D ay
sum si</w>
f ate</w>
Te lah</w>
ir aan</w>
ap par
M eli
regar dless</w>
Bu y</w>
a but</w>
land s
mil ih</w>
J ang
S ah
L ing
ter ns</w>
G R
se setengah</w>
pro posal</w>
ber sumpah</w>
defe at</w>
kerj aya</w>
o ko</w>
av irus</w>
berkel anjutan</w>
dib ina</w>
fi re
G S</w>
keep s</w>
de aths</w>
Ang gota</w>
jab atan</w>
impro ving</w>
t asan</w>
U V</w>
pence gahan</w>
ser vers</w>
mam am
gar am</w>
amp unan</w>
bar ui</w>
pro phet</w>
tit les</w>
sh oc
tro pol
rak sasa</w>
bil ion</w>
ku k</w>
Plas tic</w>
m iy
Kese lamatan</w>
smel l</w>
Ad d</w>
be dro
innov ative</w>
pen der
ba bies</w>
democr acy</w>
ingg al</w>
bil i</w>
s ters</w>
serv ants</w>
di lindungi</w>
Mas jid</w>
at os</w>
memin dahkan</w>
uny ikan</w>
ri set</w>
pe dang</w>
peri or</w>
Sa bah</w>
ku lay</w>
Peng e
awar eness</w>
as ak
bang kit</w>
li wat</w>
ab lo</w>
R is
optim al</w>
da anan</w>
last ing</w>
é na</w>
in isi
an as</w>
ter tawa</w>
manufactur ers</w>
co k
No kia</w>
ke ys</w>
R ub
Ke las</w>
ne um
ar itas</w>
cap ture</w>
elec ted</w>
mu at</w>
goo gle</w>
s can
dg ed</w>
hir e</w>
Sou thern</w>
ad ow</w>
au d</w>
to d</w>
necess arily</w>
ala hnya</w>
ap ek
W oman</w>
re turns</w>
St one</w>
bro ad</w>
fantas tic</w>
coun ter
mag ag
hak im</w>
Mah kamah</w>
an annya</w>
electr ical</w>
per spektif</w>
f ice</w>
ucap kan</w>
hat lah</w>
ul e</w>
Net flix</w>
im es</w>
Sa fety</w>
enggar akan</w>
ke tinggian</w>
u es</w>
anx iety</w>
R an
W it
ang keun</w>
is ahkan</w>
mat es</w>
ff s</w>
Chro me</w>
A gr
ampala taya</w>
promi ses</w>
bab i</w>
Fr ancis</w>
fig ures</w>
discipl es</w>
su lod</w>
po sible</w>
kal ibutan</w>
men olong</w>
gaw ain</w>
aram daman</w>
a bah</w>
p nya</w>
perc ak
ber kontribusi</w>
pay udara</w>
kal ipun</w>
c ook</w>
mener uskan</w>
centu ries</w>
peng usaha</w>
in sur
D aripada</w>
hung ry</w>
W ila
lim ang</w>
v ous</w>
enter prise</w>
man apun</w>
M D</w>
C S</w>
aha yag</w>
Pol and</w>
so il</w>
B ER
tem plate</w>
cre te</w>
in spe
ba lasan</w>
black jack</w>
to ilet</w>
Ri o</w>
In st
itah uan</w>
Yohan es</w>
benef icial</w>
may oritas</w>
dr o</w>
key board</w>
kir aan</w>
con ten
agu es</w>
depen d</w>
Pe lajar</w>
part ments</w>
gr ams</w>
A gre
Fo x</w>
i isip</w>
ta gi
ren tal</w>
mak apag
ox ide</w>
ver ty</w>
col on
b andingan</w>
D id
fif th</w>
pang kalan</w>
Euro pa</w>
Con ference</w>
ili p</w>
ce takan</w>
dimen si</w>
ker ag
kecan tikan</w>
adop ted</w>
C P</w>
en ak</w>
ek sk
pare ho</w>
re aching</w>
Gr and
re presents</w>
mengh itung</w>
mon ster</w>
direk tur</w>
NA TO</w>
is k
re d
li ed</w>
Si apakah</w>
Sci enti
gun ungan</w>
fun ding</w>
Say angnya</w>
Ke tiga</w>
Kes ihatan</w>
si bl
p il</w>
pla cing</w>
ber lanjut</w>
Nor thern</w>
facil ity</w>
m ighty</w>
ear ned</w>
popul arity</w>
kon o</w>
k ada</w>
il ikan</w>
sur pris
um i
Kev in</w>
mak uha</w>
be half</w>
mo dul
m ouse</w>
el ines</w>
kala wan</w>
lim en</w>
per cen
re bel
K ay
libr o</w>
ke bun</w>
exten ded</w>
H ad
si vely</w>
shi ft</w>
per bu
ni versary</w>
Lib ya</w>
sta ges</w>
stor m</w>
K alian</w>
Con tohnya</w>
ex pan
up dated</w>
op position</w>
ber sabda</w>
sens iti
ser ves</w>
lar g
keber adaan</w>
ungk in
gus tong</w>
Kel ompok</w>
sho wer</w>
Sain s</w>
mat agal</w>
pe tani</w>
war ned</w>
asi hat</w>
tim bangan</w>
lo ving</w>
Ang el</w>
la baw</w>
p lot</w>
pen ang
flek sibel</w>
go ds</w>
e ties</w>
anat ili</w>
YO U</w>
t z</w>
abri kan</w>
ak un
nag kak
ma lakas</w>
me sej</w>
we l</w>
p es</w>
over come</w>
he he
mencu kupi</w>
b loo
Am sterdam</w>
H ij
tru ck</w>
do l</w>
e ars</w>
for mat
qu est</w>
in ch</w>
N BA</w>
se tara</w>
min istry</w>
v ement</w>
A vi
eksper imen</w>
ka da
Com puter</w>
yel low</w>
t weet</w>
mencer minkan</w>
rum ahnya</w>
we k</w>
mon itoring</w>
emb ro</w>
hon ey</w>
istr inya</w>
Mar y
Col or</w>
w ire</w>
house hold</w>
B atu</w>
ro bo
insi den</w>
rela tion</w>
ga ano</w>
pem o
penj aga</w>
mem antau</w>
cap it
A tas</w>
menj elang</w>
menur un</w>
Ke cil</w>
kece wa</w>
per dana</w>
pe d
Ex peri
Con tin
ang els</w>
bu ahan</w>
atta ched</w>
tak ot</w>
Direk tur</w>
re gre
pemin at</w>
eng age</w>
É ta</w>
di kur
Mat erial</w>
ber kurang</w>
dudu ki</w>
Ke y</w>
dit or</w>
g antung</w>
w oun
h annya</w>
tr is</w>
objec tive</w>
g ori
ill ustr
ma ya</w>
les h</w>
V isa</w>
angg o
ad mit</w>
sh ine</w>
Jen deral</w>
Vil lage</w>
af ford</w>
bar angan</w>
rar ely</w>
pem ro
in o
ta jam</w>
hi p</w>
kec emasan</w>
provid ers</w>
mad u</w>
assum e</w>
Ma il</w>
s crip
meng obati</w>
Leban on</w>
graf ik</w>
U T</w>
ih ara</w>
fac tion</w>
D ah</w>
fair ly</w>
is mo</w>
dar kness</w>
percak apan</w>
sa bay</w>
Ke putusan</w>
su red</w>
compon ent</w>
A I
surro unding</w>
ke ahlian</w>
Ting kat</w>
vo id</w>
d ini</w>
sat uan</w>
di selesaikan</w>
gr anted</w>
B B
S po
in ct</w>
C at</w>
mem uli
C li
us na</w>
applic able</w>
as leep</w>
Prof essor</w>
r antai</w>
ro gen</w>
F DA</w>
id ity</w>
maksim al</w>
re pair</w>
cu c
ra an</w>
tr uc
consci ous</w>
R C</w>
isip an</w>
menye wa</w>
is inya</w>
W arga</w>
or kan</w>
l urus</w>
re v
ber investasi</w>
ag ents</w>
Gu ide</w>
Kan yang</w>
at asan</w>
re turning</w>
ep id
Hawai i</w>
kon di
S id
mar y</w>
Willi ams</w>
banj ir</w>
pe k
Pho to</w>
Wila yah</w>
prof its</w>
as ian</w>
w ang
h uh</w>
gem pa</w>
as asi</w>
bu ti</w>
bern ur</w>
pro posed</w>
Yer usalem</w>
F lash</w>
meyak inkan</w>
Univers al</w>
fin ansial</w>
es ar</w>
om pat</w>
cei ved</w>
tour ist</w>
Naj ib</w>
tubu hnya</w>
lo ads</w>
as ide</w>
ber kahwin</w>
had n</w>
es pir
L ati
Meng e
plug in</w>
Gin oo</w>
ther more</w>
industr ies</w>
Ting nan</w>
S u</w>
L S</w>
y aan</w>
H old</w>
h kah</w>
konsul tasi</w>
gi fts</w>
dist ingu
fa edah</w>
quar ters</w>
amp iran</w>
wid th</w>
mem balas</w>
ESYEESYEESYEESYEESYEESYEESYEESYEESYEESYEESYEESYEESYEESYEESYEESYE ESYEESYEESYEESYEESYEESYEESYEESYEESYEESYEESYEESYEESYEESYEESYEESYE
meng ag
el er
ch ampi
ex pres
su kar
te tangga</w>
mela tih</w>
Plan et</w>
C IA</w>
es te
amp ion</w>
g ap</w>
as sa
t arkan</w>
conveni ent</w>
govern ments</w>
r y
ug o</w>
cor on
Dhe weke</w>
oksi da</w>
dem o</w>
ru dal</w>
men ukar</w>
kasal anan</w>
us age</w>
katap usan</w>
K yo
lam i</w>
p apa</w>
publik asikan</w>
D B</w>
di c</w>
Ab dul
on ok</w>
meng abaikan</w>
th ir</w>
architec ture</w>
trus ted</w>
eli hara</w>
dit anya</w>
p p</w>
com pare</w>
di sel
pro ses
Ir on</w>
bot tle</w>
pu asan</w>
nak ik
E A</w>
wan ting</w>
ali sed</w>
pela buran</w>
stre ets</w>
Th ird</w>
G ul
pro ved</w>
uc ap</w>
atu red</w>
P T
menem bak</w>
r angka</w>
ov as
div ision</w>
stitu tion</w>
af iliasi</w>
im igr
kan mu</w>
E ric</w>
So lar</w>
domes tik</w>
au to
Allata ala</w>
musta hil</w>
acces sible</w>
trans lation</w>
Em peror</w>
Z hang</w>
pak ik
n un</w>
no body</w>
od ds</w>
kar at</w>
ta pan</w>
ol i</w>
th inks</w>
y i
P ikeun</w>
S pring</w>
Hit am</w>
di ar
en dah</w>
T ony</w>
co ast</w>
stu ck</w>
la teral</w>
B andung</w>
jum p</w>
D un
Some one</w>
ac u
Fol lowing</w>
imp or</w>
v itas</w>
bas ically</w>
nik mat</w>
tic kets</w>
sex u
sar jana</w>
pay ments</w>
Sup rem
ut ed</w>
k ang
tel ep
cok lat</w>
des isyon</w>
chil dhood</w>
iti m</w>
Ne vertheless</w>
gi ant</w>
p ic</w>
keny amanan</w>
m om
dev il</w>
tro ub
sekit arnya</w>
dis arankan</w>
s wi
Sel uruh</w>
os ok</w>
ent it
mys ter
pres er
u tionary</w>
X i</w>
program ming</w>
dis aster</w>
mer encanakan</w>
b ye</w>
n asi</w>
re cru
S ize</w>
kap angyarihan</w>
and ed</w>
Lim ited</w>
o sa
say ap</w>
attrac tive</w>
wis atawan</w>
sho ts</w>
priba dian</w>
law yer</w>
Eas y</w>
d are</w>
cab aran</w>
D ila
z ation</w>
W id
it ik</w>
profes or</w>
TE L</w>
syn drome</w>
spe aks</w>
Cus tom</w>
su trad
ar ding</w>
fer ences</w>
pag pip
pula uan</w>
is yar
re k</w>
persi apan</w>
ku h</w>
an on</w>
kat or</w>
a x</w>
rac ing</w>
tropol itan</w>
pos ing</w>
meng ira</w>
ik ap</w>
im pulan</w>
recip e</w>
lik od</w>
Lear ning</w>
u tos</w>
W ah
shi pping</w>
terror ist</w>
Per alatan</w>
j anten</w>
hun i</w>
gad uh</w>
sis tem
t less</w>
out come</w>
ma oy</w>
sen ti
har inya</w>
af for
war to</w>
uj arnya</w>
di ovas
men dapat
hid angan</w>
sur a</w>
frequ ency</w>
pu ts</w>
mene hi</w>
c incin</w>
D ib
reli ef</w>
re y</w>
ak on</w>
ka ji</w>
des truction</w>
sa daya</w>
Sh en
equi valent</w>
proce dures</w>
l ord</w>
Ph ys
Valent ine</w>
Naz i</w>
treat ments</w>
be kerjasama</w>
P D</w>
as in</w>
ra ft</w>
resul ting</w>
F BI</w>
desig ner</w>
graph ics</w>
c on</w>
melu as</w>
in san</w>
independ ence</w>
wh is
recogn ition</w>
hat inya</w>
man akala</w>
Je an</w>
angk it</w>
Y usuf</w>
dire ka</w>
G as</w>
es ok</w>
T on
saha batan</w>
cu kai</w>
K la
s api</w>
Li ving</w>
AP K</w>
S ungguh</w>
gy ud</w>
lig ent</w>
glo be</w>
pe layanan</w>
ir annya</w>
ad venture</w>
di verse</w>
k l
w ahai</w>
g ap
membang unkan</w>
desig ns</w>
con fused</w>
autom atik</w>
photo graph
over whel
tre as
mel upakan</w>
plor asi</w>
berj umpa</w>
ng r
pan c
ar as</w>
sa bab</w>
Tru th</w>
mon thly</w>
kem as</w>
eh na</w>
De fin
Steph en</w>
rout ine</w>
ul tas</w>
b ali</w>
Moun tain</w>
P antai</w>
t t</w>
bag s</w>
hi d</w>
ton gue</w>
grat ula
G P</w>
up si</w>
te kno
enab les</w>
Chil d</w>
ko m</w>
distribu si</w>
ti la</w>
mat lamat</w>
Profes sional</w>
v ice</w>
UM NO</w>
h utang</w>
Mat t</w>
Ge o
Dad dy</w>
pat ri
N ev
al d</w>
W ah</w>
y in</w>
Any one</w>
muk hang</w>
De ad</w>
hi po
O l
mer ilis</w>
chic ken</w>
kr imin
P ut</w>
bab asa</w>
A F</w>
Em pat</w>
prepar ing</w>
Get ting</w>
law at</w>
g ayon</w>
fl ights</w>
j aran</w>
Ag ama</w>
Ro hing
J ulai</w>
Y a
u lama</w>
tor al</w>
sub sequ
K A</w>
Jer em
tan si</w>
Mic hel
go by
M O</w>
Ak hir</w>
elec tions</w>
horm one</w>
d ying</w>
tum puan</w>
C and
liqu id</w>
defin isi</w>
lag ing</w>
alo gue</w>
pun ca</w>
Bus h</w>
Per f
Coun try</w>
confir m</w>
A us
N ature</w>
ilan man</w>
ber setuju</w>
ad inya</w>
aim s</w>
pag kat
her an</w>
kri m</w>
sejah teraan</w>
C ancer</w>
Prote ction</w>
ub ang</w>
ligh ting</w>
B y
Sy n
G ed
E sp
la was</w>
ul angan</w>
h uh
si fikasi</w>
Pol y
str ing</w>
aw it</w>
re pen
bin u
gene tik</w>
mi x
meng har
deb ate</w>
li bre</w>
ek ly</w>
Arab ic</w>
pen capaian</w>
w es
is lands</w>
in ity</w>
th ank
pada hal</w>
m ati
p ila
peni puan</w>
philosoph y</w>
Loc al</w>
B usa</w>
Sy stems</w>
Per niagaan</w>
zz le</w>
Ben tuk</w>
ac cused</w>
D own</w>
D ong
min or</w>
al us</w>
ag ensi</w>
ungg ah</w>
Blo od</w>
nam atay</w>
K han</w>
ten g</w>
cer min</w>
mi xed</w>
guaran te
ber angkat</w>
a oh</w>
te ars</w>
Harv ard</w>
sen iman</w>
ber senjata</w>
ber sikap</w>
ind ung</w>
enjo ying</w>
M om
ha biskan</w>
dist inc
peny i
del eg
Rom awi</w>
restaur ants</w>
bel l</w>
ang lah</w>
é t</w>
dar atan</w>
Bi aya</w>
eks presi</w>
re kaman</w>
lak bay</w>
oo m</w>
Ma o</w>
kala han</w>
institu tion</w>
wa é</w>
er ti</w>
el e</w>
pag gawa</w>
ul ties</w>
S R</w>
N orm
keman usiaan</w>
kais aran</w>
Bag aimanakah</w>
V I</w>
ro of</w>
di ameter</w>
fre kuensi</w>
P ir
gener ated</w>
en sive</w>
bath room</w>
F ro
r he
sar apan</w>
tour ists</w>
o han</w>
Sol omon</w>
quant ity</w>
dou b
ati vity</w>
Vir gin
ident e</w>
ter penting</w>
perman en</w>
dit ang
de m</w>
las ses</w>
C oc
An ne</w>
angg it</w>
sas abihin</w>
in ang</w>
B all</w>
C H</w>
ain er</w>
d alan</w>
up dates</w>
f ib
An th
R ay</w>
per saingan</w>
é wé</w>
M im
J um
pro por
kal usugan</w>
samp e</w>
Peng er
mem bayangkan</w>
Bun ga</w>
Jer sey</w>
pri oritas</w>
Pr ay
surve i</w>
ka ilan</w>
Wor king</w>
seke dar</w>
mani fes
ali hkan</w>
cas ting</w>
Mo ises</w>
bik in</w>
sent ence</w>
inform ed</w>
th m</w>
He i</w>
gre g
sk or</w>
gan tian</w>
immedi ate</w>
D ie
y akan</w>
memper ingatkan</w>
sen tuhan</w>
incre dible</w>
improv ement</w>
C D
Maha thir</w>
ol f</w>
ri k</w>
Car ib
mas uk
ap o</w>
Con si
kel uli</w>
Fin al</w>
mil i</w>
pengli hatan</w>
jem ahkan</w>
ju ice</w>
ak ers</w>
n bsp</w>
diku tip</w>
ung od</w>
lum abas</w>
pag dating</w>
pal igid</w>
ant asi</w>
f ake</w>
w eng
fo x</w>
dynam ic</w>
N asa</w>
am ai</w>
k wento</w>
kolabor asi</w>
R encana</w>
ka layan</w>
mer es
E X
Wh it
ad angkan</w>
Instit ut</w>
is yu</w>
peny anyi</w>
s cript</w>
k n
aw aan</w>
mat ure</w>
ik sik</w>
Di am
Y el
spe aker</w>
pow der</w>
sit as</w>
Se panjang</w>
ar k</w>
ingk as</w>
ti kus</w>
hos ts</w>
rela tive</w>
stu died</w>
industr iya</w>
T anda</w>
m cm</w>
jo ke</w>
Fac tory</w>
at ku</w>
tour ism</w>
compe te</w>
ting nan</w>
los ses</w>
instal lation</w>
penj agaan</w>
pad ang</w>
o e</w>
pem ula</w>
in strumen</w>
hh hh
prote k
men cuba</w>
pen jual</w>
A U
cap abilities</w>
dri vers</w>
part nership</w>
st ones</w>
A las
pag ha
ro les</w>
pengaw asan</w>
pri est</w>
ov al</w>
injur ies</w>
expec tations</w>
b iran</w>
in sis
menyi apkan</w>
at ra</w>
o ever</w>
l g</w>
w ow</w>
perh atikan</w>
k andung</w>
b ine</w>
sel ler</w>
li hatkan</w>
Ag ar</w>
w ich</w>
b itan</w>
Kum aha</w>
onym ous</w>
je bak</w>
fav or</w>
Komun ikasi</w>
on el</w>
T amp
memper cayai</w>
divor ce</w>
ali fikasi</w>
no se</w>
tem annya</w>
U ang</w>
Al l
gen u
lo hiya</w>
w ishes</w>
mis teri</w>
man n</w>
ren e
m its</w>
Ce pat</w>
ic ks</w>
R A</w>
aw ai</w>
pul ih</w>
com bat</w>
Fas hion</w>
bi k</w>
pri ze</w>
out door</w>
A G</w>
sus tainable</w>
cac at</w>
Bro w
def end</w>
un lad</w>
har der</w>
eng gan</w>
dilun curkan</w>
prak tek</w>
pang kat</w>
mul ing</w>
Cu kup</w>
ke lak</w>
ad egan</w>
J in</w>
kah ulugan</w>
luk isan</w>
ex am</w>
off line</w>
Ke hidupan</w>
weap on</w>
peri al</w>
qu ake</w>
Peng alaman</w>
bu dayaan</w>
exper tise</w>
Eng ine</w>
en i</w>
cerem ony</w>
car anya</w>
menyum bang</w>
acc eler
kerj aan</w>
ber untung</w>
pemb inaan</w>
ra dic
m bak</w>
T B</w>
won ten</w>
laj u</w>
meny entu
ten s</w>
chan nels</w>
J in
ah ku</w>
ber semangat</w>
f lesh</w>
N ick</w>
con tohnya</w>
la d
is ar</w>
p or</w>
ila pan</w>
re cording</w>
pensi un</w>
atta cked</w>
kin sa</w>
anug erah</w>
ul ir</w>
K U
sacri fice</w>
remem bered</w>
mee ts</w>
medic ations</w>
ban ned</w>
quo te</w>
Kong res</w>
ditam bahkan</w>
A Y
pap el</w>
dis played</w>
A sa
suppl ements</w>
me tik</w>
Hol i
tem pla
Carib bean</w>
mem andu</w>
M um
tim a</w>
Lan ka</w>
wat ers</w>
ka ha
peri ods</w>
Н Я
dag at</w>
bel ong</w>
an tu
gu an</w>
infec tions</w>
scor ed</w>
ch art</w>
promo tion</w>
Mu da</w>
ch ur
iw asan</w>
ie ve</w>
ben ua</w>
inj au</w>
goby erno</w>
N on
Per tahanan</w>
yu arat</w>
ap olo
L az
ad o
subst anti
t wee
integr ated</w>
ter lambat</w>
n in</w>
di makan</w>
j adikan</w>
ime j</w>
L okasi</w>
Kom isi</w>
di umumkan</w>
a qu
tingg alkan</w>
man kind</w>
tan ts</w>
ag am
ner vous</w>
fin dings</w>
nes ium</w>
amp un</w>
G ab
sing ing</w>
gene tic</w>
Rohing ya</w>
Per angkat</w>
dar ip
manu faktur</w>
Y ue</w>
Fur thermore</w>
efisi ensi</w>
conver t</w>
F ace</w>
In iti
is ation</w>
dro pped</w>
H abang</w>
I mp
S ter
rela x</w>
Di sember</w>
v id</w>
lig tas</w>
Tr ad
y ard</w>
J ane</w>
sa on</w>
di izinkan</w>
ac tress</w>
pri or
an ang</w>
mengon trol</w>
qu it</w>
tion ally</w>
explan ation</w>
memu askan</w>
mensa he</w>
d é</w>
k ind
percen tage</w>
chem icals</w>
ik ot</w>
et ooth</w>
develop er</w>
In tel</w>
ex port</w>
Commer ce</w>
T ulad</w>
B ang</w>
vacc ine</w>
opti mis
K amp
Band ara</w>
ber pengaruh</w>
ng a
ag ang</w>
t gk</w>
sta dium</w>
E fe
Mag ic</w>
per ayaan</w>
ap aan</w>
ip an</w>
cover age</w>
up acara</w>
ter tua</w>
r ent
Mes si</w>
lis tahan</w>
fr ame
ong side</w>
ag ukan</w>
bel ongs</w>
dit ur
sur render</w>
jen ayah</w>
pro phe
se sudah</w>
reco ver</w>
nakar aang</w>
sun ami</w>
pad ala</w>
or o
ver sial</w>
f ase</w>
cal endar</w>
boo t</w>
ter bakar</w>
mah it
ke upayaan</w>
el and</w>
Pert anyaan</w>
ber komitmen</w>
S Q
W ag</w>
naw ala</w>
larg ely</w>
te bal</w>
Gr atis</w>
ide ya</w>
dit ujukan</w>
terri ble</w>
mas ama</w>
righte ousness</w>
lor o</w>
I o
Fer r
dah ul
hidr at</w>
N ice</w>
menak utkan</w>
supor ta</w>
eks ternal</w>
Bo t
az ab</w>
it aas</w>
K ad
J P
pri de</w>
ex cep
me als</w>
aj u</w>
mys tery</w>
P sal
sp am</w>
T ol
V ice</w>
Sis wa</w>
ev a</w>
elec tro
kar ier</w>
ben tar</w>
ent ity</w>
Cap tain</w>
de tal
um aga</w>
han ana</w>
cip taan</w>
Ukra ina</w>
tis sue</w>
jour nal</w>
sis ters</w>
meng acu</w>
Gayun paman</w>
mainta ining</w>
ko tor</w>
E T</w>
pur su
D ip
co s</w>
nak aka
r atus</w>
Na on</w>
human ity</w>
ber t
men op
hor iz
descri bes</w>
in ding</w>
faith ful</w>
kem erdekaan</w>
dg es</w>
pro tes</w>
pat terns</w>
ker en</w>
clin ical</w>
pers onal
U su
flex ible</w>
ph enomen
k olesterol</w>
re ver
Mes h</w>
x it</w>
Ci vil</w>
meng ganti</w>
Bar ang</w>
c ap</w>
Al bum</w>
men antang</w>
mister ius</w>
for got</w>
ny eri</w>
memb at
Le on
arsit ektur</w>
Par ti
pel ihara</w>
kam ot</w>
p impinan</w>
b os
ee ci
pe ace
p amp
ban king</w>
Sci ences</w>
b by</w>
ati vely</w>
di so
tu kan</w>
du g
inspir ation</w>
tat o</w>
arri val</w>
ala k</w>
lak on</w>
exten sive</w>
aja iban</w>
gin jal</w>
compar ison</w>
O EM</w>
e ternal</w>
mel ompat</w>
cu ci</w>
ul timately</w>
sh r
affili ate</w>
D og</w>
karakter istik</w>
ou red</w>
us ah
enti onal</w>
F at
la utan</w>
contain ing</w>
khawat iran</w>
bour ne</w>
at asnya</w>
tu lu
Be tter</w>
struc tures</w>
t le
Arth ur</w>
b ones</w>
B ack
S iy
dikum pulkan</w>
memer intahkan</w>
b ara</w>
pu annya</w>
am ino</w>
pain ful</w>
clu bs</w>
sti k</w>
us un</w>
Virgin ia</w>
C it
ber satu</w>
col um
diken dalikan</w>
yak ini</w>
ob served</w>
Fit ur</w>
b ari</w>
Fin ance</w>
U I</w>
Com ple
le lah</w>
sho ck</w>
min ds</w>
ber te
pan ah
A si
as hi</w>
ug ma</w>
fe ta</w>
R uang</w>
t ine</w>
liter ally</w>
s l
cap tured</w>
R ang
Sh ak
roman tic</w>
Pem be
Movi e</w>
ber urusan</w>
nap as</w>
men tal
E pis
pemb unuh</w>
baw ang</w>
g ar</w>
dinam akan</w>
op ia</w>
autom atic</w>
und angan</w>
N ab
mar ked</w>
hus us</w>
ta xes</w>
Ma hal</w>
war isan</w>
d ung</w>
ant eng</w>
vul ner
to wer</w>
i ang</w>
pak iramdam</w>
pat itis</w>
n ad
hala l</w>
righte ous</w>
T yp
pag bu
di uji</w>
labor atorium</w>
sem ester</w>
Meli hat</w>
ta utan</w>
F F
reg ime</w>
hi an
os akan</w>
ap is</w>
V ide
q i</w>
r ig
cryp to</w>
binc ang</w>
ola han</w>
mer ayakan</w>
at uhkan</w>
kem arin</w>
e ting</w>
radi ation</w>
ala bas</w>
mener bitkan</w>
aler gi</w>
hom o
dis ana</w>
y ur</w>
an tum</w>
foo tage</w>
p wedeng</w>
pro cess
per isian</w>
f on
Bri an</w>
dis rup
opis yal</w>
Al ice</w>
ru gi</w>
pain ting</w>
V in
iy ah</w>
membel a</w>
di gambarkan</w>
tr il
sejen is</w>
Tu ju
refer ensi</w>
Am ér
Tra ining</w>
T angan</w>
ju puk</w>
sam aan</w>
sit was
gi um</w>
power ed</w>
del eng</w>
us lah</w>
h lah</w>
I M</w>
at re</w>
am ik</w>
anim asi</w>
E mil
P I</w>
up ad</w>
pum asok</w>
bi ar</w>
In cre
loc ked</w>
S aan</w>
el em
S tain
s pan
An war</w>
bri ef</w>
mela cak</w>
prin ting</w>
ven ant</w>
indic ate</w>
terror ism</w>
w o</w>
K op
I g
po verty</w>
contain ed</w>
damag ed</w>
c igar
menangg api</w>
figur asi</w>
pol e</w>
oc curr
sta bility</w>
Ar m
ex ha
kag an
sik lus</w>
P a</w>
pengemb ang</w>
ut ana</w>
l ng</w>
me unang</w>
mah a</w>
am ins</w>
con dem
tu g
as h
tak de</w>
lo m</w>
O w
um alis</w>
Add itionally</w>
per sis
H ard</w>
col lap
L eng
Ko h</w>
C off
jo l</w>
r ing
ru jukan</w>
lis ts</w>
hun ah
ke datangan</w>
Del hi</w>
c ling</w>
buk it</w>
j un
sin as
sub mit</w>
Pes awat</w>
ch ro
per forming</w>
sur ya</w>
keter angan</w>
Mak sud
mo men
in ho</w>
pla in</w>
myster ious</w>
ter or
d yan</w>
S han
Clin ton</w>
ib alo</w>
S O</w>
iy ahan</w>
pan dai</w>
D M</w>
ber pindah</w>
e wise</w>
ingkir kan</w>
ris on</w>
cess ories</w>
it asnya</w>
aw esome</w>
ung o</w>
W ay
per ak</w>
In jil</w>
Pem impin</w>
hak bang</w>
on going</w>
ses at</w>
eg g</w>
t angi</w>
reve al</w>
schedul ed</w>
dis covery</w>
as at</w>
re komen
intel ek
deep ly</w>
res ur
bas sad
menyak itkan</w>
t ments</w>
ta juk</w>
Lap angan</w>
per pustakaan</w>
w ak</w>
men cipta</w>
N in
us tuhan</w>
per guruan</w>
tra uma</w>
pre ad</w>
Sou theast</w>
B ad</w>
meny eli
R atu</w>
Peng urusan</w>
G E</w>
ar bit
pro feta</w>
sek usi</w>
go ver
dir awat</w>
As sembly</w>
kan ta</w>
war gan
ba yang</w>
nyo ba</w>
ber sejarah</w>
sil ent</w>
B R
D aud</w>
menyemb unyikan</w>
Sta dium</w>
ti er</w>
brea thing</w>
ster oid</w>
Ph D</w>
wor ker</w>
concentr ation</w>
meas ur
ha g
kon seku
co gn
s ought</w>
R ay
any way</w>
diagno sed</w>
ma ip
ul angi</w>
kin ing</w>
si e</w>
n ir
ul kan</w>
read er</w>
uni dad</w>
gro unds</w>
Ben ar</w>
Ben jamin</w>
H ingga</w>
S hir
kel ima</w>
pa pers</w>
N aha</w>
Me tro</w>
bl ess
ber peran</w>
w id</w>
W ik
ce d
re kening</w>
am ata</w>
top ics</w>
j us</w>
collabor ation</w>
deng aran</w>
tangg apan</w>
Philip pine</w>
contr ast</w>
histor ic</w>
dir kan</w>
H esus</w>
kunkunkunkunkunkunkunkunkunkunkunkunkunkunkunkun kunkunkunkunkunkunkunkunkunkunkunkunkunkunkunkun
n ayan</w>
at ulong</w>
kel em
j at</w>
s orang</w>
C able</w>
mela wat</w>
ipin ag
memb andingkan</w>
proye kto</w>
res i
T T</w>
Ar tinya</w>
A man
Ex plor
for cement</w>
meng angg
fing er</w>
O la
O t
di annya</w>
Br and</w>
tiv eness</w>
untu knya</w>
ing kat</w>
ig yan</w>
memb ic
her bal</w>
regar ded</w>
menye barkan</w>
ekstr a</w>
it arian</w>
Maa aring</w>
ak da</w>
pener ima</w>
ti bo</w>
ick ness</w>
chron ic</w>
F ast</w>
prepar ation</w>
U E</w>
us ahan</w>
par kir</w>
S av
re jected</w>
W S</w>
de eds</w>
coun ts</w>
di hadapi</w>
bur y</w>
in no
ha yop</w>
w ag
kot se</w>
tiv asi</w>
Per gi</w>
Stain less</w>
ji ang</w>
sa cara</w>
as ap</w>
Pla za</w>
w aves</w>
mov ements</w>
Pro to
rup anya</w>
Ku alitas</w>
Bro ad
K ate</w>
en alan</w>
SM A</w>
trans mission</w>
Di per
bri d</w>
amp uni</w>
la tter</w>
resour ce</w>
fla g</w>
G em
sh ell</w>
Def ense</w>
S port</w>
te p
invol ving</w>
cas tle</w>
inde ks</w>
tu anya</w>
per mit</w>
Agre ement</w>
Kom puter</w>
atak ot</w>
men jelaj
th um
L om
prov al</w>
quali fied</w>
ung sa</w>
A kad
tw itter</w>
nam on</w>
K ajian</w>
Yah weh</w>
kale bu</w>
for ec
des k</w>
life time</w>
devel opers</w>
ber enang</w>
Swe dia</w>
p ili</w>
Ken ne
I lang</w>
cr ash</w>
g ang
inves ting</w>
ar th
intel lec
v ah</w>
vis u
don ya</w>
Priv asi</w>
Sever al</w>
bless ings</w>
kon versi</w>
ran king</w>
I O
d ako</w>
f ishing</w>
suppli es</w>
wh erever</w>
bel a</w>
ac ita</w>
cur an</w>
pe p
pangg ung</w>
Pan duan</w>
S hi</w>
lan jutan</w>
ke pribadian</w>
Dre am</w>
uw un</w>
awar ded</w>
Ter ms</w>
entit led</w>
memu at</w>
l ement</w>
cho colate</w>
oles ale</w>
wewewewe wewewewe
poten tially</w>
n ity</w>
les son</w>
d r</w>
at ukan</w>
des cen
i ji</w>
emplo yed</w>
Bin tang</w>
Gu in
T ree</w>
mengh ilang</w>
bl essing</w>
Sho p</w>
hang in</w>
T ech</w>
dem ands</w>
kasay sayan</w>
er ang</w>
Bet ween</w>
re tail</w>
r ama</w>
Phar aoh</w>
bes ok</w>
dis appointed</w>
ed ly</w>
Jus tin</w>
es pes
tent ly</w>
Par liament</w>
Ter nyata</w>
K apan</w>
hi p
produc es</w>
Olymp ic</w>
Ir landia</w>
Spe ed</w>
An dy</w>
ni ining</w>
Wak il</w>
Con vention</w>
ba ya</w>
any body</w>
di ver
wat kan</w>
mendapat kannya</w>
Min san</w>
bany aknya</w>
bo und
jack pot</w>
nar aramdaman</w>
men emu
E spes
Se ven</w>
O ce
res iko</w>
rap id</w>
cat at</w>
Strate gi</w>
Peng emb
bap ak</w>
men utupi</w>
comprehen sive</w>
corrup tion</w>
en ly</w>
strong ly</w>
fal len</w>
lang ka</w>
sud den</w>
r ik
se v
ada m</w>
G ates</w>
O ff</w>
j aan</w>
nan iniwala</w>
Sk y
Char lie</w>
hidup kan</w>
Fe deration</w>
manag ers</w>
gener ations</w>
get kan</w>
ma las</w>
exer ci
pr on
an ity</w>
bijak sana</w>
Er do
K aca</w>
in less</w>
ta il
mainta ined</w>
mar gin</w>
mal inaw</w>
bu san</w>
ap it</w>
mel in
ker angka</w>
hub ungannya</w>
or b
Nor we
No v</w>
Fak ta</w>
h ly</w>
kababa ihan</w>
ter buruk</w>
commit tee</w>
separ ated</w>
at let</w>
sty les</w>
ta ble
cer ah</w>
li on
Ing les</w>
ke kalahan</w>
P EN
produc er</w>
Auth ority</w>
B eng
L ik
Be auty</w>
revol ution</w>
bu mili</w>
I kan</w>
L as
s wee
he m</w>
H R</w>
sign als</w>
con test</w>
nak uha</w>
Bre xit</w>
ol ongan</w>
bag inda</w>
mem elihara</w>
tat too</w>
Scot land</w>
ti bu
I V
magne tic</w>
ph y</w>
R at
mag agamit</w>
ba it</w>
ak syon</w>
n ong</w>
phys ically</w>
Off ic
R asa</w>
mat anya</w>
est ado</w>
H ome
la bel
L IN
ul in</w>
ar do</w>
ungk us</w>
hor mati</w>
v is</w>
cri ed</w>
ke sejahteraan</w>
pember ian</w>
ani e</w>
ugh ters</w>
Res ol
isk inan</w>
j inis</w>
par lemen</w>
Jang anlah</w>
ha bit</w>
Cer ita</w>
pum p</w>
wi wit</w>
I ku</w>
o h
al ongside</w>
pro pes
hap uskan</w>
el le</w>
f ies</w>
da ig
kesak itan</w>
st ations</w>
kon ven
miy embro</w>
stit usi</w>
membaw anya</w>
ber kunjung</w>
aj ang</w>
j aya</w>
per umahan</w>
o ton
Tu buh</w>
lap ar</w>
ting kah</w>
mas akan</w>
se dap</w>
head ed</w>
un usual</w>
S tra
memper kirakan</w>
vie wing</w>
sal itang</w>
D ays</w>
paha m</w>
por ter</w>
s ikat</w>
ro yal</w>
Val ve</w>
ang siapa</w>
sur ing</w>
perfec tly</w>
se iring</w>
manag ing</w>
J ason</w>
Hos ting</w>
der ly</w>
implem entation</w>
pan al
Pro yek</w>
Pener bangan</w>
G ib
aim ed</w>
dar ating</w>
C T</w>
With in</w>
men g</w>
ata as</w>
decre ase</w>
kat egor
mo bil
gaw as</w>
P V</w>
cri bed</w>
sh ire</w>
Off icial</w>
P ain
sta inless</w>
port folio</w>
pain t</w>
Exc el</w>
men ara</w>
pada mu</w>
stru ck</w>
us ta</w>
Kas ino</w>
log ist</w>
pu k
publ ish</w>
e du
x el</w>
nap aka</w>
Br us
se kalipun</w>
g id</w>
in abang</w>
Manufactur ers</w>
Fu ture</w>
jur nal</w>
destin asi</w>
K ulit</w>
Inf o</w>
H alaman</w>
hing g
pro min
Pro vid
Cris to</w>
z i
Cam bridge</w>
meng konsumsi</w>
jur it</w>
res pon</w>
diper timbangkan</w>
prin cip
z ech</w>
Ch er
dem am</w>
ung u</w>
ar kannya</w>
Portu gu
D ate</w>
L ampu</w>
harg anya</w>
inisi atif</w>
psik ologi</w>
F und</w>
T ind
dij angka</w>
ang kang</w>
ungk usan</w>
A ction</w>
Pap er</w>
appe al</w>
mak eup</w>
Per aturan</w>
l v
P al</w>
mag amit</w>
ce pet</w>
se ment</w>
u ah</w>
rescu e</w>
mem ukul</w>
bas ketball</w>
Filip ino</w>
bes arnya</w>
De ar</w>
pingg ang</w>
in na</w>
ter sendiri</w>
pur sue</w>
zh en</w>
pe layan</w>
continu ing</w>
ko wé</w>
menyel uruh</w>
n onton</w>
F F</w>
meng izinkan</w>
fi er</w>
ula tan</w>
un tu</w>
enter a</w>
sur uh</w>
ibin igay</w>
mem esan</w>
Har d
ke tegangan</w>
Ber main</w>
bo hidrat</w>
S apag
s wit
al gori
pender itaan</w>
fing ers</w>
pi pa</w>
E C</w>
es tu
atten ded</w>
sh ut
invest ments</w>
ul ik</w>
Ada pun</w>
sal vation</w>
wor n</w>
T N
ibu kota</w>
hat on</w>
o des</w>
Men ingkatkan</w>
Pe ar
v i</w>
sat ellite</w>
acqu ire</w>
ic ed</w>
pit ch</w>
kap ai</w>
nag karoon</w>
A V
por n</w>
L ater</w>
B et</w>
com pens
Syar at</w>
men ul
al ukan</w>
c ang</w>
suppl ement</w>
ch at
tu b</w>
Isra el
cat s</w>
mus ical</w>
peng ec
ti mel
con tac
Atlan tic</w>
pen yes
pag kam
D a</w>
ph rase</w>
Lem baga</w>
peng g
Ver si</w>
ati onally</w>
terj adinya</w>
mang yayari</w>
di dorong</w>
ki amat</w>
ta gum
ke p</w>
friend ship</w>
mel angkah</w>
mengam ati</w>
dit inggalkan</w>
pas tian</w>
thre ats</w>
ch olesterol</w>
correc tly</w>
S ide</w>
Nav y</w>
A ce
ber tukar</w>
si apakah</w>
Pri ze</w>
p kan</w>
P wede</w>
penger tian</w>
Libr ary</w>
la jadi</w>
r ute</w>
nutri ents</w>
streng then</w>
Ter bang</w>
Ko tak</w>
sugges tions</w>
refle ct</w>
Pos ted</w>
man i</w>
saf ely</w>
Ju ven
re au</w>
G lass</w>
ta la
Os car</w>
dor ongan</w>
up coming</w>
Lati han</w>
Pe jabat</w>
fit ness</w>
Bel gium</w>
M our
A B</w>
ten d
eas tern</w>
experi ment</w>
Ber anda</w>
far m</w>
Fri ends</w>
Ku dus</w>
aw a
berpu asa</w>
penye baran</w>
ev es</w>
pe juang</w>
vil lag
Provin si</w>
mee tings</w>
D ak
kasaluku yang</w>
diper hatikan</w>
Pro gram
tele phone</w>
No ah</w>
accoun ting</w>
keke balan</w>
om bia</w>
er os
ar ta</w>
peng ganti</w>
ter te</w>
per cobaan</w>
Bu ff
is yen</w>
y cle</w>
n ights</w>
i in</w>
D ana</w>
t res</w>
meng undang</w>
You tube</w>
di duga</w>
aj ikan</w>
Al tern
mar ine</w>
vi br
az z</w>
deri ved</w>
Secre t</w>
v oc
Abdul lah</w>
du gang</w>
E d</w>
an ta</w>
Al bert</w>
o ong</w>
ma i</w>
Usu ally</w>
V la
B us</w>
I ku
per encanaan</w>
ter as</w>
Fil ter</w>
fa thers</w>
pembic araan</w>
peng ujian</w>
N Y
ly rics</w>
an ne</w>
ole hi</w>
die sel</w>
C uma</w>
libr eng</w>
Keku atan</w>
ed ition</w>
arth ritis</w>
kan o</w>
aba ya</w>
betu l
é hanana</w>
per wakilan</w>
Sou th
ah annya</w>
repe at</w>
peny el
contro ls</w>
mir ror</w>
ip on</w>
adequ ate</w>
UE FA</w>
por tal</w>
or o</w>
im i</w>
or gas
im pul
ha ba</w>
Pow der</w>
fe eding</w>
le dakan</w>
jo ining</w>
p izza</w>
ce k</w>
s can</w>
An u</w>
sa in
pas ses</w>
ij en</w>
hid ung</w>
cen ters</w>
t ful</w>
kela juan</w>
bu ried</w>
tr ay
ing o</w>
Ko le
S on
strugg ling</w>
pla s
le her</w>
o ids</w>
ak ses
adv oc
kes ilapan</w>
c ala
di paksa</w>
meng at
Sau dara</w>
menye tujui</w>
haha haha</w>
Ox ford</w>
sar ap</w>
ben dera</w>
en ix</w>
n ada</w>
Ser angan</w>
L C</w>
ban k
di y
r ated</w>
per cu
no w
tu wing</w>
AL L</w>
ick y</w>
ke khawatiran</w>
J obs</w>
membat alkan</w>
sol usyon</w>
ke indahan</w>
pin k</w>
pu p
pagpip ilian</w>
isola si</w>
S ula
menyentu h</w>
is tana</w>
O saka</w>
I yong</w>
BM W</w>
bran ch</w>
indic ates</w>
dit olak</w>
ar uhi</w>
am bis
pap aran</w>
Sar jana</w>
ren ang</w>
kat a
hol der</w>
com mit</w>
pene tr
nang is</w>
ma ong</w>
pes aing</w>
K it</w>
o is</w>
Ho pefully</w>
asi hi</w>
fe atured</w>
gr and</w>
nag awa</w>
S ure</w>
Bu daya</w>
parti kel</w>
ke lamin</w>
mo lec
ta pe</w>
emp atan</w>
mak lum</w>
shoul der</w>
j embatan</w>
Blu etooth</w>
p cs</w>
inv ent
din ten</w>
karap atan</w>
radi asi</w>
emer lang</w>
es th
Mo tor
maksud nya</w>
Ch am
mang yari</w>
M in</w>
kaw en</w>
T olong</w>
mis sile</w>
D aw
Van es
T eng
meng ger
sag ala</w>
d w
samp ingan</w>
Curr ently</w>
tar is</w>
h antu</w>
su perior</w>
Per sekutuan</w>
un ited</w>
vir al</w>
peper angan</w>
entr ance</w>
ch lor
cr as
mem baha
O f
Du terte</w>
D ito</w>
X in
An jeunna</w>
jer awat</w>
wak as</w>
Gal il
bing o</w>
r yp
ak am
Kyo to</w>
sh ame</w>
seny awa</w>
mel ancarkan</w>
sti mu
berpu tar</w>
Adv anced</w>
samb ung</w>
compe tit
prin ter</w>
R aj
and o</w>
gr as
requir ement</w>
un ting</w>
Mat ahari</w>
dr one</w>
O ct</w>
exten sion</w>
mil e</w>
Kat anya</w>
Mu ch</w>
P O</w>
O gos</w>
Pe t
in apan</w>
f ur</w>
memer angi</w>
exc es
bedro om</w>
coun ting</w>
at tract</w>
organis ation</w>
mo dul</w>
Suprem e</w>
unggu l</w>
administr asi</w>
be kalan</w>
zek i</w>
Pen ulis</w>
pungg ung</w>
Gr up</w>
pen diri</w>
r asi
ir nya</w>
ap annya</w>
am ong
Sem akin</w>
beras askan</w>
pem bi
read s</w>
sha lat</w>
H ear
J r</w>
f u</w>
hi o</w>
B lock
Cat atan</w>
verif ikasi</w>
j en</w>
per kiraan</w>
W ars</w>
ke gunaan</w>
enth usi
ch ips</w>
aw ards</w>
menyem buhkan</w>
F ungsi</w>
t oo
b ands</w>
a ire</w>
Mi ami</w>
Co ast</w>
li bur</w>
di ganti</w>
D aya</w>
tr uk</w>
al ysis</w>
to ken</w>
sy al</w>
mag pak
z ens</w>
es anan</w>
de ka</w>
ligh t
consi deration</w>
F X</w>
Any way</w>
M emu
stit ute</w>
Mun ich</w>
alag ad</w>
may at</w>
ti pan</w>
Pas angan</w>
An jing</w>
un cle</w>
Rec ords</w>
Form ula</w>
ang or</w>
m ic</w>
terse bar</w>
emu kakan</w>
cr us
f ought</w>
dok teran</w>
A cara</w>
Nak ita</w>
K ag
Ke bang
Dow n
Priv ate</w>
НЯ НЯ
Sel ect</w>
peng ungsi</w>
rek or</w>
pati ence</w>
acqu ired</w>
Akib atnya</w>
ny anyi</w>
spokes man</w>
Lin ked
some what</w>
mid st</w>
Kar on</w>
ori entasi</w>
I tali</w>
sertif ikat</w>
pos sess</w>
g ather</w>
Mas ter
P apa</w>
se imbang</w>
é l
ang kop</w>
bl is</w>
Dis tribu
Sk ype</w>
pollu tion</w>
s ami</w>
bio logi</w>
po l</w>
ib o</w>
ap proval</w>
Le ave</w>
Archi ves</w>
viol ent</w>
pem anasan</w>
Di et</w>
sc ope</w>
im ik</w>
aba di</w>
ung kot</w>
lu to</w>
Isa ac</w>
peng akuan</w>
mag net</w>
m ali</w>
S ac
tw el
impl ement</w>
ra dikal</w>
an niversary</w>
Co ba</w>
con sent</w>
kela b</w>
h atian</w>
pengh antaran</w>
ri wayat</w>
CN C</w>
Sup pli
conv entional</w>
ku il</w>
wak tos</w>
en an</w>
den ied</w>
Tor onto</w>
B ell</w>
Ara w</w>
among st</w>
discipl ine</w>
as sem
ge ar</w>
revol usi</w>
inst ant</w>
Con sum
preci ous</w>
ic ip
pos it</w>
de bu</w>
ko ba</w>
ku alifikasi</w>
dit ak
nego siasi</w>
r ank</w>
mu dahan</w>
iki pag
l anan</w>
sibil idad</w>
n ulis</w>
di bu
sa i</w>
bas ket</w>
ik gu</w>
sitwas yon</w>
G on
intro duce</w>
ig ns</w>
ch er
ti li
mul anya</w>
re kod</w>
temb akan</w>
menj anjikan</w>
eksk lusif</w>
there um</w>
tiv iti</w>
s akan</w>
ma ik
Colum bia</w>
F abric</w>
consum e</w>
ap plies</w>
kom pe
de partemen</w>
pu isi</w>
Nu tr
u bos</w>
K ari
kis s</w>
c tic</w>
il way</w>
restric tions</w>
cor respon
aw as</w>
al arm</w>
A pi</w>
stat ements</w>
A ug</w>
ker osakan</w>
kam p</w>
y uan</w>
sen di</w>
paha yag</w>
B and</w>
sila kan</w>
Su ka</w>
rah sia</w>
ecu alian</w>
kap nya</w>
baba eng</w>
Res er
Wor k
op t</w>
stat istics</w>
psycho logical</w>
o ved</w>
meng an
uku ha</w>
pem andu</w>
kal oo
ah mu</w>
bo h</w>
langg anan</w>
i ga</w>
e han</w>
N et</w>
mak ipag</w>
Kris ti
ad uhan</w>
tic a</w>
ro ads</w>
Uni verse</w>
Si x</w>
conne ctions</w>
b ansang</w>
attemp ts</w>
convinc ed</w>
di sy
al tar</w>
i hi</w>
ke unggulan</w>
H az
dit emui</w>
r incian</w>
Pak aian</w>
N anti</w>
hou sing</w>
bo ten</w>
sex y</w>
Fe der
menyeli diki</w>
Q a
ba dai</w>
ch est</w>
C lim
ia o</w>
D iri</w>
ran dom</w>
tr ends</w>
as alnya</w>
g ara</w>
ng um
wor l
inc angkan</w>
M ayo</w>
ab und
di sukai</w>
Tangg al</w>
ach i</w>
ber turut</w>
ome ter</w>
Prem ium</w>
targe ted</w>
div ine</w>
ditur unkan</w>
pag kuha</w>
kre ati
Mel bourne</w>
pip ila</w>
lot tery</w>
I ON</w>
amp ak</w>
Bag inda</w>
N er
se pi</w>
kon serv
Pe kerjaan</w>
pes at</w>
ho tel
kebang saan</w>
Stu dy</w>
Applic ation</w>
pamam araan</w>
ter bunuh</w>
satis faction</w>
ser u</w>
Sil ver</w>
se takat</w>
he al</w>
per sahabatan</w>
binc angan</w>
pos isyon</w>
ke jutan</w>
ang el
sasak yan</w>
per sembahan</w>
n n</w>
O ne
ev ed</w>
Con tent</w>
men tally</w>
rest ore</w>
Ir anian</w>
ati annya</w>
G en</w>
p d</w>
Joh or</w>
P angg
liber al</w>
Tind akan</w>
kun ya</w>
expan sion</w>
st ana</w>
Pu tra</w>
sh i</w>
B ic
Yo ga</w>
ber terima</w>
M M</w>
im pressed</w>
net working</w>
tor ney</w>
survi val</w>
di hantar</w>
bu mu
A yat</w>
memuli hkan</w>
Al most</w>
fir ms</w>
s angka</w>
em put</w>
pu jian</w>
represent ed</w>
ko in</w>
M ing</w>
evol ution</w>
L D</w>
P ik
ber hadapan</w>
P ep
z o</w>
ul timate</w>
pen alty</w>
rati o</w>
dr agon</w>
pam ahalaan</w>
Re ally</w>
he ating</w>
Pro f</w>
hunah una</w>
ak ak
We ek</w>
threat ened</w>
memer intah</w>
sen sus</w>
de kor
stu pid</w>
bap ti
Cas h</w>
Men ur
t ari</w>
encour aged</w>
Bel i</w>
al ik
Ka isar</w>
organ s</w>
as id</w>
apar temen</w>
rem ent</w>
hu b</w>
au dit</w>
I blis</w>
u ing</w>
kes impulan</w>
K i</w>
experi encing</w>
promo ting</w>
TE R</w>
isyar at</w>
H anggang</w>
ump ai</w>
mer os
pember itahuan</w>
Tech n
l ungan</w>
ditu buhkan</w>
ind ed</w>
ari lah</w>
bi c</w>
Di ego</w>
le e</w>
membe dakan</w>
Imag e</w>
guid elines</w>
sap e</w>
p act</w>
Re al
mer e</w>
pen a</w>
par i
ug ang</w>
Pe dro</w>
ang anak</w>
ter had</w>
sor angan</w>
k ome
sin ing</w>
bur uh</w>
frame work</w>
Col or
pembe dahan</w>
G y
health care</w>
pen al
tam ent</w>
Ter kadang</w>
Pan jeneng
Di pl
off ices</w>
nag da
pr as
Is tilah</w>
dib anding</w>
enc ryp
gor it
ac compan
k itan</w>
Nom or</w>
R P</w>
trav el
fir m
fem in
er to</w>
Tit le</w>
rum put</w>
kerag uan</w>
H a</w>
da ughters</w>
ac knowle
P ablo</w>
uk ur
Dom in
Sar awak</w>
P om
member itah
fe wer</w>
Gen esis</w>
agres if</w>
ent itas</w>
ful ness</w>
Un like</w>
mem us
i bal</w>
sub jects</w>
er als</w>
as ter
pu t
bur kan</w>
D ub
ke tawa</w>
Mul ti</w>
iba ba</w>
S nap
w iti</w>
yo ung
pro pag
a than</w>
Le o</w>
e ter</w>
E spir
ul ung</w>
Ph ilip</w>
Mo de</w>
Su dan</w>
Y ak
T unggu</w>
inter act</w>
dé ning</w>
fik irkan</w>
g mail</w>
mener angkan</w>
por table</w>
ke betulan</w>
affor dable</w>
di bang
petu alangan</w>
hadi s</w>
ber firman</w>
implem ented</w>
P emu
wil wil
trac king</w>
oper ated</w>
D uk
tig ht</w>
meng hal
es cap
Ch alleng
pemas angan</w>
T un</w>
sum bangan</w>
ex tra
ta ils</w>
un sang</w>
compati ble</w>
iz er</w>
intelek tual</w>
bag uhin</w>
S K
A kala</w>
pert olongan</w>
Hos tel</w>
phys ics</w>
konven sional</w>
l irik</w>
Di a
we ird</w>
S pr
pel ancong</w>
roman tis</w>
produ ktif</w>
si aran</w>
Pan jang</w>
instru ments</w>
du al</w>
e aten</w>
ap alagi</w>
pad u</w>
w è
sol ved</w>
consum ed</w>
di eu</w>
L ong
gradu ally</w>
grap her</w>
ter infeksi</w>
sus pect</w>
end or
Pas ti</w>
B U
Jeho vah</w>
ON E</w>
Juven tus</w>
elimin ate</w>
Bas ta</w>
K h
Ap r</w>
ris h</w>
an sa</w>
c up
SQ L</w>
hin ung
speci alized</w>
sad ur
ha yat</w>
ke gem
ek sekusi</w>
ha b</w>
la kon
R U
an im</w>
As sis
ran ked</w>
anc es
j gn</w>
op o</w>
bel ong
s lots</w>
p har
ef f</w>
func tional</w>
ha bil
La ser</w>
fas test</w>
J a
sof a</w>
en s
J ad
Coff ee</w>
san ksi</w>
op posed</w>
e tika</w>
Res taur
dep lo
mem eng
iy aro</w>
pa irs</w>
Bo le
AR A</w>
bac kup</w>
pul led</w>
bon d</w>
mag agawa</w>
ge las</w>
komun iti</w>
A do
Au to
air ah</w>
an ipun</w>
Pr ac
Ke ter
tro l
dis on</w>
Termin al</w>
que en</w>
mon es</w>
ag at</w>
di pengaruhi</w>
Kap al</w>
b ally</w>
pad uan</w>
O thers</w>
concer t</w>
win ners</w>
con clusion</w>
ali en</w>
reser ved</w>
N el
N ga</w>
P ent
buk ak</w>
d asan</w>
per bandingan</w>
sa é</w>
Mar vel</w>
d at</w>
Qu o
ad just</w>
pela buhan</w>
F em
favour ite</w>
bio logical</w>
auth ors</w>
Erdo gan</w>
lo vely</w>
cre ates</w>
Ke la
mengh alang</w>
bu lat</w>
trans ition</w>
accep table</w>
lu lar</w>
ter ikat</w>
pe g
Bul gar
con vic
indi kator</w>
par kan</w>
Lab or
tel es
T able</w>
Pho to
mechan ical</w>
ar ray</w>
activ ely</w>
sa ble</w>
fil ling</w>
meng ik
Ing atlah</w>
sapag kat</w>
exten d</w>
maw ala</w>
telep ono</w>
Tel ev
dem o
kar bohidrat</w>
spe cu
re duction</w>
op les</w>
lu xury</w>
associ ation</w>
spesi alis</w>
Se per
com posed</w>
M ade</w>
go da</w>
es timate</w>
Am bil</w>
For est</w>
la ting</w>
la h
ig ned</w>
mag bigay</w>
C zech</w>
ku e</w>
dis crimin
C R</w>
concep ts</w>
certi ficate</w>
foc using</w>
oksi dan</w>
J ay</w>
organ isme</w>
mah kamah</w>
wal let</w>
candi date</w>
dic atat</w>
Be kerja</w>
glo bal
ari ah</w>
Ju l</w>
nag hahanap</w>
ras akan</w>
y ado</w>
h its</w>
om ah</w>
ter jebak</w>
T id
angk ir</w>
ham ed</w>
Sep anyol</w>
argu ment</w>
fr ig
am alkan</w>
pas sion
C iri</w>
e to</w>
L inc
cond iti
git na</w>
stre t
mal ware</w>
ant y</w>
bic arakan</w>
to ys</w>
el ine</w>
E D
ip as</w>
len sa</w>
may sa</w>
Free dom</w>
ap ang</w>
con gan</w>
behavi our</w>
dis orders</w>
E arly</w>
inten tion</w>
diffic ulties</w>
sa per
Tel uk</w>
Democr atic</w>
ta gal</w>
kep alanya</w>
fi red</w>
Alum inium</w>
Carol ina</w>
di l</w>
occ asion</w>
c ia</w>
absol ute</w>
I yon</w>
fo cuses</w>
kom prehen
sin yur</w>
lay akan</w>
der son</w>
Re lated</w>
ny ieun</w>
Pr im
ungk apan</w>
m all</w>
blog s</w>
distribu ted</w>
berh ampiran</w>
di versity</w>
al on</w>
dist inct</w>
Kel ly</w>
Analy tics</w>
Fr ont</w>
ten tion</w>
r adar</w>
L D
Re ply</w>
r ans
H o</w>
Dom ain</w>
in ations</w>
repor ters</w>
pen amp
kah ir
e disi</w>
harm ful</w>
keny ataannya</w>
sal ju</w>
Rev e
Sel angor</w>
si apapun</w>
elek tro
res idence</w>
Shen zhen</w>
disen yo</w>
colle agues</w>
P HP</w>
import antly</w>
suppli ers</w>
b ana</w>
Isa iah</w>
mang a</w>
lala king</w>
tagum pay</w>
utu pan</w>
membe baskan</w>
men deteksi</w>
lil in</w>
Per lindungan</w>
F M</w>
is da</w>
less ons</w>
R un</w>
Be autiful</w>
se bentar</w>
jangk itan</w>
announ cement</w>
est ine</w>
v ola
ber belanja</w>
ngng ngng
ala kan</w>
s annya</w>
M ario</w>
semu lajadi</w>
si zes</w>
ting an</w>
krit eria</w>
st un
ak e
ad mitted</w>
se ats</w>
Pol andia</w>
U ng
person nel</w>
pen utup</w>
pri hat
u od</w>
Gol f</w>
Pay Pal</w>
ing nan</w>
la long</w>
Cook ie</w>
tal i
il li
e o
ber mimpi</w>
wargan eg
pas okan</w>
ris au</w>
Te tap</w>
pen tad
def ine</w>
mere komendasikan</w>
untuk mu</w>
ber ang</w>
peng el
b ina</w>
jal uk</w>
Mour inho</w>
waw asan</w>
ar ating</w>
per mitted</w>
v as
v as</w>
ri ers</w>
Te en</w>
low est</w>
me ga</w>
oul s</w>
inten se</w>
beg un</w>
celebr ated</w>
ad uan</w>
C ut
s asi</w>
Chris top
mik ir</w>
wi reless</w>
h t
S B</w>
ch am
Pat rick</w>
it anya</w>
Ged ung</w>
pelak on</w>
el an</w>
tang ing</w>
G ag
ar ena</w>
as hamed</w>
present ation</w>
dom an</w>
certain ty</w>
R az
S la
f loo
as up</w>
Ke adaan</w>
w atan</w>
Du ke</w>
pah ala</w>
hor ri
mag n
O F</w>
men unjuk</w>
bi as</w>
bab ang</w>
mula kan</w>
ri p</w>
di ajar</w>
z al
re dit
ku ant
plu g</w>
en tic
e las
ke puasan</w>
S ource</w>
sen ce</w>
ip ap
di h</w>
mah ukan</w>
Ma x
Le wis</w>
M at</w>
Kam ar</w>
pag sis
Jar ingan</w>
hig an</w>
Linc ol
b ingan</w>
le u
San to</w>
isip in</w>
ab str
Kabu paten</w>
anal iksik</w>
writ ers</w>
Amér ika</w>
den y</w>
gum agawa</w>
pu ty</w>
il ig
en counter</w>
phenomen on</w>
am aran</w>
per bankan</w>
enti an</w>
agno sis</w>
col our</w>
si ge</w>
sett led</w>
ir ang</w>
pat ch</w>
tis m</w>
Ber at</w>
re ci
liter ature</w>
d ong
ib kan</w>
bur den</w>
des per
peace ful</w>
des ainer</w>
par uh</w>
pla k</w>
as ti</w>
M ill
I tem</w>
ab aran</w>
ng akak</w>
Nor way</w>
ant ine</w>
aw ake</w>
ac ak</w>
Gr ace</w>
I F</w>
ber dekatan</w>
mechan ism</w>
ber dampak</w>
p neum
an aa</w>
Ap alagi</w>
ah ala</w>
Pem asaran</w>
bassad or</w>
pangang ailangan</w>
Espes ye</w>
Pol is</w>
conclu ded</w>
de lay</w>
ex ception</w>
men da
mena ikkan</w>
or iti</w>
darip adanya</w>
dr as
Ma ur
Sto ck</w>
Th ank
E thi
Pum p</w>
May or</w>
k ni
men jej
ber tugas</w>
E at</w>
Par ts</w>
expen ses</w>
Bro ther</w>
Plas tik</w>
invol ve</w>
tam at</w>
Kom ite</w>
in tr
cr imes</w>
is ters</w>
CO M</w>
ab les</w>
kes enangan</w>
blo w</w>
sm ooth</w>
as tro
bul anan</w>
in take</w>
Te u</w>
kum uha</w>
meng awasi</w>
melin tasi</w>
instru ment</w>
aw on</w>
a alala</w>
C old</w>
sta bil
epe k
Perbe daan</w>
Wor ldwide</w>
UA E</w>
ker usi</w>
sigh ts</w>
j ero</w>
tor i</w>
pip e</w>
b anya</w>
L ab</w>
Kon disi</w>
at ch</w>
im bing</w>
aha ha</w>
si mu
c ilik</w>
ma lam
Co t
u tin</w>
h en</w>
requ ested</w>
wh an</w>
M ap</w>
pi ano</w>
pid ato</w>
accompan ied</w>
has rat</w>
inten do</w>
S cript</w>
je ktif</w>
Bang unan</w>
break s</w>
ad vised</w>
di angkat</w>
ij azah</w>
pray ing</w>
kem iskinan</w>
spo ts</w>
open s</w>
Pro per
X box</w>
A ku
cy ber</w>
Le ad
D atang</w>
daf tarkan</w>
if y</w>
B aw
T ala
Per hatikan</w>
pe ak</w>
purch asing</w>
Me lakukan</w>
F air</w>
broad cast</w>
respon ded</w>
De c</w>
kom plikasi</w>
temper atures</w>
lo ween</w>
F antas
dile takkan</w>
menges ahkan</w>
s par
N ge
Sim ple</w>
un awaan</w>
CO N
w allpaper</w>
ngag aduhan</w>
h kannya</w>
cir cle</w>
Anth ony</w>
Kal im
T aha
menyus un</w>
f old</w>
we igh
Espir itu</w>
san hi</w>
d ys
é an</w>
A void</w>
k ick</w>
ku wento</w>
sy st
nutr ition</w>
Ken ya</w>
Wil son</w>
mil yong</w>
P h</w>
l oud</w>
Aw al</w>
L L</w>
k able</w>
momen tum</w>
r ingkas</w>
ur g
en ya</w>
at ri
Tem an</w>
Holi day</w>
ar rest</w>
ug ikan</w>
sch e</w>
hand ed</w>
mer kado</w>
con temporary</w>
G el
peng ajian</w>
rit ual</w>
vit amins</w>
M ember</w>
Par limen</w>
ent ase</w>
Se ason</w>
bom b</w>
e uro
lap is</w>
tagi han</w>
sk rin</w>
hi per
candi dates</w>
ad ds</w>
nangang ailangan</w>
Pi er
bas ah</w>
err ors</w>
J eff</w>
r ilis</w>
ain nya</w>
acc um
Kar tu</w>
ip akita</w>
car at</w>
Mor gan</w>
mas alahan</w>
refug ees</w>
log an</w>
tar gets</w>
ap plying</w>
L ad
Bi arkan</w>
Mo den</w>
ra ising</w>
pac ar</w>
she ep</w>
In surance</w>
Mus ik</w>
arti ficial</w>
I ce</w>
Re turn</w>
Har ap</w>
dec line</w>
Au dio</w>
ke ajaiban</w>
Mic higan</w>
gumag ana</w>
tr ak</w>
de lay
inc es</w>
arti kulo</w>
ex cess</w>
se umur</w>
Se kre
Tun es</w>
E thereum</w>
ser onok</w>
an to</w>
Fak tor</w>
Tes la</w>
che aper</w>
di sin
isi han</w>
AB S</w>
T ap
X P</w>
Amer ik
surro unded</w>
s pr
si ans</w>
ni ana</w>
M U
twel ve</w>
a se
S cho
be i</w>
H av
m ons</w>
sek si</w>
Y ah</w>
la t
ten an</w>
ber perang</w>
Y aman</w>
menon jol</w>
poin ted</w>
hi hintay</w>
peng urangan</w>
T ahu</w>
wh oever</w>
mo hon</w>
sig ning</w>
K ac
rac un</w>
di hukum</w>
es ty</w>
maha lagang</w>
air line</w>
Egyp tian</w>
peng angkutan</w>
Ap ps</w>
ber dosa</w>
kat ang
Bru ce</w>
Americ as</w>
R ad
ik ulum</w>
semes tinya</w>
y ata</w>
st al
Lincol n</w>
kal sium</w>
tr ick</w>
den dam</w>
n ahkan</w>
meng adopsi</w>
atu loy</w>
is y
ingg it</w>
pet ition</w>
B ek
l ens</w>
R af
ber ukuran</w>
prote cting</w>
resul ted</w>
ac an</w>
resol ve</w>
de fici
eth nic</w>
embar ras
maran éhanana</w>
u y</w>
Br ing</w>
gratula tions</w>
pekerj akan</w>
berter iak</w>
tab ly</w>
V R</w>
lin ing</w>
aw ak
M i</w>
inter action</w>
R ing</w>
L au
L Y</w>
U ser
profit able</w>
pra jurit</w>
A gen
terper inci</w>
meny ingkirkan</w>
ac tors</w>
j ah
im aan</w>
pala gay</w>
di lem
bur ned</w>
ta x
par ameter</w>
H mm</w>
dy ante</w>
aff airs</w>
im pressive</w>
en orm
N G
asses sment</w>
ak ot</w>
nas ty</w>
anal o</w>
in habit
B ilik</w>
pleas ant</w>
sar ana</w>
kon tempor
heav ens</w>
s and</w>
emph as
meas ured</w>
N iya</w>
Te a</w>
Ter akhir</w>
Per tu
al lies</w>
man tap</w>
pen du
wada ys</w>
L isa</w>
se where</w>
men darat</w>
pis au</w>
di ag
F RE
ge lapan</w>
Di vision</w>
di min
han dap</w>
all est</w>
a alok</w>
His tor
W es
shap ed</w>
assis tant</w>
f isi
penul isan</w>
nur se</w>
f ers</w>
Bu ka</w>
ku ya</w>
CN N</w>
belanj aan</w>
ur na</w>
N intendo</w>
Ke duanya</w>
gin ag
kem as
T rain</w>
tekno lohiya</w>
tit led</w>
kre asi</w>
bi as
hor mones</w>
pin ag</w>
panah ong</w>
writ es</w>
clo sing</w>
in stein</w>
An ug
kepem ilikan</w>
re zeki</w>
trans lated</w>
bac ter
g ulang</w>
Perf ect</w>
Par adise</w>
che ese</w>
con version</w>
ex trac
D H
Ado be</w>
memb un
kap ing</w>
B TC</w>
Res erve</w>
C V</w>
y ano</w>
influ enced</w>
mengg alakkan</w>
mat h</w>
lu tut</w>
ac ids</w>
em atic</w>
kon figurasi</w>
fr anch
ob serve</w>
pe des
i fication</w>
rela tives</w>
Anton io</w>
apolo gi
see ds</w>
lo ans</w>
Je las</w>
kum ak
D ha
eth eless</w>
Ku asa</w>
lo ver</w>
Ac tiv
S le
bin ary</w>
sem pit</w>
belak angan</w>
in tim
konseku ensi</w>
g eg
motiv ation</w>
S oun
ak om
Go ing</w>
mo thers</w>
pan jangan</w>
ber wenang</w>
bl ess</w>
day ana</w>
asi at</w>
Ad unay</w>
A round</w>
ber pakaian</w>
Ye ars</w>
gu ar
A ma</w>
t any
tra iler</w>
Kat akanlah</w>
ali wanag</w>
Mediter ran
men ted</w>
Sen ate</w>
ning ali</w>
nakar ating</w>
tab ung</w>
[...]
