#version: 0.2
e n</w>
e r
e n
e s</w>
c h
t i
e r</w>
u n
i n
a n
o n
d e</w>
i s
o n</w>
e s
d i
e i
o u
t r
o r
a u
l e</w>
l i
a r
e l
q u
d er</w>
p r
e m
e t</w>
a ti
t e</w>
a l
u r
s i
e in
d es</w>
l a</w>
en t</w>
c h</w>
o m
s t
di e</w>
l es</w>
un d</w>
a t
un g</w>
a i
e u
d en</w>
i t
i e</w>
r e</w>
qu e</w>
e t
a s
a g
c on
s ch
i n</w>
t en</w>
r e
ati on</w>
a s</w>
g e
a b
r i
o l
en t
a c
a m
v er
s u
g en</w>
em ent</w>
t er
i t</w>
f ü
c e</w>
u n</w>
b e
d é
an t</w>
on s</w>
e m</w>
d u</w>
p ou
om m
h r
un e</w>
n i
an s</w>
pr o
tr e</w>
p l
f f
u s
a v
r é
d er
a p
r o
l e
ti on</w>
es t</w>
n e</w>
v on</w>
ou s</w>
p o
ch en</w>
e h
V er
w i
a r</w>
p ar
z u
f or
a u</w>
i l
pou r</w>
d ans</w>
z u</w>
o p
e l</w>
ch e</w>
s e</w>
g r
ch t</w>
fü r</w>
v o
e x
c i
f i
is t</w>
A n
eu r</w>
é t
v i
ein e</w>
m e</w>
el l
on n
w er
au f</w>
n a
é r
m it</w>
i s</w>
e ur
g en
é s</w>
ch t
S ie</w>
un g
ei n</w>
é e</w>
on t</w>
e c
un gen</w>
d u
a n</w>
s er
b er
i m
g e</w>
m o
su r</w>
d as</w>
t s</w>
si on</w>
i er
t er</w>
au x</w>
c om
t en
p or
e z</w>
p ar</w>
ag e</w>
s o
a d
I n
g es
ung s
u m
d em</w>
r es</w>
o u</w>
for m
é es</w>
p er
a l</w>
ou r
u s</w>
a t</w>
ei t</w>
el le</w>
t u
pr é
t es</w>
o der</w>
a f
au s
e b
as s
en d
n o
an d
b es
u l
i r</w>
c k
ä n
t é</w>
wer den</w>
wi r
qu i</w>
c es</w>
ati ons</w>
a h
g i
n en</w>
i m</w>
u m</w>
u t
S ch
di es
es s
B e
c omm
l o
v ous</w>
R e
as s</w>
l is
a in
ni cht</w>
ent s</w>
ei t
b er</w>
S t
d ass</w>
ati on
D ie</w>
ai re</w>
p as</w>
li e
ai t</w>
ein er</w>
b i
e c</w>
P ro
a li
A r
qu es</w>
s p
al l
v en
f a
li ch</w>
é ri
è re</w>
d ur
i g
h al
s s
is chen</w>
s in
f in
av ec</w>
is s
m en</w>
is e</w>
tr i
s pr
d en
w e
a le</w>
na ch</w>
ei ch
q u</w>
d o
ti v
w ei
E r
be i</w>
s ont</w>
ein en</w>
v or
g t</w>
u ti
c ation</w>
é c
it é</w>
i l</w>
eur s</w>
d is
wir d</w>
d e
ei l
E in
é g
o b
ein em</w>
hr en</w>
et z
sin d</w>
f r
m in
z i
is sion</w>
E n
st ell
pl us</w>
au f
ol l
c o
U n
p u
si ch</w>
em b
au s</w>
a ch
ge b
g l
g an
a k
ur e</w>
e ch
an n
ou v
D i
t ou
l an
ü ber</w>
ai s</w>
it t
A u
s i</w>
or d
A b
al s</w>
en s
t o
j e
eu x</w>
ö n
en tr
g el
ti ons</w>
par ti
ter n
s tr
zu r</w>
ê tre</w>
i r
am m
g er
i v
l u
po si
r es
omm ission</w>
s el
é m
uti lis
w ie</w>
A us
ch er
li chen</w>
b r
y st
sch af
en n
i e
au t
en s</w>
h ab
w en
é n
è s</w>
m ar
an ce</w>
L e</w>
at en</w>
k ön
h o
et te</w>
an n</w>
e ff
re c
ti m
po s
p li
G r
on s
L es</w>
is t
w ä
an s
l a
ar b
ac c
t z
L a</w>
ö r
e au</w>
p e</w>
es t
si e</w>
g em
f er
ei l</w>
c er
en d</w>
g u
i c
pro du
p eu
an d</w>
e p
o h
a y
por t
ai res</w>
l in
el les</w>
m a
V or
ét é</w>
F r
is i
ch er</w>
kön nen</w>
l ä
E ur
r ap
P ar
ti g
au ch</w>
é l
en ce</w>
m on
h er
A l
o ff
f on
pré s
el s</w>
u r</w>
i h
at s</w>
per s
k t</w>
ou r</w>
s t</w>
eur op
U ni
d a
dur ch</w>
B er
I h
o t
em p
al is
ut z
d onn
vo tre</w>
tr es</w>
re ven
com p
g n
w ur
ab le</w>
c ar
c é
ti n
le c
k eit</w>
i ch</w>
b li
na h
sel on</w>
An spr
en den</w>
r a
d es
st en</w>
i er</w>
li che</w>
s es</w>
ac t
dé c
ati v
an ts</w>
zu m</w>
ei ten</w>
s ti
ar ti
e k
in t
fü hr
n ous</w>
reven di
an der
ti onn
s ol
in e</w>
è me</w>
i cht
i li
ü r
ü n
tr ans
Eur op
h at</w>
tr a
en te</w>
ein es</w>
ge h
s ou
m er</w>
m es</w>
it s</w>
b l
in form
c u
n ung</w>
in ter
st a
r ei
in s</w>
a m</w>
ä l
d ro
s on</w>
S p
G es
hab en</w>
ü ber
on en</w>
ag en</w>
un i
t s
b is</w>
r u
m itt
M it
K on
ti er
w end
B es
a ff
m an
C h
is che</w>
eh r</w>
f ol
k ann</w>
por t</w>
D er</w>
I l</w>
u ch</w>
s yst
ü ck
an de</w>
h e</w>
b le</w>
G e
in d
É t
D as</w>
E R
europ é
g er</w>
é v
p on
tr o
En t
c or
un d
e g
en tre</w>
d ar
un ter
fa hren</w>
i re</w>
al es</w>
Uni on</w>
b ar
g lie
n et</w>
c le</w>
m ö
an t
f en</w>
al ement</w>
r it
k en</w>
l eur</w>
b u
c tion</w>
eh en</w>
c l
z eich
m et
p h
donn ées</w>
ri cht
m emb
ac e</w>
M a
o g
ation en</w>
our s</w>
li ti
com pr
ai l
wi r</w>
n eu
ap pli
d em
l en</w>
c ette</w>
li ch
at eur</w>
peu t</w>
em ents</w>
t ä
et en</w>
t ung</w>
f t</w>
o k
us s</w>
ur s</w>
li g
C ommission</w>
Au f
an ti
con tr
u e</w>
ti k
z w
z ei
D at
K ommission</w>
dies e</w>
ser vi
Mit glie
tim m
c ou
F or
dies er</w>
s é
vo r</w>
i que</w>
M ar
er n</w>
ur es</w>
m é
s at
di rec
r è
der n</w>
l or
ges ch
comm e</w>
r el
s o</w>
in g
Anspr uch</w>
P r
sch en</w>
ti fi
p f
w or
f o
w ar
vo m</w>
k omm
so ci
Z u
en en</w>
al le</w>
eh men</w>
pr i
er i
t ement</w>
T r
au tres</w>
h eit</w>
wen n</w>
er t</w>
en ne</w>
T I
f s</w>
ser v
di t</w>
con cer
ges t
m es
su p
at t
an te</w>
I ch</w>
l ung</w>
p i
c k</w>
ä r
pu bli
al en</w>
as e</w>
for der
car act
tiv e</w>
el t</w>
ti f</w>
revendi cation</w>
tr ai
eit s
de v
i ère</w>
H er
et s</w>
tou t</w>
U m
er s</w>
g ar
is tr
Ü ber
po liti
en z
t eur</w>
posi tion</w>
s ein</w>
it és</w>
s or
E n</w>
le urs</w>
d s</w>
m en
n ouv
k on
v is
wur de</w>
s oll
z eu
is se</w>
k enn
Q u
l ement</w>
is es</w>
t ant</w>
arti cle</w>
m e
stell en</w>
ai l</w>
pers onn
S u
hal ten</w>
ei ch</w>
c ations</w>
a hr
P o
ier t</w>
ss en</w>
en de</w>
e i</w>
w o
an ge
sti tu
è res</w>
Mitglie d
f ait</w>
un ter</w>
ier en</w>
n ur</w>
U N
h in
ali té</w>
ä h
pro gr
In form
ü tz
schaf t</w>
j e</w>
qu el</w>
E U</w>
su iv
g ung</w>
Ar tik
pr ès</w>
Un ter
b re</w>
cé d
si te</w>
S tr
ér is
ém ent</w>
E N
ur ch</w>
Mitglied sta
ti gen</w>
pr em
M o
gan is
ch ar
d r
m ê
un ser
in di
tr ag
t ech
i te</w>
g ab
b en</w>
h y
E s</w>
O r
c ré
Di es
er s
in g</w>
di ff
b o
l er</w>
t és</w>
Europ ä
fin an
es si
J e</w>
st än
b ei
ai ent</w>
us amm
w el
en ti
pou r
tr av
memb res</w>
ar i
ell en</w>
on e</w>
c li
t eil
C H
i ch
ier ung</w>
p ay
en e</w>
richt ung</w>
ec tion</w>
Ver fahren</w>
ci p
isi on</w>
m ati
zeich net</w>
er en</w>
I n</w>
A N
an g
S er
n er</w>
un k
aut or
wi ck
D E</w>
con s
m ais</w>
su l
pou v
ord nung</w>
b t</w>
op p
C on
k o
Ét ats</w>
n ation
caract éris
I N
ég alement</w>
E N</w>
inform ations</w>
mo y
d eu
so wie</w>
vi r
sat z</w>
en n</w>
str u
n on</w>
b il
ain si</w>
mö g
lie ß
E S</w>
o ir</w>
nah men</w>
Artik el</w>
p ass
vo ir</w>
on der
en f
ab les</w>
in s
er k
Pro du
res p
ag es</w>
t h
zw ischen</w>
V ous</w>
i es</w>
Ar b
v al
mê me</w>
on ne</w>
is on</w>
mar ch
o c
ä tz
ent es</w>
wo bei</w>
il s</w>
pl o
v ent</w>
dé r
ad urch</w>
k t
ti g</w>
t ure</w>
entr e
n om
po in
d ung</w>
an g</w>
ob j
m i
un den</w>
g én
wei ter
a i</w>
u p
k l
x i
mo ins</w>
eb en</w>
da ß</w>
s ur
be tr
s a</w>
w as</w>
s etz
con c
W enn</w>
i cht</w>
e u</w>
at eurs</w>
ativ e</w>
qu i
el n</w>
é ci
or d</w>
f ass
d adurch</w>
c ul
al y
j us
l age</w>
le quel</w>
hr er</w>
j u
ver s</w>
ö ff
t ous</w>
D aten</w>
f our
p éri
prés ent
es ti
S i</w>
an z
au t</w>
wä hr
concer n
r en
e v
geb en</w>
U E</w>
t emp
gl ement</w>
as se</w>
i en</w>
k e</w>
ac tiv
d eux</w>
sch e</w>
é lec
ge kenn
u tion</w>
f aire</w>
c as</w>
en st
sch ie
m ehr</w>
gekenn zeichnet</w>
C om
ah l</w>
ou ver
ain e</w>
ch o
op ér
in st
S i
P our</w>
O N</w>
sch n
m ü
ti onen</w>
im mer</w>
in n
ai n</w>
pro t
entre pr
h äl
s si
a que</w>
ri f
bi li
C ons
c i</w>
in tern
al t
Bes ch
sp éci
ch es</w>
ti que</w>
un s</w>
qu el
E l
C o
pay s</w>
é ch
Mitgliedsta aten</w>
M e
l ü
h and
W ir</w>
Un tern
W e
E x
gem ä
pu is</w>
Re cht
v ol
im port
S o
ar d</w>
rè glement</w>
eh t</w>
ol y
b ar</w>
it ä
el l</w>
di fi
au r
ö s
peu vent</w>
au tre</w>
s ous</w>
no ch</w>
ä u
usamm en
m ent
sch ließ
con n
ander en</w>
S yst
an tes</w>
Inform ationen</w>
v el
or ganis
u si
bes onder
vo s</w>
c ap
europé enne</w>
er g
n éc
M en
ni v
sch ei
Cons eil</w>
or s</w>
syst ème</w>
b les</w>
s ans</w>
ch ten</w>
fo is</w>
ti ge</w>
den en</w>
m at
r em
R icht
ni s</w>
al l</w>
e aux</w>
pr in
bes t
I S
re g
st o
t y
Ih re</w>
av oir</w>
am en</w>
j ou
gén ér
ain s</w>
s eu
gr ou
G em
produ its</w>
i el
ol og
an k
W eb
o s</w>
we ise</w>
d am
etz t</w>
no tre</w>
si cher
M on
do it</w>
end re</w>
Europä ischen</w>
stell ung</w>
k eine</w>
il le</w>
d et</w>
ag rap
wend ung</w>
eur e</w>
céd é</w>
v e</w>
fi g
c ad
T E
am me</w>
ß nahmen</w>
pos si
pr es
fa hr
ch te</w>
c ri
f e</w>
m it
C omm
gemä ß</w>
par agrap
b ase</w>
N ous</w>
dies em</w>
mü ssen</w>
w ar</w>
k te</w>
eh m
o r</w>
for me</w>
P l
bi en</w>
is te</w>
b ind
stän di
R O
k r
D ans</w>
W ir
ei te</w>
gest ell
B eh
éc ur
ét ab
ä f
con om
C O
parti e</w>
E S
ah l
b e</w>
komm en</w>
f est
servi ces</w>
end ant</w>
dé vel
st ütz
con si
dis posi
mé di
fon c
ü che</w>
L e
g ro
l am
ab er</w>
no t
A R
gen den</w>
f u
bes ch
C E</w>
diff ér
tr ä
ih re</w>
o ù</w>
mo difi
l ar
f ér
l ég
tä t</w>
e ti
dével opp
c el
R o
s écur
y n
Ges ch
ab ili
é li
é conom
wir k
an ces</w>
intern ation
pl ac
K o
G er
c ol
m ise</w>
a te</w>
su b
il li
or i
A k
bes timm
contr ô
a près</w>
J ah
ti fs</w>
t el</w>
d a</w>
U R</w>
pouv ez</w>
c our
z o
z wei
Ver ordnung</w>
t schaf
con t
s an
F in
paragrap he</w>
K r
ré gi
temp s</w>
aus si</w>
ap par
wur den</w>
su s</w>
cer t
führ t</w>
tra g</w>
qu elle</w>
aus ge
ch am
A p
et er</w>
a b</w>
s e
nah me</w>
ap p
dé p
st at
v re</w>
arb eit
om ati
l s</w>
parti cu
wä h
m ét
B r
mes ures</w>
dro it</w>
hal b</w>
niv eau</w>
or t</w>
tech n
j our</w>
M itt
m ent</w>
In tern
caractéris é</w>
ain es</w>
con di
h ö
tri bu
ol o
in i
poin t</w>
D is
en vir
t e
Dies e</w>
so it</w>
ter min
s er</w>
F ü
lin ie</w>
par t
ass en</w>
ß en</w>
er ung</w>
ell ement</w>
c ep
d om
pro cé
D e
ré s
u i</w>
fig ur
le ist
c r
si tu
m uss</w>
Gr und
par t</w>
tr ouv
k eiten</w>
t u</w>
ge w
af in</w>
at es</w>
Si cher
n or
march é</w>
pr im
éri eur</w>
sécur ité</w>
ess en</w>
sul t
ei gn
comp te</w>
si g
amm ent</w>
ein s
l l
utilis ation</w>
Ar t</w>
rap port</w>
k e
es p
lan d</w>
ent spr
l on
dé fin
d ou
qu ement</w>
di te</w>
r ess
cad re</w>
ü h
t ur
z us
r ement</w>
B il
in v
ex i
do ch</w>
com pl
d ing
N o
con form
b en
i de</w>
v er</w>
E R</w>
h än
j ours</w>
revendi cations</w>
R ah
m p
G eb
na ch
dies es</w>
Untern ehmen</w>
dev r
av ant</w>
r ou
gi bt</w>
ar r
s ec
Dat en
l än
öff ent
ti on
per met
dur ch
B o
n at
ß e</w>
et t
con ten
ä ch
a î
néc ess
a si
ü f
con tre</w>
d ont</w>
b an
pro f
Z usammen
dem ande</w>
ei en</w>
particu li
ac tion</w>
wi e
ap pro
Ent wick
d ent</w>
j et</w>
ch aque</w>
z ur
L u
tou tes</w>
d re</w>
D ur
b in
s que</w>
s a
fi ch
ver sion</w>
m an</w>
europé en</w>
dé t
prés ente</w>
sch l
ét ait</w>
B en
V i
no s</w>
en ces</w>
Ma ßnahmen</w>
ord in
Pro cédé</w>
ß er
tr u
l es
is ch</w>
déc ision</w>
a ch</w>
der ung</w>
il l
gan g</w>
mati ère</w>
K om
gestell t</w>
è mes</w>
si ons</w>
Anspr üche</w>
appli cation</w>
es se</w>
we is
v ue</w>
vo y
s en
h il
trav ail</w>
ti ques</w>
er n
z en</w>
ation s
prin cip
f t
procé dur
p s</w>
olo gi
I m</w>
eff ec
g s
all s</w>
besonder e</w>
t eurs</w>
fin den</w>
reg istr
A d
E m
f ac
lig ne</w>
min istr
ge gen</w>
ok ies</w>
i ge</w>
O R
f ai
B ei
i ques</w>
ativ es</w>
pr iv
w oh
ten s</w>
emb le</w>
av ez</w>
man ière</w>
en ten</w>
e zi
G en
la dite</w>
Ab satz</w>
um ent</w>
er r
tou te</w>
ass ur
we i</w>
am e</w>
ver s
In ter
r et
c ours</w>
Ét at</w>
Richt linie</w>
s ch</w>
ver fü
M i
Ih nen</w>
en g
A L
U ne</w>
c ro
t él
häl t</w>
ck en</w>
L i
N r</w>
N utz
direc tive</w>
U n</w>
I I</w>
trai tement</w>
no v
é qui
qu es
E G</w>
A m
tr ès</w>
T o
bes ser
sch rif
i gen</w>
in f
au m</w>
e te</w>
qu er</w>
four n
f ace</w>
comm un
re cht
Dur ch
li cher</w>
gel e
soll te</w>
an aly
re qu
i hrer</w>
tr on
ei ts</w>
w ür
E in</w>
servi ce</w>
S I
to r</w>
Arb eits
um fass
f il
l ei
ai de</w>
a d</w>
abili té</w>
N ach
W ar
ti ons
C e</w>
spéci fi
Gem ein
gen en</w>
t et</w>
por te</w>
b ou
grou pe</w>
O N
eu er
am p
ä hr
s te</w>
lich keit</w>
fonc tionn
en z</w>
la quelle</w>
P ers
ag n
ander e</w>
m al</w>
em ent
H and
ver wend
wen den</w>
aut omati
k om
resp ec
re z</w>
si gn
i den
T h
lie u</w>
R A
gen ann
ê t</w>
mitt el</w>
er e</w>
y l
iss ance</w>
m et</w>
der ni
pro c
z e</w>
er ci
is ten</w>
h ang</w>
prot ection</w>
Ver bind
iv ent</w>
di g
z wei</w>
Pro gr
mo d
m is</w>
bili té</w>
m ul
t on</w>
er sten</w>
condi tions</w>
r is
it t</w>
ti gt</w>
z eit</w>
pon i
jus qu</w>
con stitu
obj ec
A c
gar anti
concern ant</w>
d ann</w>
x im
o b</w>
po se</w>
ec k
onn ement</w>
consi dér
O p
an c
int ér
ex emp
al u
L E
as si
v oll
mes ure</w>
is ation</w>
n um
gab en</w>
pro bl
B u
personn es</w>
oh ne</w>
dam it</w>
all en</w>
moy en</w>
bes o
Rah men</w>
up pe</w>
P er
R I
d on
ei chen</w>
Recht s
as ch
ten ir</w>
ac tu
dro its</w>
qu o
A ut
pl at
finan ci
b ri
fü hren</w>
p es</w>
wi ch
M it</w>
Re g
lor s</w>
f l
re cher
ré du
H ot
hab e</w>
le dit</w>
développ ement</w>
U r
as t</w>
dies en</w>
U S
le z</w>
parti r</w>
s ehr</w>
prem ier</w>
do ivent</w>
dis poni
f in</w>
gl eich
ge f
prem ière</w>
gu e</w>
progr amme</w>
I m
sé lec
ag er</w>
z el
pres sion</w>
lu i</w>
v ie</w>
iss en</w>
M an
pl usi
ein fa
W in
plusi eurs</w>
or en</w>
ad ministr
tri eb
ac k
con na
R E
s en</w>
er forder
ab ri
fi x
st off
h ar
tr agen</w>
a z
i d
com pos
l assen</w>
a st
M et
not amment</w>
me hr
Ä n
R é
L A
inst all
produ it</w>
p ul
Fin anz
acc ès</w>
bi et
T ou
politi que</w>
ê te</w>
C ette</w>
u le</w>
p eti
l t</w>
c lu
ser a</w>
c et</w>
ih r</w>
o de</w>
possi ble</w>
éri eure</w>
a g</w>
dé termin
di es</w>
M in
Tr ans
au c
ex éc
stell t</w>
res se</w>
en registr
acc ord</w>
de puis</w>
ä m
do c
ins besondere</w>
re m</w>
qu alité</w>
nom bre</w>
Ser vi
ap h
un kt</w>
j ur
je doch</w>
em plo
F ahr
G l
cor e</w>
val eur</w>
ep t
f é
ré alis
des tin
lo c
v eil
St and
na l</w>
h ier</w>
ter n</w>
lis s
H in
we ist</w>
Ih r</w>
ré pon
in gen</w>
ex e</w>
C E
tier en</w>
le v
Ein e</w>
pl an</w>
h eits
Un d</w>
c it
soll ten</w>
omm en</w>
ge gen
Par lam
s eine</w>
j our
tech ni
t o</w>
schrif ten</w>
er te</w>
t ent</w>
è ne</w>
stru c
ex tr
L än
S it
gen de</w>
Z w
führ ung</w>
F lu
H o
Ver sion</w>
vi ent</w>
Par t
K in
an des</w>
ak ti
W ei
P O
t sch
ver schie
pour r
es s</w>
erg ie</w>
ol le</w>
év alu
gab e</w>
d re
olog ie</w>
be wer
entrepr ises</w>
ag ne</w>
c al
k un
ty pe</w>
der t</w>
währ end</w>
m ain
str at
eff ic
br au
am éli
contrô le</w>
pri x</w>
UN G</w>
améli or
O b
tu r</w>
st er</w>
effec tu
Al l
an der</w>
p er</w>
au p
m al
i di
M ö
ab or
utilis er</w>
memb re</w>
Ben utz
D es
itä t</w>
t lichen</w>
tier s</w>
conform ément</w>
St a
neu e</w>
es en</w>
D u</w>
ri v
h en</w>
w s</w>
h in</w>
TI ON</w>
Z eit</w>
f lä
emb re</w>
m ir</w>
em e</w>
ut z</w>
Jah r</w>
ding ungen</w>
tig ung</w>
ens emble</w>
x y
e d
Ent schei
én é
m er
no m</w>
ad op
em ber</w>
f lu
u es</w>
gr und</w>
en core</w>
m a</w>
Ber eich</w>
mon de</w>
p en</w>
f f</w>
comm uni
con que</w>
a x
dé f
sé qu
mitt el
E t</w>
prés ent</w>
comp ét
mat éri
m ä
ay ant</w>
m eil
is ch
entspr ech
er h
ier s</w>
gr ö
um ents</w>
au en</w>
st and</w>
at ten
is cher</w>
lä r
S tu
an ge</w>
o l</w>
exemp le</w>
ven tion</w>
comm ande</w>
resp ons
M at
i g</w>
i el</w>
n isse</w>
c er</w>
W ie</w>
G el
con fi
w ach
l etz
verwend et</w>
L I
con tin
se con
ei le</w>
er a</w>
ier ten</w>
ci r
a hren</w>
ein ig
at o
E r</w>
Intern et</w>
w al
a che</w>
wir tschaf
quel conque</w>
m ich</w>
m ess
ech n
o s
st and
schaf ten</w>
unser e</w>
as ser
ges tion</w>
schließ lich</w>
met tre</w>
p endant</w>
ic i</w>
lor sque</w>
ém ents</w>
al o
su ite</w>
K ar
ri r</w>
f le
ind us
produ ction</w>
is l
c at
ge führt</w>
g lich</w>
Di enst
h é
opér ation</w>
ét ant</w>
h ô
F unk
rè g
ri g
k ann
Fü r</w>
der en</w>
t eil</w>
s al
T eil</w>
por ts</w>
Par lement</w>
ant wor
h um
si cht
fér ence</w>
el ek
sp ezi
er gi
n o</w>
europ ä
don c</w>
kön n
D r
ou tre</w>
li cht</w>
ob lig
f ör
le gen</w>
en ant</w>
compr end</w>
ç on</w>
h ör
Be i</w>
K l
re présent
t ex
zu g</w>
E T</w>
ré gl
pro pr
ati f</w>
neu en</w>
qu é</w>
Entwick lung</w>
ß t</w>
inn er
él ément</w>
ac ité</w>
ém ent
ge l</w>
d av
pl ace</w>
V ER
ver b
bei m</w>
au g
enn ent</w>
Pro z
entrepr ise</w>
n ehmen</w>
S T
tél é
setz ung</w>
pr endre</w>
er halten</w>
v u</w>
unter stütz
i res</w>
z ahl</w>
st en
ac t</w>
con du
M A
B i
ét u
ré e</w>
si ch
F ol
ic ro
p oly
K li
geh en</w>
li cht
Beh ör
g ri
D e</w>
Ver wendung</w>
L in
char ge</w>
sol ution</w>
ag ement</w>
g es</w>
R ück
é gr
él éments</w>
mä ß
lis te</w>
z entr
ä t
procédur e</w>
t ak
P RO
gr aph
ho de</w>
ü l
An wendung</w>
ini ti
U R
it te</w>
v isi
lo b
s einer</w>
tr ie</w>
ra ison</w>
co û
woh l</w>
st ehen</w>
S e
am m</w>
s k
i ci
qu ez</w>
h er</w>
gen ommen</w>
m om
è rement</w>
d g
n av
des tens</w>
D o
gr enz
al li
eff et</w>
A B
be zo
in stitu
b éné
s on
l agen</w>
Europ e</w>
t lich</w>
Web site</w>
to t
Produ k
forder ungen</w>
ar g
ré sult
eu se</w>
inv esti
gele gt</w>
b et
ru ck
concer ne</w>
av ons</w>
G o
b res</w>
ung s</w>
is pi
ma chen</w>
f äl
ar t</w>
ges am
fr ei
l au
moy ens</w>
c y
f abri
ati que</w>
min destens</w>
v é
eit ung</w>
T eil
geb o
ch ez</w>
f eh
parti cip
as soci
L eb
P h
nouv eau</w>
per met</w>
péri ode</w>
équi p
parti es</w>
ali tät</w>
arb eiten</w>
ê tes</w>
c an
ier ungs
is er</w>
El le</w>
Pro je
e le</w>
an k</w>
z one</w>
pré c
n u
int égr
progr amm
genann ten</w>
el s
S h
cons omm
t ée</w>
trav ail
ier te</w>
autor ités</w>
Bes timm
rés eau</w>
h omm
zei gt</w>
Men schen</w>
activ ités</w>
a jou
béné fi
form ation</w>
quo i</w>
L ös
étab liss
si cht</w>
V ol
eu te</w>
a cht
P ar</w>
ent wick
ie le</w>
es sus</w>
m el
nécess aire</w>
Syst em</w>
pro pri
p ai
k auf
recher che</w>
D I
Pr ä
œ u
st är
gem eins
tier t</w>
a cht</w>
m illi
ri e
biet et</w>
au se</w>
res pon
v a</w>
ex plo
Pro bl
Win do
ar d
unser er</w>
ré si
cri p
H aus
ig er</w>
eu ses</w>
ac tions</w>
war e</w>
i ff
hän gi
sto ck
m ach
ke hr
obj et</w>
d ec
t ab
j à</w>
posi tif</w>
W er
B est
K omm
pr ü
er fol
wel che</w>
u t</w>
al er</w>
p a
us s
T u</w>
h at
proc essus</w>
lie gt</w>
ber eits</w>
pl an
ali ment
W as</w>
compr is</w>
S eite</w>
Windo ws</w>
our ces</w>
ges etzt</w>
Mö g
arb eit</w>
We b</w>
eur es</w>
g keit</w>
pers onne</w>
dé jà</w>
ti en</w>
pr om
v ou
V o
am è
or ig
betr eff
ter r
h eiten</w>
i le</w>
in es</w>
i zi
au v
r än
t els</w>
n ungs
i d</w>
all er</w>
w eit</w>
disposi tions</w>
fa çon</w>
Ver fü
ma xim
p ho
hal t</w>
h ai
a de</w>
bar en</w>
t ez</w>
compr enant</w>
ah er</w>
ti ent</w>
fon ction</w>
B el
Z eit
w es
ent hält</w>
zu stellen</w>
S E
zei gen</w>
I hrer</w>
suiv ant</w>
Ger ä
ge währ
ie der
jur idi
rei b
dom aine</w>
cor respon
nom br
i ent</w>
g s</w>
ex t
ad ap
ten ant</w>
R ates</w>
af t
lin e</w>
élec tri
c entr
am ili
déc lar
c s</w>
O n</w>
it er</w>
m m</w>
n utz
L o
M I
ü ck</w>
p en
fich ier</w>
p unkt</w>
ç a</w>
U m</w>
b st</w>
li v
t liche</w>
i hren</w>
wi l
dar auf</w>
cel a</w>
D ar
ai r</w>
cho is
J ahren</w>
on t
ver si
G ar
iden tifi
A v
f äh
C ar
fé dér
r ent</w>
dé e</w>
tr an
s y
v ari
C es</w>
tig keit</w>
n t</w>
c ement</w>
is c
J e
inform ation</w>
K at
prof essi
c ell
col lec
weis en</w>
Ser ver</w>
su ff
Re gel
disposi tif</w>
gr ande</w>
ex péri
xi ème</w>
ré s</w>
inner halb</w>
for t</w>
ö l
er rei
c arb
sou hai
r a</w>
m on</w>
op tim
économ ique</w>
tou jours</w>
N or
fi cation</w>
auf weist</w>
ber eich</w>
lég isl
h an
ra di
Kon tr
is si
er ten</w>
an gem
l ag
è le</w>
bi eten</w>
s ehen</w>
sélec tionn
Hot el</w>
E UR</w>
so zi
s omm
a y</w>
oll en</w>
so li
é lev
K ap
nouv elle</w>
Sch wei
der ungen</w>
ass ung</w>
k ün
P or
Verbind ung</w>
da zu</w>
investi ss
Sch rit
et tes</w>
sup pl
zur ück
ét ap
da te</w>
pr ä
di re
si m
F all</w>
con séqu
b z
F A
st eh
gr ei
particuli er</w>
t ées</w>
devr ait</w>
er mög
li mit
c am
F lü
S pr
Gesch äf
sol l</w>
f av
K un
ré serv
ver fahren</w>
bl ei
pf licht
trä ge</w>
ätz e</w>
Dis positif</w>
soci été</w>
vi er</w>
br ingen</w>
c les</w>
am in
pro jet</w>
Vor sch
lo gi
W oh
C A
d at
z ü
utilis ateur</w>
M ais</w>
ouver n
syst èmes</w>
T E</w>
ak tu
mo i</w>
h ic
arbeit ung</w>
mom ent</w>
an is
A t
schn itt</w>
comm erci
tro is</w>
D es</w>
D u
wor den</w>
c ô
f em
av ait</w>
p ati
R ei
alis ation</w>
j o
d ür
geh t</w>
su chen</w>
ti tre</w>
at u
b el
Aus sch
beso in</w>
ig n
Pr üf
N etz
Me di
bz w</w>
l ungen</w>
en k
For m
leist ungen</w>
F eh
s avoir</w>
E I
wel t
di ts</w>
st ar
é ti
I hren</w>
tin g</w>
Vor richtung</w>
s em
b ur
ri ch
su is</w>
H il
la g</w>
enf alls</w>
int érieur</w>
B l
ei gen
l ungs
fol genden</w>
af t</w>
h ei
ger ä
an im
B un
g ement</w>
w alt
p age</w>
mög lich</w>
é ro
au té</w>
sec teur</w>
j ets</w>
pr ise</w>
av is</w>
e d</w>
am men</w>
O ff
e f
St euer
ques tion</w>
ver wenden</w>
règ les</w>
E M
Flu g
a ison</w>
ges ehen</w>
four ni
N ach</w>
Er geb
étab li
ou ti
E W
m m
zi eh
zwei ten</w>
g än
i x</w>
is ant</w>
vé hic
E i
en c
Re gi
G u
In v
publi que</w>
is ons</w>
el d</w>
ti sche</w>
g ouvern
ob en</w>
seu lement</w>
tiv es</w>
Le ist
Ver trag
iss ant</w>
Unter stütz
enn es</w>
â ce</w>
ch r
an zu
Wir tschaf
om e</w>
ali en</w>
lan g</w>
cli ents</w>
kun ft</w>
di ch</w>
dis pos
ven ir</w>
L or
ab hängi
D eu
ers te</w>
best eht</w>
c ar</w>
commun aut
off re</w>
Or ganis
ih n</w>
cert ains</w>
deu xième</w>
Re cht</w>
Co okies</w>
aug ment
t or
fi l</w>
ann exe</w>
T ab
ti tu
C li
pro pos
re gel
ti schen</w>
on en
pré par
at s
tr eten</w>
J u
l er
ti e</w>
st eht</w>
lä u
kt ur
mo is</w>
Jah re</w>
ail s</w>
as tru
flä che</w>
or gan
F est
envir onnement</w>
fr astru
al k
L E</w>
ig keit</w>
cou p</w>
ann ée</w>
y le</w>
y l</w>
d an
geh ör
c eux</w>
hal ts
pré céd
é di
T y
ver sch
ück sich
E t
s ei</w>
gu eur</w>
en der</w>
s se</w>
ren for
et w
D ok
Zw ec
fon ds</w>
pi è
é qu
par ten
h ol
gesch lo
in a</w>
zu ständi
situ ation</w>
cel ui</w>
ét at</w>
ac k</w>
con tribu
in ten
dre i</w>
conn ec
Ih rem</w>
san té</w>
én ergie</w>
k ten</w>
ét és</w>
Mat eri
at ure</w>
uti ons</w>
je wei
F il
o eu
war en</w>
Di es</w>
B et
T e
H aup
ad t</w>
s yn
V I
Entschei dung</w>
R at</w>
Sp eich
n es</w>
St ell
bu dg
im p
b in</w>
ali tés</w>
att ein
P oly
r eich
ati ques</w>
h i
di r</w>
us ses</w>
ett bewer
vi du
E T
m us</w>
E b
gl eich</w>
fin det</w>
f unk
v ille</w>
z ahl
K enn
au ßer
in str
n ég
M icro
co okies</w>
enf ants</w>
ten u</w>
O n
Leb ens
Pers onen</w>
ein schließlich</w>
ass er</w>
n er
In st
c elle</w>
ab ei</w>
our ce</w>
P re
fin s</w>
entr ée</w>
gr ün
J ahr
k ur
S in
S ti
Em pf
Bun des
Re ch
Zusammen arbeit</w>
grö ß
ser ont</w>
N e
s eite</w>
W or
ér er</w>
Europä ische</w>
f es
den ti
qu anti
fer n</w>
K unden</w>
éri que</w>
P f
in nen</w>
iss ent</w>
suppl ément
gr atu
ent fer
E U
m i</w>
évalu ation</w>
S el
m ission</w>
p ens
ger n</w>
bu t</w>
B ar
m or
ber eit
R isi
Gr uppe</w>
lich keiten</w>
sur face</w>
T echn
Ch ar
Mitt el</w>
ein ge
o k</w>
En de</w>
gen ce</w>
H ö
Au f</w>
sig nal</w>
min u
H R
zus ätz
ach ten</w>
bar e</w>
f er</w>
N eu
ô t</w>
Ge gen
l auf
W elt</w>
den ce</w>
l and
T ri
g lob
utilis ateurs</w>
œu vre</w>
W i
ann ées</w>
A S
K re
Be zug</w>
professi onn
A u</w>
dar f</w>
Wei ter
so ft</w>
R es
so ient</w>
assur er</w>
En ergi
con stru
Produ kte</w>
si tes</w>
mo du
u les</w>
exéc ution</w>
I t
Com pu
r an</w>
Ei gen
F re
sch utz
re v
wer t</w>
Sicher heit</w>
z immer</w>
B ür
personn el</w>
por ter</w>
L ie
Verfü gung</w>
i ds</w>
weiter e</w>
wie der</w>
ê ts</w>
c in
ess enti
ph y
l um
ju di
t ures</w>
gu t</w>
m us
mo der
le k
T ag</w>
con vient</w>
au m
z iert</w>
c oll
autor is
sel bst</w>
forder t</w>
erforder lich</w>
Wir k
ein zel
communi cation</w>
on es</w>
l ös
Ko sten</w>
vi ele</w>
Kon tak
Per son</w>
A T
co de</w>
ré es</w>
k li
son dern</w>
An hang</w>
Unterstütz ung</w>
or ie</w>
indi vidu
explo it
einfa ch</w>
Mo d
cu p
rif f</w>
g et
di re</w>
co opération</w>
mul ti
k m</w>
t es
é gi
f act
wür de</w>
S y
fich iers</w>
ge wi
o xy
O ber
ad resse</w>
h t</w>
gen d
w and
ch au
au te</w>
F l
s ens</w>
in nov
logi ci
Er zeu
rel ev
ag t</w>
b al
con figur
ur r
lie gen</w>
el en</w>
el li
c op
g ungs
ad e
s eit</w>
I ls</w>
k an
g a
Micro soft</w>
ru ck</w>
E L
v éri
nouv elles</w>
conn exi
cep tion</w>
li gn
mitt eln</w>
h af
L iste</w>
n i</w>
ô le</w>
aff en</w>
gen ces</w>
I P</w>
UN D</w>
verfü g
qu ant</w>
car te</w>
Ges am
ehm ig
Europ a</w>
in dem</w>
f re
gr and</w>
H y
dav on</w>
objec tifs</w>
lo s</w>
Gr ün
oeu vre</w>
at ur</w>
lan ge</w>
Be wer
im m
it z
t our
C or
d ant</w>
cré er</w>
cor ps</w>
Ges und
po ten
u el</w>
syst em</w>
C el
og le</w>
résult ats</w>
wä r
itä ten</w>
ger icht
da für</w>
ein bar
politi ques</w>
Behör den</w>
Sch utz</w>
hy dro
h e
port ant</w>
ver ti
ch st
différ ents</w>
D é
en nen</w>
ati sti
al ors</w>
Go ogle</w>
trans port</w>
iss ez</w>
et was</w>
pou voir</w>
w o</w>
z un
F on
t able</w>
ges etz
S k
t aux</w>
P u
An aly
sp ec
l à</w>
s qu</w>
all gem
F o
For m</w>
Al le</w>
li gen</w>
W el
ar ri
An t
p an
sub st
wäh len</w>
ein richtung</w>
rel atives</w>
S TE
p ap
ar m
k tur</w>
re comm
je un
p eu</w>
ordin ateur</w>
Gemein schaft</w>
es sion</w>
b as
analy se</w>
ver besser
sch ein
sto ff</w>
Sch l
Sicher heits
nation alen</w>
So ft
j etzt</w>
Dr itt
ré g
hr es</w>
sta at
i a</w>
wirk ungen</w>
c a
gu li
Besch l
sp h
vor her
ail le</w>
wie der
L and
I s
t elle</w>
t a</w>
bénéfi ci
plac ement</w>
A U
Zusammen hang</w>
su ch
appli c
d au
l et
cham bre</w>
n ei
k a</w>
conten u</w>
par amè
entr aî
schaf ts
aus zu
poin ts</w>
U ti
ress ources</w>
activ ité</w>
Dat ei</w>
lon g</w>
nécess aires</w>
sig ni
au coup</w>
Comm un
po pul
umfass t</w>
W asser
min im
li eb
je der</w>
stell er</w>
co m</w>
P ri
a di
k ein</w>
dép end
ativ en</w>
élec tron
un tern
europä ischen</w>
expéri ence</w>
Vi de
z ep
res t
betr off
S CH
an e</w>
appro pri
A ber</w>
Fahr zeu
mon di
R u
ris que</w>
g riff</w>
onen bezo
C hr
tig er</w>
pr üf
verschie denen</w>
si dent</w>
Ver k
ul aire</w>
tri e
les qu
lä ssi
k er</w>
g il
sur veil
Fr ei
ist ance</w>
j am
uni que</w>
ein ander</w>
öffent lichen</w>
b lo
ih m</w>
utilis é</w>
i tion</w>
we gen</w>
M ail</w>
is ter</w>
em s</w>
de fin
richt ungen</w>
A M
mö chten</w>
ar e</w>
hal ten
Z iel</w>
hil fe</w>
c a</w>
W ettbewer
produ c
F arb
b onne</w>
schl uss</w>
ent schei
G eh
un de</w>
tro du
ni cht
s einen</w>
lan ce</w>
t ation</w>
hand elt</w>
n ungen</w>
Nutz ung</w>
ih nen</w>
h r</w>
st u
B ro
régl ement
cert aines</w>
é tique</w>
dr ück
al ten</w>
nav ig
eh mer</w>
be hör
G ro
icht s</w>
ausge wäh
G i
e chen</w>
wei ter</w>
it u
bli ck</w>
For sch
pr is</w>
at or</w>
em en</w>
techni ques</w>
N amen</w>
qu ali
pro position</w>
d essen</w>
d aher</w>
h el
pers onenbezo
A C
auf grund</w>
t schaft</w>
t nis</w>
Po si
ar ds</w>
Z ei
to ire</w>
ati fs</w>
ar ch
du dit</w>
Ver tr
arti cles</w>
fer t</w>
gr und
b on</w>
an z</w>
coû ts</w>
è te</w>
pro jets</w>
esp ace</w>
Me hr
po ids</w>
publi c</w>
hat te</w>
Uti lis
Bestimm ungen</w>
A ss
ä d
exi gences</w>
nation ale</w>
up pen</w>
politi k</w>
nouv eaux</w>
ko sten
ré férence</w>
W o
z usammen
vi el</w>
W ert</w>
ä us
S o</w>
d ess
ti r
F ör
vor richtung</w>
v it
sup port</w>
A P
be deu
homm e</w>
il les</w>
sch on</w>
d el
k onn
F amili
d ungs
Be dingungen</w>
Be trieb
Ber icht</w>
d i</w>
Her stellung</w>
sen si
in trodu
Servi ce</w>
er fü
gr uppe</w>
Grund lage</w>
Haup t
al les</w>
c ité</w>
objec tif</w>
teil ung</w>
ent halten</w>
Beh and
ch en
an ci
F I
auc une</w>
établiss ement</w>
ch em
An forderungen</w>
cor rec
précéd entes</w>
ç u</w>
b at
i ce</w>
D ES</w>
it es</w>
voll ständi
ques tions</w>
f am
stell ungen</w>
ei lig
cer tifi
te fois</w>
S A</w>
bi le</w>
disponi bles</w>
fi er</w>
indus trie</w>
serv eur</w>
ri er</w>
We ise</w>
C l
t her
ver k
ell schaft</w>
L age</w>
e y</w>
m u
z er
ex ist
dem and
k s</w>
h ui</w>
be aucoup</w>
Zu gang</w>
be kann
ich te</w>
ein ige</w>
ord net</w>
nat ur
auc un</w>
M E</w>
könn te</w>
vor schriften</w>
wei l</w>
connexi on</w>
Geschäf ts
etz ung</w>
auf ge
direc tement</w>
ge eign
S ol
T ä
etw a</w>
pré ci
Z us
envir on</w>
jour d</w>
at z</w>
n ehm
in t</w>
Comm ent</w>
import ant</w>
ver tr
eil s</w>
ag ri
amélior er</w>
bestimm ten</w>
k ar
Mög lichkeit</w>
M EN
hin zu
ég ie</w>
régi on</w>
den e</w>
is ter
Ö ff
unter schie
fol gende</w>
fourni r</w>
for m</w>
Geb i
ob tenir</w>
quel ques</w>
ag e
qu ée</w>
ér ation</w>
s û
re ch
fr age</w>
lin ien</w>
a den</w>
or e</w>
zi ehen</w>
fle xi
différ entes</w>
A g
programm es</w>
ci pe</w>
dur ée</w>
Er wä
kün f
D a</w>
ens eign
Be ispi
le isten</w>
is ten
E IN
ob serv
h en
ell er</w>
st er
wei s</w>
gan z</w>
äh len</w>
p le</w>
tex te</w>
akti vi
än dern</w>
per form
Su isse</w>
emplo i</w>
a tri
den n</w>
tra di
suff is
acc ord
ouv rir</w>
gil t</w>
e x</w>
pr o</w>
arb ei
Dienst leistungen</w>
er zeu
än dert</w>
is en</w>
W ieder
f ie</w>
s ho
s ection</w>
ah r</w>
b au</w>
d aten</w>
t ungs
Su b
S ek
c rit
iss ement</w>
qu and</w>
enz en</w>
gr âce</w>
setz en</w>
gri ff
g é
f en
al t</w>
L and</w>
an ten</w>
internation ale</w>
as p
An wend
geschlo ssen</w>
mon tant</w>
ff t</w>
posi tions</w>
emb l
si cher</w>
su c
ei cht</w>
geh enden</w>
caract ère</w>
o f</w>
C O</w>
Eb ene</w>
o y
wen di
conc urr
im age</w>
hal tung</w>
s alle</w>
re li
Netz wer
Sp iel
sicht lich</w>
li n</w>
k o</w>
orig ine</w>
gegen über</w>
Sch ul
ap pr
lü ss
bei den</w>
wes ent
G E</w>
R i
Dies es</w>
pourr ait</w>
erk lär
teil en</w>
prü fen</w>
fonctionn ement</w>
en voy
d abei</w>
m ises</w>
sat z
lie genden</w>
gan gs
z ieren</w>
probl èmes</w>
v ision</w>
Fr age</w>
Parlam ents</w>
fü gen</w>
h u
Er fahr
dis position</w>
T ex
li en</w>
ge geb
K ö
S al
hy l
c entre</w>
h eute</w>
vi dé
ter rit
Vor schriften</w>
eh e</w>
Ver walt
dé b
um s</w>
uni k
gen s</w>
mod èle</w>
j a</w>
étap e</w>
ga z</w>
ex iste</w>
sup prim
propr es</w>
be dingungen</w>
is sions</w>
f an
wen iger</w>
contin u
ch ac
sch r
somm es</w>
bo î
An zahl</w>
hô tel</w>
b asi
A f
sch w
ér o</w>
ul ation</w>
Parlam ent</w>
um ente</w>
gel eg
t â
Ver brau
ver bind
un ité</w>
in o</w>
to s</w>
K op
b s
Inv esti
em per
Arb eit
M är
etz en</w>
î tre</w>
h aut</w>
Untern ehm
t un</w>
ei che</w>
s c
m eine</w>
Soft ware</w>
ent u
personn elles</w>
lich es</w>
génér al</w>
ig n</w>
ah len</w>
at ur
H ei
cou che</w>
m éc
Z ahl
ér ie</w>
f aut</w>
UN G
gu es</w>
Schwei z</w>
devr aient</w>
Po liti
w ahr
tr aum</w>
le g
vor zu
B au
h eit
d ès</w>
n et
è de</w>
C as
li c
Str at
h ät
our c
m ag
strat égie</w>
trouv er</w>
Um setzung</w>
Cel a</w>
ten den</w>
ég ard</w>
des sus</w>
it ure</w>
Lor sque</w>
P ati
B ade
ter me</w>
rel ative</w>
eff izi
fourn iss
t elles</w>
E lek
cli ent</w>
f est</w>
ati s
al tung</w>
r ôle</w>
spezi f
aff ec
meil le
d us
St adt</w>
pro z
appar eil</w>
trans par
donn é</w>
eit et</w>
ber ücksich
Dies er</w>
er ie</w>
be g
Ein zel
a chen</w>
sé par
d é</w>
probl ème</w>
Benutz er</w>
M illi
garanti r</w>
not wendi
k eits
mehr ere</w>
Wirtschaf ts
D ruck
tiv en</w>
aff ich
ré qu
Q U
cont act</w>
asch ine</w>
l at
F äl
c ause</w>
mat eri
le b
G eri
disponi ble</w>
con st
ges p
lo i</w>
v es</w>
prot ég
Z immer</w>
f li
vo ie</w>
ungs an
conc ep
tri fft</w>
nor m
komm t</w>
or ité</w>
mon t
crip tion</w>
D em
re cht</w>
v ali
ex pli
march és</w>
C our</w>
G ot
ex port
r ati
ab lement</w>
cho se</w>
J oh
ex clu
it al</w>
so wohl</w>
je de</w>
Fr agen</w>
k lär
ser ait</w>
mon tr
uni quement</w>
ac qu
unser en</w>
ber ech
v eu
val eurs</w>
autor ité</w>
st elle</w>
no tifi
f ang</w>
arbeit et</w>
milli ons</w>
Gen er
usamm ens
Haus halts
r at</w>
direc tion</w>
le gung</w>
ét aient</w>
b un
fi c
av ant
M O
gr ation</w>
Stu di
F er
t eile</w>
unterschie d
yn am
ch ang
sch lä
Ap par
cat ég
su s
P i
in gt</w>
cli quez</w>
geb il
techn ologi
nat ür
best eh
ah n
bestimm te</w>
zus ammen</w>
pl u
si mp
ten sion</w>
L eben</w>
ban k</w>
co le</w>
je u</w>
ir s</w>
trai té</w>
Aus wirkungen</w>
or is
ag it</w>
Lie fer
Ob je
geb ra
N um
em ente</w>
lan g
beso ins</w>
Ver pflicht
us t</w>
re f
dé ci
t t
sp ek
I D</w>
P C</w>
sp eich
tou r</w>
c tions</w>
T V</w>
gr av
intér êt</w>
soll en</w>
ent er</w>
Mitgliedsta at</w>
temp ér
considér ant</w>
Di ens
T i
er hö
Gesam t
K an
c elles</w>
li m
pro cédé</w>
h ist
dis t
p ê
install ation</w>
s am
comm ent</w>
ph one</w>
ter s</w>
trie b</w>
conc lu
grou pes</w>
mo de</w>
com par
fédér al</w>
cap acité</w>
hin aus</w>
permet tant</w>
f réqu
Arb eit</w>
L ei
procédur es</w>
gebra cht</w>
Av ec</w>
H ar
ac le</w>
T er
la i</w>
recomm and
ge geben</w>
Ak tiv
Lu ft
M al
suiv antes</w>
peti t</w>
P al
permet tre</w>
t an
Schrit t</w>
verb unden</w>
we der</w>
n ehmer</w>
con serv
un i</w>
nutz en</w>
trouv e</w>
zwei te</w>
vi ol
dire kt</w>
iss en
char g
h aute</w>
unterstütz t</w>
re chte</w>
lä ss
ei genen</w>
T ro
cham bres</w>
Beispi el</w>
CO M
prin cipe</w>
V iel
der zeit</w>
to k
organis ation</w>
De z
f eu
Or t</w>
zü glich</w>
doc uments</w>
sch er</w>
at er</w>
z ierung</w>
rei s</w>
ma ison</w>
Mar kt
modifi er</w>
tig ungs
con sult
cô té</w>
st atisti
Z entr
ein zu
communaut aire</w>
Sch n
jam ais</w>
con tient</w>
li qui
h ast</w>
FA HR
ent ation</w>
A s
l é</w>
D ER</w>
K or
lor squ</w>
po ss
o ire</w>
gen d</w>
ét aire</w>
ri en</w>
m ère</w>
Deu tsch
ch ev
éc ran</w>
Än derung</w>
W asser</w>
ord onn
s agen</w>
h eures</w>
phy si
Kö ni
In di
hal te</w>
finan cement</w>
All em
cro issance</w>
i dé
arr êt</w>
tr ei
en er</w>
U S</w>
d ungen</w>
S or
nation al</w>
pl as
qu ent</w>
Fr ance</w>
W erk
ör per
Ab schnitt</w>
enregistr ement</w>
en qu
Kin der</w>
si è
Aus w
F i
Sch w
seu l</w>
pré v
on c
doc ument</w>
mi eux</w>
ap pu
nombr eux</w>
sol utions</w>
z ung</w>
form es</w>
possi bilité</w>
respec t</w>
aur ait</w>
lo k
gro ße</w>
év ol
cré ation</w>
Hil fe</w>
Al s</w>
Be deu
F u
indus tri
spécifi ques</w>
Lös ung</w>
gl eichen</w>
eff ets</w>
ac i
main tenant</w>
w issen</w>
le au</w>
ris ques</w>
So zi
m ou
n äch
requ ér
vi a</w>
a is
fol ge</w>
pers ön
zei tig</w>
chr on
répon se</w>
fem mes</w>
ö h
com bin
sor tie</w>
Ver besser
sor te</w>
ex amen</w>
M or
s ource</w>
op tion</w>
bar keit</w>
s ei
ör per</w>
o ber
caractéris ée</w>
surveil lance</w>
ato ire</w>
be findet</w>
st ei
cou ver
dé lai</w>
stock age</w>
sou tien</w>
vi s</w>
ma ßnahmen</w>
wä re</w>
ben utz
ber u
m g</w>
N ot
év én
di tes</w>
f ont</w>
m ents</w>
k ri
dev ez</w>
Commun auté</w>
par mi</w>
kli cken</w>
gest att
ag no
rit eri
s auv
conten ant</w>
pai ement</w>
ai der</w>
N i
Servi ces</w>
p asse</w>
on al</w>
nat ure</w>
Sit u
effic acité</w>
entfer nt</w>
ma j
Ar z
Dez ember</w>
D an
man i
cul ture</w>
Än derungen</w>
T R
Ab s</w>
eng ag
R est
K O
Compu ter</w>
timm ung</w>
rest aur
Str u
kon tr
fr ais</w>
er neu
h ér
y er</w>
op h
Feh ler</w>
W ähr
Progr amm</w>
B I
cham p</w>
ai rement</w>
M ess
aff aires</w>
Ad resse</w>
Vorsch lag</w>
je des</w>
déc embre</w>
aff i
extr ém
Ge w
ma cht</w>
t est</w>
äm pf
T A
r age</w>
au jourd</w>
wal tung</w>
législ ation</w>
mö chte</w>
médi cam
l ut
propr e</w>
b ains</w>
un abhängi
électri que</w>
k or
appli cations</w>
g lichen</w>
er ungs
An gebo
utilis e</w>
ange zeigt</w>
Verwalt ungs
S S
Deutsch land</w>
In dus
v ement</w>
nation ales</w>
betreff enden</w>
eb o
and s</w>
Behand lung</w>
Vertrag s
M us
du s</w>
K oh
L L
ß en
ac es</w>
An gaben</w>
in clu
J an
Su p
op er
Bedeu tung</w>
k to
vis ant</w>
ke ting</w>
I II</w>
sp iel
s ci
ben ö
re conna
g ar</w>
weiter hin</w>
vi gueur</w>
tiv ement</w>
ih rem</w>
z in
Energi e
ouv ent</w>
Eur o
quel que</w>
V is
H ol
On line</w>
ni ti
zuständi gen</w>
pr est
cit oy
o ci
techni que</w>
ger ung</w>
sol che</w>
mét hode</w>
v r
dar über</w>
mal a
C H</w>
Uni s</w>
R ess
Qu alität</w>
poten ti
P S</w>
tr a</w>
propri été</w>
o t</w>
Län dern</w>
ri gen</w>
re gi
letz ten</w>
g ül
ri chten</w>
gro ßen</w>
Ger icht
ax e</w>
st es</w>
ä re</w>
at tribu
wer de</w>
ge tr
a tre</w>
S A
k re
i ti
do ssi
A m</w>
utilis és</w>
D E
pro ch
C I
cho ix</w>
publi k</w>
tim men</w>
me di
ak tion</w>
be l</w>
rec ours</w>
alo gue</w>
h eb
sch en
ré c
fr on
er ce</w>
ist ant</w>
j ec
au di
Fr ank
o li
usammens etzung</w>
rit te</w>
je den</w>
Ho ch
gel ten</w>
E ff
b ung</w>
an ne</w>
verfü gt</w>
all em</w>
f e
Durch führung</w>
Über wach
seu le</w>
z eit
lum ière</w>
ho ch
O S</w>
N et
elek tr
n ée</w>
néc essi
k ro
ty pes</w>
ré p
komm ens</w>
exploit ation</w>
app el
T el
Kli cken</w>
internation alen</w>
Gl eich
wil l</w>
Allem agne</w>
er t
h aus
r in
res te</w>
di men
ouver ture</w>
bes ten</w>
VER FAHR
un ver
v öl
cu is
l len</w>
derni er</w>
supplément aires</w>
ol l</w>
tot al</w>
Bil d
Ré publique</w>
Dat eien</w>
eg ie</w>
je dem</w>
sicher zustellen</w>
è les</w>
sch rei
paramè tres</w>
régi me</w>
is ches</w>
m b
fest gelegt</w>
durch geführt</w>
véhic ule</w>
wor in</w>
finan zi
in dépend
dis pose</w>
un der
im pli
In stitu
n ie</w>
il lez</w>
eu er</w>
di ens
ex ter
Re chte</w>
nor mes</w>
a ise</w>
L A</w>
Ver arbeitung</w>
än de</w>
In s
Ein richtung</w>
gem acht</w>
li cher
wor t</w>
ul t
Au ff
grei fen</w>
Ver einig
pr ises</w>
r o</w>
untern ehmen</w>
mo teur</w>
bil dung</w>
an che</w>
T O
w ollen</w>
tig es</w>
S P
él abor
D ell</w>
di enst
VERFAHR EN</w>
aus sch
emplo y
k einen</w>
in frastru
u eil
gro ß
lign es</w>
dev ant</w>
opér ations</w>
ex per
p é
électron ique</w>
gesp eich
gl au
I niti
derni ère</w>
tra vers</w>
constru ction</w>
acc or
R ou
gen e</w>
R olle</w>
ag ent</w>
ko sten</w>
eg ri
s atis
En d
emb our
er zi
tig keiten</w>
fr u
vir tu
führ ungs
administr ation</w>
com b
b ro
dé s
an ç
e e</w>
i um</w>
Pl us</w>
comm une</w>
ex erci
effic ace</w>
chau ff
er stellen</w>
Ergeb nisse</w>
du e</w>
k at
In str
mo ire</w>
sp ä
inter ne</w>
ph ase</w>
tempér ature</w>
rédu ire</w>
gn isse</w>
Syst ème</w>
y p
d ruck</w>
ti sch</w>
ch aî
st ens</w>
di s</w>
em and</w>
ermög licht</w>
Komm unik
Fr auen</w>
quanti té</w>
an den</w>
c m</w>
D urch</w>
mäß ig</w>
le ben</w>
ord re</w>
tig ten</w>
Z iele</w>
s s</w>
ver tu</w>
Sin ne</w>
ange ordnet</w>
acc ept
Fon ds</w>
erh eb
ss yst
qu és</w>
h or
al so</w>
h is
c o</w>
utilis ant</w>
B E
ver m
li b
alis ierung</w>
f all
Ma ß
tiv ité</w>
ge bi
Mitt el
C ol
teil t</w>
par o
d ruck
Mar kt</w>
jus te</w>
U N</w>
di gung</w>
fü h
Zeit punkt</w>
Pati enten</w>
er st</w>
fam ille</w>
Ver antwor
Di eu</w>
économ iques</w>
ail leurs</w>
zur ück</w>
er war
K ol
Kap it
Progr amm
rap ide</w>
führ ten</w>
ru p
mar kt</w>
u ten</w>
inter médi
u ch
dür fen</w>
minu tes</w>
ter mes</w>
I r
b itte</w>
CO N
techn ologie</w>
J o
Unter such
dis tribu
Z iel
j an
s ement</w>
ni mm
ti ss
condu c
z ones</w>
be ein
Z er
s ouvent</w>
rän k
wei ß</w>
ex amin
fabri cation</w>
A près</w>
ats äch
économ ie</w>
K ur
anim aux</w>
b ut
För derung</w>
nég oci
Off ice</w>
ll t</w>
z y
on d
T ur
T S</w>
respons able</w>
ah lung</w>
intér ess
déc isi
onn es</w>
fac ili
ei g
régi ons</w>
Mit arbei
betr ä
conc entr
concurr ence</w>
geb ung</w>
s einem</w>
soci ale</w>
suiv i</w>
at h
tä ts
En g
d ort</w>
Sta aten</w>
t aille</w>
vor gesch
L auf
J uni</w>
H ER
cont ac
iss es</w>
l ent</w>
ré uni
hel fen</w>
entsprech end</w>
els weise</w>
Eur o</w>
Inst all
f s
fav or
fol gt</w>
be ispi
H al
Beschl uss</w>
T ER
f lü
wi der
logici el</w>
f alls</w>
internation al</w>
qu atre</w>
it y</w>
è rent</w>
s érie</w>
pro pose</w>
geh ö
P A
conséqu ent</w>
o m</w>
A ff
dét ec
d est</w>
lo g
Gr ö
b as</w>
t ari
pro ven
ac ide</w>
L eit
P riv
b st
lan de</w>
vor gesehen</w>
plat z</w>
b lan
ven te</w>
H u
sch ö
ab s
to i</w>
contr at</w>
gebil det</w>
D re
gouvern ement</w>
em por
dess ous</w>
Au ch</w>
Ro y
politi schen</w>
on g
PRO CE
In n
ori z
entraî n
H e
el ement</w>
steh enden</w>
har mon
J a</w>
M il
ul tur
princip al</w>
Zwec ke</w>
rap p
Stell ung
vi te</w>
Kr ank
elek tron
pos er</w>
E sp
ju in</w>
im porte</w>
d eine</w>
pr eu
Web seite</w>
so r</w>
N ame</w>
T ier
konn te</w>
respons abilité</w>
pê che</w>
N ä
F e
entsprech enden</w>
verfüg bar</w>
eil ung</w>
T err
F le
nicht s</w>
num éro</w>
nimm t</w>
könn ten</w>
bun al</w>
struc ture</w>
D A
pass er</w>
aut eur</w>
V ON</w>
a qu
ermög lichen</w>
Ar ti
wirtschaf tlichen</w>
li e</w>
B as
sup érieure</w>
gr ü
sch ul
e voir</w>
dom aines</w>
f eld</w>
crit ères</w>
génér ale</w>
s h
um en</w>
W ählen</w>
e f</w>
v eux</w>
Fr au</w>
wich tig</w>
H a
li bre</w>
Sozi al
off ici
ätz en</w>
Gerä t</w>
l eich
R ec
F ern
ch im
piè ces</w>
gr eich</w>
err eur</w>
fü n
F ac
is cher
aliment ation</w>
déf aut</w>
in cl
TI ON
S O
D éc
ti er</w>
P lan
b is
matéri au</w>
cir cul
financi ère</w>
nombr euses</w>
po li
dür f
gewähr leisten</w>
tr eff
S ur</w>
geleg ten</w>
di en
secon de</w>
B itte</w>
ali e</w>
Or d
ex p
Gemein schafts
eb enfalls</w>
fi k
Hö he</w>
Sch utz
et é</w>
intér êts</w>
s ätze</w>
errei chen</w>
li ber
Z u</w>
ger e
es tim
me isten</w>
t st
rit ten</w>
r om
D et
G ol
import ance</w>
I st</w>
z er</w>
confi r
P ap
st att
fü gt</w>
la den</w>
gestatt et</w>
tro p</w>
schließ en</w>
l en
P I
verschie dene</w>
B an
besonder s</w>
Reg ierung</w>
ré ception</w>
n is
s ons
b ord</w>
p ol
unterstütz en</w>
Ver einbar
juridi que</w>
h eure</w>
kauf en</w>
par ce</w>
s ag
cir cu
einzel nen</w>
reib ung</w>
re gar
p u</w>
riteri en</w>
mar k
S tra
oc t
W ach
au me</w>
stoff e</w>
Geri cht</w>
n eu</w>
Materi al</w>
a éro
infrastru c
investiss ement</w>
Prüf ung</w>
prüf ung</w>
secon d</w>
autor isation</w>
M ot
mét ho
tr itt</w>
cuis ine</w>
an zeigen</w>
Re publik</w>
D om
Com ité</w>
simp le</w>
licher weise</w>
Tou t</w>
Her steller</w>
Hin blick</w>
funk tion
Comm e</w>
su m
suiv ants</w>
in en</w>
zw ar</w>
l eitung</w>
anti ll
ati v</w>
Produ kt</w>
mehr eren</w>
qu ées</w>
d ynam
en cour
rédu ction</w>
leist ung</w>
pr atiques</w>
f lo
Län der</w>
Besch äf
bes ser</w>
fr ag
L O
int egri
suc c
mitt els</w>
Kom pon
dam ent
av e</w>
éc ri
mar que</w>
envir onn
c amp
Rest aur
h ier
re présente</w>
méc anis
v in
ci vi
cli mati
Flü ge</w>
vidé o</w>
em a</w>
b es</w>
opp el
kom pl
No v
fr agen</w>
is me</w>
t z</w>
S yn
Posi tion</w>
id ement</w>
B asi
ütz t</w>
Her r</w>
rei ch</w>
di n</w>
m ouv
détermin er</w>
M el
men tionn
t ête</w>
hist or
es ter</w>
suiv re</w>
CE E</w>
dé mar
cont ex
at t</w>
ann t</w>
fon dament
publi cs</w>
ord n
B ru
Probl eme</w>
rap idement</w>
wer te</w>
sch utz</w>
tro isi
équi pe</w>
exerci ce</w>
T ag
ré guli
è ve</w>
b â
dé mo
éch é
ill et</w>
eff or
u me</w>
mess age</w>
pré judi
fäh igkeit</w>
pour quoi</w>
éch antill
cht er</w>
Erwä gung</w>
vr ai
ein heit</w>
beispi elsweise</w>
be hand
ac te</w>
dé but</w>
ser e</w>
per tin
Rei he</w>
M S</w>
trans fert</w>
Gen ehmig
ab el</w>
ac r
Kontr olle</w>
coll abor
au x
We g</w>
ver br
ra isons</w>
cré dit</w>
Men ge</w>
Men schen
ü st
ec ken</w>
A D
personenbezo genen</w>
gesam ten</w>
au er</w>
im médi
su cht</w>
inst alli
ul i</w>
t atsäch
an st
actu ellement</w>
dé s</w>
u ar</w>
bestimm t</w>
fa isant</w>
O u
en ir</w>
fahr ens</w>
ti ce</w>
at z
f isc
C D</w>
läss t</w>
V ir
graph ique</w>
D am
esp è
an a</w>
Op tion</w>
strat égi
Sp ezi
comp agn
av i
du l
Qu ali
t oren</w>
com porte</w>
P la
ni ed
év iter</w>
Lu x
rem plac
sch i
V al
pr ét
oblig ations</w>
p assi
m ili
Ress ourc
I R
PROCE DE</w>
form at</w>
blei ben</w>
inten si
vo it</w>
ge ändert</w>
m erk
Organis ation</w>
mo bile</w>
budg et</w>
G ri
c al</w>
angem ess
pouv ons</w>
comp ati
E ig
su jet</w>
ein zi
om o
An sicht</w>
pati ents</w>
No tre</w>
De puis</w>
T age</w>
mê mes</w>
pl ans</w>
dur able</w>
x y</w>
n un</w>
verbesser n</w>
is tre</w>
et c</w>
gehör t</w>
vo i</w>
ier ungen</w>
particuli èrement</w>
Z UR</w>
d ation</w>
Vor aus
unk te</w>
particip ation</w>
Ma i</w>
Probl em</w>
AN T</w>
be we
T ous</w>
Au ßer
R em
Her r
I hres</w>
appli quer</w>
consomm ateurs</w>
év entu
M er
schn ell</w>
modifi cation</w>
om it</w>
wirk s
Ber eit
plu part</w>
techn ische</w>
k ämpf
Appar eil</w>
so fern</w>
consi dé
garanti e</w>
E F
v ér
emp ê
ung st
fav eur</w>
Ein k
compos é</w>
Gericht sho
financi ers</w>
äh n
M L</w>
St at
ger s</w>
US A</w>
ati onn
sch t</w>
fa ßt</w>
ent en
ein igen</w>
si eht</w>
parten aires</w>
et t</w>
Jan uar</w>
dar an</w>
Di rec
citoy ens</w>
Mi kro
mé moire</w>
ig keiten</w>
Ber ich
B ur
betroff enen</w>
Or acle</w>
ain t</w>
acc é
prü ft</w>
Regi on</w>
In te
quali fi
donn er</w>
troisi ème</w>
we b</w>
configur ation</w>
ten d
é tr
souhai tez</w>
extrém ité</w>
éri eures</w>
EW G</w>
lon g
Bewer tung</w>
d ri
as te</w>
jan vier</w>
outi ls</w>
tél év
gerä t</w>
st ation</w>
Ge f
amm er</w>
Erfahr ung</w>
wirk lich</w>
soci étés</w>
Mar k
in o
J uli</w>
arg ent</w>
vit esse</w>
au près</w>
él é
un ser</w>
pl age</w>
dig it
dist ance</w>
ausgewäh lt</w>
Q UE</w>
CH T
gem ein
sa is
consomm ation</w>
be w
St ar
vor liegenden</w>
p ie
ar riv
nach hal
zeich nung</w>
d or
p il
bes tä
zo gen</w>
dé part</w>
for t
C an
cht ung</w>
ch iff
kr äf
P a
p ack
Intern et
S Y
sel ben</w>
D el
ri eben</w>
ver kehr
Uni ons
fahr zeu
ac tif</w>
verfü gen</w>
cri min
P at
B us
pr end</w>
im prim
weiter en</w>
lar ge</w>
cep ti
modifi cations</w>
t ons</w>
Be zieh
enst er</w>
m ein</w>
Z wei
Verbesser ung</w>
jewei ls</w>
Wi der
inn en
An ti
d eh
t aire</w>
regi on
Speich er
ext érieur</w>
pro b
eigen e</w>
instr uments</w>
fonc tions</w>
fr is
territ oire</w>
M u
entwick elt</w>
décisi ons</w>
h aup
I T</w>
erfol gt</w>
Mär z</w>
h äu
ap préci
ré cup
chang ement</w>
T emper
P ol
av anc
ens es</w>
arr ê
F Ü
chac un</w>
prépar ation</w>
b ist</w>
véhic ules</w>
P reis</w>
H ier</w>
esti me</w>
P R
U L
vorher gehenden</w>
A us</w>
Ver kehr
ver hin
St unden</w>
Behör de</w>
J O</w>
li és</w>
j en
répon dre</w>
applic ables</w>
In nov
ess es</w>
an gebo
pos é</w>
gericht et</w>
Ein fu
l i</w>
tr op
our n
spr ech
Zei traum</w>
pr e
in c
N on</w>
ob re</w>
är en</w>
Un sere</w>
S ü
è tres</w>
Entwick lungs
li g</w>
mo bili
bedeu tet</w>
we ch
k tion</w>
déclar ation</w>
g ten</w>
P AR
S eiten</w>
spécifi que</w>
acc ep
Par is</w>
constitu e</w>
mar s</w>
be vor</w>
ju illet</w>
Über ein
anz ös
Ac c
ac tifs</w>
o te</w>
eu ch</w>
s ais</w>
Wach st
schn itt
ir gend
O kto
organis ations</w>
er kenn
Fäl len</w>
ab e</w>
Kre di
m bo
vi elen</w>
dou che</w>
ver ur
F ir
end ro
D ro
ech ni
Kar te</w>
I V</w>
enqu ête</w>
St ellen</w>
emp f
t y</w>
oblig ation</w>
end et</w>
i ères</w>
gan gen</w>
pré vu</w>
Z ahl</w>
hé sion</w>
er re</w>
f all</w>
Regel ung</w>
éc ou
confi denti
meille ure</w>
ab il
ob ten
Inter esse</w>
hin sichtlich</w>
pr atique</w>
Ber eichen</w>
ad a</w>
r endre</w>
en enfalls</w>
ver öffent
con cl
ck e</w>
z en
Daten schutz
Ch ina</w>
l ant</w>
H O
situ é</w>
Progr amme</w>
pré sident</w>
gi en</w>
ander er</w>
in ci
Intern ation
w indi
ma i</w>
Rechts vorschriften</w>
S ept
r end
mitt elt</w>
s age</w>
S Q
m ain</w>
Funk tionen</w>
ex er
L iv
r ay
Sp an
Aussch uss</w>
Okto ber</w>
niv eaux</w>
tr ait</w>
certifi c
g amme</w>
Ausw ahl</w>
on i
Bei hil
sp ir
N ieder
permet tent</w>
rap ports</w>
J us
V on</w>
be grenz
Außer dem</w>
Bet eilig
appro che</w>
Kat eg
N A
off en</w>
Pro tok
att a
p eux</w>
éc o
Ges etz
Z usammensetzung</w>
Fü hr
fer ner</w>
piè ce</w>
ä ure</w>
ell en
mo t</w>
man u
St o
P D
Bro w
si tz
dem andes</w>
her vor
ch i
Empf eh
ein mal</w>
L a
étu de</w>
w er</w>
Woh n
An trag</w>
ac tive</w>
jeun es</w>
soci al</w>
W ahr
l ö
P ay
su per
vi el
tionn el</w>
b au
mach ine</w>
entspr icht</w>
orig in
K lä
wen ig
Gro ß
han den</w>
comm ission</w>
pro to
gr uppen</w>
oc cup
B li
z z
sus cepti
k op
jewei ligen</w>
comm un</w>
aktu alis
Gebi et</w>
cap it
Nä he</w>
im ages</w>
Num mer</w>
homm es</w>
Gr und</w>
P ak
gef unden</w>
asp ec
Ver trag</w>
pl ur
t ard</w>
technologi es</w>
ebo ok</w>
automati sch</w>
j ähr
P our
an ger</w>
Min uten</w>
um faßt</w>
w elt</w>
k g</w>
Stand ard
War en</w>
comm erce</w>
w oll
con stat
t ements</w>
assur ance</w>
oct obre</w>
fol gen</w>
Li eb
intermédi aire</w>
trans mission</w>
for ce</w>
Af ri
è che</w>
fai ble</w>
er stellt</w>
eg ar
ber t</w>
alis er</w>
j eux</w>
S E</w>
sch wer
k ap
il la</w>
M usi
bekann t</w>
z eh
dar in</w>
D U
éri ques</w>
issen schaf
c â
gen au</w>
Ap p</w>
gemeins amen</w>
il lage</w>
Milli onen</w>
M ich
vor handen</w>
û t</w>
M c
T it
CO M</w>
ré solution</w>
l ée</w>
renfor cer</w>
gr é</w>
tran si
S ig
di alogue</w>
A ch
ab zu
is tes</w>
kann st</w>
g te</w>
contex te</w>
P e
ess ay
r aum</w>
ges eh
PO SI
P ass
t i</w>
um ini
eu erung</w>
Über trag
ol s</w>
ber eit</w>
ell eicht</w>
l le</w>
r ä
én erg
sozi alen</w>
d o</w>
l auf</w>
d lichen</w>
Sept ember</w>
ver antwor
fass t</w>
PO UR</w>
le y</w>
Tou tefois</w>
in k
m agn
com port
étu des</w>
ab sol
li que</w>
automati quement</w>
po st
princip es</w>
C et</w>
H oh
s ek
wir tschaft</w>
wür den</w>
effectu er</w>
di gen</w>
progr amm</w>
Gr ou
appli que</w>
M ut
al tern
in n</w>
setz t</w>
eur os</w>
klär ung</w>
S eit</w>
Ein satz</w>
en des</w>
po s</w>
ad ress
sé jour</w>
Pf lan
Tri bunal</w>
Ch am
ding s</w>
Kun st
M än
t he</w>
In tel</w>
caractéris tiques</w>
com ité</w>
gegeb enenfalls</w>
Eig ent
Weiter e</w>
ver pflicht
C onn
en tifi
cin q</w>
institu tions</w>
gespeich ert</w>
cal cul
Auff assung</w>
unser em</w>
gen er
F ach
K üh
pro por
travail leurs</w>
f ek
a dé
europé ens</w>
en suite</w>
étu di
am es</w>
lesqu els</w>
Funk tion</w>
maxim ale</w>
aî t</w>
re ç
gen heit</w>
le gt</w>
Cli quez</w>
ri l</w>
res tri
W il
Mitglie der</w>
ri ft</w>
MEN T</w>
n ü
utilis ée</w>
gehör en</w>
AB l</w>
St elle</w>
et z</w>
tab leau</w>
ver sor
com position</w>
w it
g o
attein dre</w>
comp tes</w>
Roy aume</w>
M ass
Is ra
d ent
Arti cle</w>
lan gen</w>
Re is
tâ ches</w>
Kr aft
m usi
dossi er</w>
T A</w>
dis tin
pr il</w>
régi on
gel ö
t ungen</w>
en tier
g ène</w>
Q u</w>
D av
SQ L</w>
sch affen</w>
r ah
er lau
ter ie</w>
ex c
wich tig
pouv ant</w>
we g</w>
ant age</w>
vrai ment</w>
cour ant</w>
s ept
hy dr
ein z
b ande</w>
mod èles</w>
vol l</w>
auf zu
é du
f as
europé ennes</w>
be finden</w>
g as
m l</w>
meil leur</w>
Wettbewer bs
H aus</w>
Bu ch
aut ant</w>
compét ences</w>
Nov ember</w>
cou leur</w>
Fr üh
S am
Strat egie</w>
ver stär
Pro t
in ge</w>
t empor
stat tung</w>
sept embre</w>
bli ot
t h</w>
ai des</w>
char ger</w>
Sch alt
his toire</w>
L ag
pl ement</w>
matéri el</w>
techn ischen</w>
K am
K üche</w>
a éri
fron ti
u p</w>
errei cht</w>
Frank reich</w>
lut te</w>
actu elle</w>
V oll
l ass
s ex
be züglich</w>
sci entifi
versi té</w>
lesqu elles</w>
ologi que</w>
tig te</w>
at or
o di
rés eaux</w>
M ad
setz ungen</w>
prév ues</w>
concern ée</w>
Ch aque</w>
B innen
ech anis
I N</w>
F ischer
Ber ech
lo se</w>
recht s
Richt ung</w>
su it</w>
éch ange</w>
Lös ungen</w>
dou ble</w>
télé phone</w>
P au
U p
per man
W es
Hin weis</w>
hät te</w>
étap es</w>
ent halten
Kom bin
D N
s emble</w>
concep tion</w>
an o</w>
Tab elle</w>
Zu kunft</w>
an spr
il ement</w>
m ail</w>
les dits</w>
b ai
nation aux</w>
wenig stens</w>
Ber u
compos ants</w>
ok rati
aff ung</w>
Bundes rat</w>
moy enne</w>
is é</w>
Ein richtungen</w>
ajou ter</w>
pr en
rec evoir</w>
El les</w>
A pril</w>
ch lor
Aktiv itäten</w>
sup érieur</w>
t om
Z um</w>
w asser
M E
su sp
C ep
an ch
rei chen</w>
D IS
nov embre</w>
fi g</w>
ges ellschaft</w>
op tions</w>
nécessi té</w>
élev é</w>
vou l
Des ign</w>
F ak
pu issance</w>
ie ßen</w>
gleich zeitig</w>
bou ton</w>
bur eau</w>
si ve</w>
accord s</w>
W al
bo is</w>
intégr ation</w>
exter ne</w>
kämpf ung</w>
r au
utilis ées</w>
derni ères</w>
form ul
ri ge</w>
Mon t
B ien</w>
financi er</w>
ausge führt</w>
En ergie</w>
conform ité</w>
pré vue</w>
imp act</w>
n issen</w>
compr ennent</w>
ass istance</w>
mög licherweise</w>
é p
correspon d
vol ume</w>
be lieb
Eink lang</w>
so gar</w>
Um welt
bes te</w>
chev eux</w>
is ti
r ant</w>
gen ehmig
Ver waltung</w>
C al
num érique</w>
Gesund heit</w>
Q ue</w>
u li
ag ré
wer k
ver st
augment ation</w>
compl ète</w>
völ k
för dern</w>
ro g
gesam t</w>
inf érieure</w>
Man agement</w>
Situ ation</w>
Dar über</w>
notwendi g</w>
An zei
ah n</w>
dép enses</w>
m un
Vol s</w>
er dings</w>
s au
a ju
For tsch
Ge wi
soci aux</w>
vou lez</w>
p al
her e</w>
pass é</w>
trav aux</w>
pour rez</w>
Vo tre</w>
ra i</w>
Stellung nahme</w>
gu te</w>
fac ile</w>
Analy se</w>
st ück</w>
form en</w>
B lu
na le</w>
cu l</w>
N ation
prés ence</w>
Z ur</w>
K ir
investiss ements</w>
outi l</w>
Be g
Ab kommen</w>
Part ner
Eigen schaften</w>
E lement</w>
N icht</w>
vis u
Du sche</w>
zusätz liche</w>
jus tifi
allgem einen</w>
pro p
ari at</w>
Mitt eilung</w>
Sel on</w>
Z ul
Bade zimmer</w>
iv al
éché ant</w>
app el</w>
produc teurs</w>
ac ier</w>
m ement</w>
aff aire</w>
arri ère</w>
Gr enz
R en
de x</w>
dé ten
établi r</w>
Auf ent
H inter
än der
vo iture</w>
acc essi
protég er</w>
li ge</w>
C amp
erfü llt</w>
tr o</w>
g liche</w>
Techn ologi
z äh
stell ungs
en se</w>
dis que</w>
Auf gaben</w>
tri ce</w>
con sul
b a
dem ander</w>
zun ehmen</w>
ti v</w>
Her aus
Ver häl
démo cr
Joh n</w>
sauv egar
ess ai</w>
Durch führungs
al in
In frastru
b re
P E</w>
ün sch
bes u
h oriz
Ap pli
é tran
dec ken</w>
feh l
prom o
Z oll
Cep endant</w>
Re fer
an ges
ac tes</w>
on y
dav antage</w>
l ai
ak tionen</w>
appr ouv
pl or
aus gestattet</w>
stat t</w>
sû r</w>
d in
télév ision</w>
Got t</w>
N I
w n
Fac ebook</w>
rem pli
ouver t</w>
éli min
Produ kt
her gestellt</w>
Benutz er
ven ue</w>
ici le</w>
Gesund heits
rel atif</w>
d et
B lo
av ril</w>
erforder lichen</w>
Str om
stat ut</w>
S élec
L og
ch ange</w>
sp ann
dé es</w>
m aschine</w>
correspon dant</w>
ann u
gestell ten</w>
kr aft
av enir</w>
treff en</w>
s el</w>
accé der</w>
condi tion</w>
en sion</w>
sol chen</w>
vor geseh
außer dem</w>
ei den</w>
C ap
ad di
sim il
fr anç
obj ets</w>
circu it</w>
sou mis</w>
näch sten</w>
catég orie</w>
Ar ten</w>
pr essi
g no
berücksich tigt</w>
centr ale</w>
län dern</w>
stän de</w>
liv r
comp ens
An pass
V A</w>
ach te</w>
Proje kt</w>
r as
dé si
port eur</w>
hy l</w>
l eit
el ten</w>
trag s</w>
ter t</w>
Arz nei
p p
T at
Anwend ungen</w>
fün f</w>
dig keit</w>
int ég
dé plo
tir er</w>
m s</w>
Pr em
Ak tu
N ein</w>
perform ances</w>
ou d</w>
mé lange</w>
ém issions</w>
dé sign
Ein führung</w>
in fr
stän den</w>
déc ou
D aher</w>
n e
pro fil</w>
im pression</w>
Co de</w>
at tr
ag r
form ule</w>
wel cher</w>
Ver br
ers eits</w>
min dest</w>
tr ouver
ch al
Schrit te</w>
ph arm
Flug haf
zu mindest</w>
A TION</w>
import ante</w>
behör de</w>
sélec tion</w>
du mp
S a
destin é</w>
effor ts</w>
s tri
dé ch
sch ir
cr ise</w>
Mitarbei ter</w>
spiel en</w>
ent ur</w>
en h
péri ph
boî te</w>
F lä
Mög lichkeiten</w>
Be we
S aint</w>
Man ager</w>
jus tice</w>
bi eter</w>
sa che</w>
au tour</w>
d ents</w>
o v
it ali
über tragen</w>
An der
plat te</w>
stru ktur
wir ken</w>
v ac
us age</w>
behör den</w>
f ils</w>
Kr aft</w>
adop tion</w>
y c
génér alement</w>
gr af
y ez</w>
Kontr oll
re du
spr ün
b our
geh end</w>
vollständi g</w>
em ment</w>
b or
Install ation</w>
P ho
eng agement</w>
lei cht</w>
z ier
n ern</w>
initi ative</w>
T H
au dit</w>
i les</w>
S lo
E C
atten tion</w>
li ées</w>
mé dec
conn u</w>
Zahl ungs
Ne w</w>
appar eils</w>
avant ages</w>
wer k</w>
preu ve</w>
peti te</w>
é ni
ven tions</w>
vis it
fr eien</w>
Tr ä
end s</w>
un ités</w>
c ent</w>
sub stitu
f allen</w>
ra is
popul ation</w>
aur a</w>
ange geb
coû t</w>
flu x</w>
mondi ale</w>
Hot els</w>
distribu tion</w>
Sch lüss
trä gt</w>
b em
gr andes</w>
Kon figur
fre i</w>
pr ess
Techn ologie</w>
Grö ße</w>
évol ution</w>
Verpflicht ungen</w>
All gem
K riterien</w>
Investi tionen</w>
au st
tr e
Kli ma
Sch i
hab it
pré voit</w>
cl ass
T u
sou ligne</w>
Ges ellschaft</w>
rev ê
tionn elle</w>
Au ßen
Com p
eil en</w>
fai tes</w>
n é
chaî ne</w>
Ressourc en</w>
cl é</w>
cert ain</w>
m in</w>
Ç a</w>
rel ations</w>
iss ons</w>
supplément aire</w>
Diens te</w>
ré sul
N e</w>
Leist ungs
métho des</w>
Er n
organis mes</w>
qu els</w>
sec teurs</w>
aus ch</w>
m asse</w>
cl é
aum s</w>
Kun den
eb ene</w>
d eck
gewi esen</w>
B ü
Ch ine</w>
fon d</w>
fil m</w>
ES E</w>
off en
it aire</w>
tim ent</w>
Geb äu
pri or
march and
enf ant</w>
wesent lichen</w>
zeich n
f amili
b s</w>
lich ung</w>
ütz en</w>
un mittel
R and
ich ten</w>
sam keit</w>
S mar
O ui</w>
enti er</w>
S ach
Betrieb s
si ehe</w>
a h</w>
Sit z
Zwec k</w>
f ut
at te</w>
éri c
Ver s
Wel t
h es</w>
M ein
ven u</w>
ver einbar
K u
r ück
résult at</w>
wirtschaf tliche</w>
an ni
Famili e</w>
m and
ho den</w>
en vis
El emente</w>
Organis ationen</w>
leist ungs
wel ches</w>
I de
ven ti
é vi
tra du
aus reich
ab en</w>
fac ilement</w>
Gesch ichte</w>
cho ses</w>
ec ke</w>
dé plac
is ol
verk ehr</w>
v ul
n omm
materi al</w>
environn ement
Al k
so l</w>
meil leurs</w>
bili tät</w>
öff net</w>
Re gel</w>
tr im
ouver te</w>
S il
fen être</w>
S ei
beträ gt</w>
oc tro
ex es</w>
m ic
b ain</w>
innov ation</w>
titu de</w>
gebi et</w>
supprim er</w>
al og
abs ence</w>
b us</w>
D eb
ten d</w>
ato ires</w>
th è
ré par
M al</w>
ten de</w>
ur en</w>
C am
Gem eins
kl eine</w>
défin ir</w>
spéci alis
optim ale</w>
Regi onen</w>
verb un
compét entes</w>
Inform ations
Leist ung</w>
gi gen</w>
den ken</w>
di enen</w>
réserv e</w>
B on
Wir tschaft</w>
D er
M ann</w>
M ag
le h
vi ennent</w>
œ ur</w>
évén ements</w>
C ro
S en
M ul
schl ag
B al
mati ères</w>
Bür ger</w>
An n
pen se</w>
Di re
be trifft</w>
P rési
FÜ R</w>
A N</w>
Ver hand
Best and
ger ade</w>
Daten bank</w>
Prä si
chois ir</w>
C ré
tim es</w>
bili tés</w>
Kenn tnis</w>
in vite</w>
ex cell
T RA
ori ent
ger t</w>
ret our</w>
ti s
E X
l ten</w>
b ein
In halt</w>
B ri
dé lég
Zu griff</w>
m é</w>
K no
best ehen</w>
G I
Um gebung</w>
comm en
CH E</w>
Hand els
Unternehm ens</w>
Bu chst
R om
D im
Vertrag s</w>
ê me</w>
R us
S ec
G eben</w>
Met hode</w>
indi c
navig ateur</w>
E ss
d onne</w>
dét ail
liqui de</w>
u te</w>
C at
ü hr
ol li
str at</w>
ge m</w>
at ement</w>
sch icht</w>
ber g</w>
i des</w>
m ut
ge ber</w>
C ert
com portant</w>
ver lässi
confi ance</w>
h ung</w>
i hres</w>
D O
t licher</w>
suiv ante</w>
ti ennent</w>
chois i</w>
tou tefois</w>
Rech nung</w>
lat ér
be auf
T re
civi le</w>
v en</w>
réalis ation</w>
ec kt</w>
Be trieb</w>
Ober fläche</w>
US B</w>
Überwach ung</w>
außer halb</w>
An mel
inf lu
gen utz
cul tur
H el
mitt lung</w>
j ahr</w>
on om
form er</w>
éch ang
d ar</w>
pr u
or ies</w>
h om
ex prim
réglement ation</w>
spr echen</w>
mes ur
mb H</w>
umfass end</w>
c aus
em ati
con ç
för mi
gan ze</w>
P C
produ ire</w>
is ierung</w>
T our
it ten</w>
Gel d</w>
cal cul</w>
requér ante</w>
utilis ez</w>
affich age</w>
über trag
r embour
f ast</w>
Kon to</w>
pharm ac
ri ère</w>
st euer
ver sicher
véri fier</w>
équ ili
M I</w>
gemeins ame</w>
w and</w>
am bi
em placement</w>
Zer tifi
K ü
fér ences</w>
voy age</w>
kl einen</w>
gew öh
applic able</w>
er weiter
S onn
Bes u
int el
erfü llen</w>
abili tät</w>
politi sche</w>
Sp iel</w>
recht s</w>
Viel zahl</w>
matéri aux</w>
ab ge
öffent liche</w>
acc ro
it able</w>
Verbrau cher</w>
st ör
di ent</w>
instr ument</w>
moder ne</w>
itä ts
ein gesetzt</w>
Tou tes</w>
cl assi
A fin</w>
be grü
st ück
concern é</w>
av aient</w>
Ar ch
F äh
fr ont
rou te</w>
li aison</w>
F el
er str
Pr in
ß er</w>
fon d
N O
Tä tigkeiten</w>
S c
arti ge</w>
glob ale</w>
s omit</w>
gef ähr
genann te</w>
sch es</w>
rec ev
ren ouv
gan zen</w>
Pl att
fabri c
welt weit</w>
Ur teil</w>
In halte</w>
char gement</w>
B ER
Utilis ation</w>
Te am</w>
Reg istr
di ver
hat ten</w>
Unter kunft</w>
TE R</w>
V or</w>
t el
d ez</w>
o ft</w>
v ais</w>
kar te</w>
W är
H on
kon figur
ri cht</w>
m ort</w>
ach at</w>
Th ema</w>
Al ors</w>
enti èrement</w>
Bli ck</w>
zu führen</w>
Sélec tionn
RI CHT
Er weiter
V eu
ung ser
pap ier</w>
G mbH</w>
ic ations</w>
c us
ordin ation</w>
ou voir</w>
pourr aient</w>
onn en</w>
médicam ents</w>
lon gueur</w>
Vide o</w>
m icro
défin ition</w>
F OR
führ te</w>
E M</w>
U hr</w>
cons eil</w>
m äch
ap i
p ann
t é
li t</w>
D ER
Con tr
pr akti
eb ru
Basi s</w>
Ergeb nis</w>
stän d
Inform ation</w>
jen igen</w>
Bestimm ung</w>
struc tur
ün sti
plan i
un be
s ech
F alls</w>
op tique</w>
jur is
mo bil
Gar anti
C lu
ges ell
A in
ges agt</w>
be trieb
li z
automati que</w>
er ont</w>
Sch iff
emb all
k ä
f al
ré per
ver re</w>
so weit</w>
ent weder</w>
sal les</w>
Veu illez</w>
subst ances</w>
ein heit
la st
L icht
év rier</w>
h ors</w>
ob il
b y</w>
f el
ci te</w>
comp éti
sal on</w>
Über prüfung</w>
vis ée</w>
priv é</w>
D a
E P
wich tige</w>
an gen</w>
T ür
si s</w>
Ex per
net to
lo sen</w>
Gerä te</w>
geeign et</w>
on al
h and</w>
ess eur</w>
vis ées</w>
immédi atement</w>
p ages</w>
pho to
R oh
erneu t</w>
je derzeit</w>
alin é
personn alis
G ä
F ebru
as er</w>
stär k
présent er</w>
Gr uppen</w>
subst ance</w>
M ind
Ain si</w>
Kontak t</w>
Ty p</w>
adé qu
port ée</w>
den ten</w>
Pre ise</w>
f ur
qu elles</w>
B ul
Ab s
a xi
lich ten</w>
un ten</w>
gr ands</w>
stand ard</w>
F T
mon tre</w>
h eur
è que</w>
Regel n</w>
Best ell
compét ente</w>
d ein</w>
entsprech ende</w>
mouv ement</w>
fin al</w>
M P
zu lässi
f ro
ungs mittel</w>
lan gue</w>
Rah men
et ten</w>
pass en</w>
zu ge
LA N</w>
aus s
con vention</w>
Au g
Po int</w>
r enseign
Sch wi
R aum</w>
amélior ation</w>
mala die</w>
on a</w>
hum an
Un i</w>
mo sph
Febru ar</w>
E E</w>
circul ation</w>
por té</w>
europä ische</w>
T eile</w>
dét ection</w>
c as
Küh l
cht et</w>
ru e</w>
neu er</w>
concern és</w>
Ur spr
ati e</w>
fréqu ence</w>
off res</w>
Nutz er</w>
ab sor
confidenti alité</w>
g nis</w>
It alie</w>
äm lich</w>
Pr o</w>
équip ements</w>
öff nen</w>
cl asse</w>
cons istant</w>
Um welt</w>
Pour quoi</w>
fass ung</w>
G as
par all
fr ü
bi ens</w>
fem me</w>
t em</w>
lin g</w>
Forsch ung</w>
äu me</w>
j äh
financi ères</w>
install ations</w>
Bil dung</w>
forder ung</w>
proto cole</w>
ca sion</w>
Politi k</w>
i de
unabhängi g</w>
ver ordnung</w>
re çu</w>
Mi o</w>
vi v
Z i
présent ant</w>
z t</w>
B at
blei bt</w>
dur ant</w>
ff en</w>
Schl af
tro ck
gr a
ec i</w>
ti n</w>
ung e</w>
sim plement</w>
n ämlich</w>
ac tionn
Qu elle</w>
t ei
liber té</w>
Par am
H T
lec ture</w>
L U
es pr
r und</w>
issi ons
bil den</w>
contrô les</w>
Vertrags part
aktivi eren</w>
St är
ex cep
ent lich</w>
Ge or
mar keting</w>
la iss
angem ents</w>
f évrier</w>
A G
Tex t</w>
e g</w>
c ale</w>
développ er</w>
S ou
M M
Part ner</w>
asch inen</w>
W erte</w>
bil d</w>
Ein stellungen</w>
fac es</w>
Flü ssi
ologi ques</w>
S an</w>
Proje kte</w>
compos ant</w>
fourniss eur</w>
kri min
énerg étique</w>
aff ir
eb en
S I</w>
Bei trag</w>
y a</w>
K ri
U M</w>
Form el</w>
entspr echen</w>
alo g</w>
end r
am éric
b ul
V OR
fourniss eurs</w>
S ho
oc casion</w>
trä gen</w>
gen des</w>
Syst eme</w>
D en
z ahlen</w>
sel n</w>
gel tenden</w>
Artik els</w>
ti di
eff ek
vac ances</w>
z ierten</w>
ag ents</w>
tri ces</w>
P an
c ent
F eld</w>
aju st
bal d</w>
endro it</w>
possi bilités</w>
fre und
Et ats</w>
Li z
Ver sicher
bur g</w>
E L</w>
es so
SY STE
ho hen</w>
L ö
Esp agne</w>
can di
Genehmig ung</w>
B em
gratu it</w>
N ur</w>
Dok um
her r
affi cher</w>
Gel d
gewöh n
ins cri
pu isse</w>
nu clé
m ol
s ation</w>
es te</w>
Besch reibung</w>
pl ätze</w>
ex isten
Um fang</w>
gesam te</w>
bi o
T F
A G</w>
leist et</w>
déch ets</w>
ant i</w>
g al</w>
ge wäh
c af
pro positions</w>
Grün den</w>
s ources</w>
fourn it</w>
identifi cation</w>
gemeins am</w>
éch elle</w>
uti le</w>
issi onen</w>
al ter</w>
import ants</w>
acht et</w>
ouv re</w>
Bil d</w>
B ank
sor gen</w>
wichtig sten</w>
Z y
D oppel
S ite</w>
besch rän
règ le</w>
Be völk
relev ant</w>
carb one</w>
Vereinig ten</w>
ther m
p y
alt et</w>
pass t</w>
Rech nungs
Ver gleich</w>
pro xim
V oir</w>
Po wer
Währ end</w>
staat lichen</w>
It alien</w>
verpflicht et</w>
ins gesamt</w>
s èche</w>
w issenschaf
Angebo t</w>
ch em</w>
réuni on</w>
destin ation</w>
aliné a</w>
ec k</w>
E st</w>
veröffent licht</w>
Wirk ung</w>
A jou
I P
olog ischen</w>
défin i
priv ée</w>
aktivi ert</w>
speich ern</w>
pass age</w>
ac ités</w>
opér ationn
ré v
maxim um</w>
kon zentr
al te</w>
édu cation</w>
Por tu
Syst em
fai te</w>
sicher heit</w>
eu ern</w>
L ES</w>
conséqu ence</w>
Sta at
Ma c</w>
ange geben</w>
horiz ont
signi fie</w>
ré us
heb ung</w>
propri étés</w>
ord nungs
at om
einz ig
UNG S
äu ßer
ab ord</w>
co les</w>
H af
p les</w>
rel ation</w>
Ver sch
K örper</w>
ti onne</w>
n etz
c é</w>
un n
be tra
C ESE</w>
cou leurs</w>
cell ules</w>
er sch
ak tiv
li er</w>
gel n</w>
D V
O ut
co hér
Qu and</w>
W ahl</w>
pr ati
ter re</w>
as h
internation ales</w>
organis me</w>
Ad ministr
prom ouvoir</w>
E d
é tro
li ens</w>
r s</w>
pos ées</w>
marchand ises</w>
ér é</w>
m ann</w>
M A</w>
gan g
ur sprün
Wor k
conna issance</w>
schließ end</w>
dé jeun
Com position</w>
schein t</w>
P H
ou t</w>
ri ger</w>
i k
ar en</w>
aktu ellen</w>
mécanis me</w>
C u
di o
e k</w>
at ten</w>
proven ant</w>
F enster</w>
ë l</w>
comb us
eu t</w>
R U
publi ques</w>
Geh äus
Maß nahme</w>
ac compagn
détermin ée</w>
Ber ücksich
per mis</w>
Ber lin</w>
s enden</w>
lo cation</w>
pro pos</w>
S har
équ ival
L is
ein gesch
TI F</w>
Mind est
entwick eln</w>
si mul
Be kämpfung</w>
rem pl
Ko sten
ouv rez</w>
T agen</w>
ativ ement</w>
associ ation</w>
sou tenir</w>
z a</w>
T EN</w>
umini um</w>
an lage</w>
fass en</w>
ni e
D onn
Part eien</w>
Sch ließ
l ass</w>
Au c
a iss
trä ch
Sup port</w>
syst eme</w>
princip aux</w>
sim pli
Inter essen</w>
prem ières</w>
visi te</w>
ma ß
am end
poss ède</w>
N av
gi que</w>
be halten</w>
contac ter</w>
dé riv
j et
exclu si
pos ée</w>
acc ueil
vi c
Recht ss
vis és</w>
Zw isch
Risi ko</w>
serv er</w>
ic ul
Dav id</w>
ang s</w>
persön lichen</w>
E v
SI ON</w>
Produk tions
contin ue</w>
ter ung</w>
Con t
pré al
struc tions</w>
Klä ger
Dam it</w>
cap acités</w>
Tel ef
C op
ün s
A gence</w>
éri eurs</w>
sou ff
wend et</w>
fi c</w>
her en</w>
lös ung</w>
Bereit stellung</w>
B O
führ er</w>
p ère</w>
es ten</w>
men sch
ri s</w>
judi ci
Unter schie
ou bli
R n</w>
Netzwer k</w>
réalis er</w>
sign aux</w>
betr ei
el te</w>
S im
a c</w>
intern et</w>
ul er</w>
ho he</w>
Syst ems</w>
ho f</w>
sch wi
get eil
ar a</w>
A S</w>
D or
ok ie</w>
An frage</w>
ang s
L es
Kap az
besteh enden</w>
compl è
tot ale</w>
figur ant</w>
lim ite</w>
än ger</w>
r üst
â ge</w>
M ol
liv raison</w>
be an
ul tur</w>
wä l
da m</w>
sélectionn ez</w>
pré si
e kt</w>
verhin dern</w>
J os
defin iert</w>
hab itu
i dée</w>
N ouv
Pri or
F i</w>
gen ießen</w>
kom bin
F alle</w>
k s
iden ti
fin ition</w>
fest gelegten</w>
H and</w>
Str af
Jahr es
Spr ache</w>
peti tes</w>
über w
arch it
destin és</w>
des halb</w>
fix ation</w>
indi qué</w>
Ent fer
zei chen</w>
T he</w>
tin u
form ulaire</w>
Mo du
spezif ischen</w>
Mon aten</w>
den tifi
Gerichtsho f</w>
r y</w>
windi gkeit</w>
Prä sident</w>
compl ément
sp i
amm lung</w>
Ko ordin
déjeun er</w>
tä ten</w>
Berücksich tigung</w>
stoff en</w>
V ari
o se</w>
ress ort</w>
S U
ag ir</w>
inter prét
b a</w>
be zieh
m as
EU V</w>
éti qu
fai ts</w>
ét aires</w>
T echni
so ins</w>
comp ter</w>
commun ications</w>
l et</w>
con forme</w>
ph én
indi que</w>
T her
g ab</w>
Vorsch lä
Gr âce</w>
mach ines</w>
compl et</w>
Ein sch
plas tique</w>
PD F</w>
her unter
aus schließlich</w>
m ètres</w>
au che</w>
E G
mp t
C P</w>
direc t</w>
lon gue</w>
trai ter</w>
Auf gabe</w>
recht lichen</w>
f rie
ssyst em</w>
T élé
d û</w>
s eur</w>
L ond
import ations</w>
M erk
t ori
s eien</w>
fr anzös
geb aut</w>
C ou
bl ement</w>
g érer</w>
A le
RICHT UNG</w>
consi d
Stand ard</w>
chem in</w>
trans ports</w>
st yle</w>
timm t</w>
Do wn
cir const
m einer</w>
pl aque</w>
For mul
Priv at
ch é</w>
auf weisen</w>
spä ter</w>
verti ss
Untersuch ung</w>
C ho
lok alen</w>
er ait</w>
d el</w>
existen ce</w>
Aus gangs
S w
iss on</w>
an gl
Pre is
élec tro
c œur</w>
feu ille</w>
s eh
d eten</w>
ré f
dev ons</w>
e di
mi lieu</w>
it ement</w>
act eurs</w>
o d
S ign
bar er</w>
al co
sag te</w>
él è
T or
Sch wer
off rir</w>
R adi
dau er</w>
ret é</w>
ut ôt</w>
tr om
per te</w>
k am
Op tionen</w>
adop té</w>
Hand el</w>
préjudi ce</w>
succ ès</w>
k am</w>
D ann</w>
g lis
ru fen</w>
N atur
MI T</w>
gu erre</w>
peti ts</w>
Ein haltung</w>
nu it</w>
ver häl
ein schlä
essenti el</w>
ver rin
hinzu fügen</w>
d omm
U l
aliment aires</w>
do is</w>
den te</w>
k i</w>
r ag
hé ber
K al
espr it</w>
demand é</w>
reli gi
dét ails</w>
fest gestellt</w>
kon tak
s tim
a k</w>
kl ar</w>
A ir
sem aine</w>
p et
disposi tifs</w>
v an</w>
par ler</w>
Anwend ungs
ex position</w>
jou er</w>
progr ès</w>
c ant
exper ts</w>
end ra</w>
ren contr
Vor teile</w>
exéc u
Verantwor tung</w>
un es</w>
B ad</w>
diens t</w>
rei che</w>
ang le</w>
fo r</w>
per i
Kombin ation</w>
trouver ez</w>
plur alité</w>
umfass en</w>
is ée</w>
p isc
Bezieh ungen</w>
Ph one</w>
a der</w>
veu t</w>
V en
li t
si ons
ti s</w>
è ge</w>
u g</w>
Span ien</w>
S an
logici els</w>
eu sement</w>
aus drück
défin i</w>
loc al</w>
import antes</w>
Ab schluss</w>
t ent
An sch
Produk ten</w>
eich s</w>
Ag entur</w>
Kredi t
étab li</w>
at e
flu or
tr ou
ter a</w>
deu tlich</w>
um es</w>
War um</w>
ar s</w>
er tes</w>
einig ung</w>
zeu g</w>
Ver mö
export ation</w>
u eil</w>
com pli
Dok ument</w>
Z iv
actu el</w>
vo irs</w>
er leich
Lin k</w>
sch ützen</w>
sk i</w>
déc ri
mess ages</w>
Ant wort</w>
fu sion</w>
arbeit ungs
S ur
brau chen</w>
pie d</w>
l lung</w>
entraîn ement</w>
b auen</w>
Ver anst
rés istance</w>
trai te</w>
ten si
benö tigen</w>
zu g
princip ale</w>
Entschei dungen</w>
Auf trag
Indus trie</w>
Prési dent</w>
Ziv il
tig ungen</w>
tri eben</w>
T EN
J ap
ag ers</w>
t ch
Proz ess</w>
Mitgliedsta ats</w>
erk ennen</w>
diff icile</w>
si x</w>
vir us</w>
aliment aire</w>
ser t</w>
k tor</w>
Ab kommens</w>
Herr n</w>
an ischen</w>
hu ile</w>
men u</w>
P unkt</w>
k el</w>
Form at</w>
E LE
tâ che</w>
aéro port</w>
Dre h
st abil
Aus fu
produ kte</w>
statisti ques</w>
car tes</w>
Ge w</w>
l ation</w>
O per
Inte gration</w>
augment er</w>
o d</w>
on line</w>
sa chen</w>
pro je
Sch affung</w>
ap ie</w>
pro vo
I L
les dites</w>
conclu sions</w>
Mon ate</w>
conduc teur</w>
Produk tion</w>
aspec ts</w>
j ac
dar stellt</w>
zu dem</w>
di gt</w>
D S</w>
EW SA</w>
continu er</w>
f te</w>
iss eur</w>
Po st
notifi cation</w>
nach dem</w>
quo tidi
mod alités</w>
ander em</w>
k ür
is en
A part
An lage</w>
P il
Ge währ
s ent
fu t</w>
ge o
for dern</w>
p eau</w>
Finanz ierung</w>
physi que</w>
Voraus setzungen</w>
chal eur</w>
EM C</w>
dou an
con fli
Pro f
di té</w>
ég alité</w>
é tiques</w>
fan gen</w>
fonctionn alités</w>
gan gs</w>
co ordonn
promo tion</w>
an hand</w>
appro visi
vorgeseh enen</w>
Cl oud</w>
fäl le</w>
Diens t</w>
pl ein</w>
to il
B ou
co ordination</w>
ein richtungen</w>
w s
gen er</w>
ck er</w>
no te</w>
LE D</w>
Dat um</w>
syst ems</w>
M isch
Tä tigkeit</w>
Köni greich</w>
l è
lu x
D ruck</w>
ext érieure</w>
am eri
cré é</w>
diff icul
am ine</w>
mit glie
P ra
génér ation</w>
Stat us</w>
professionn els</w>
K örper
entr er</w>
syn chron
C r
M ehr</w>
Auf nahme</w>
n eben</w>
S on
ent lichen</w>
Proz ent</w>
Er fol
S onder
cy lin
I dentifi
Ein ige</w>
tu elle</w>
am a</w>
pl utôt</w>
inter face</w>
teil s</w>
erg än
ü hren</w>
iss ances</w>
cl airement</w>
modu le</w>
IS O</w>
jour n
per r
Z ur
St ad
u fen</w>
représent ant</w>
er re
z eiten</w>
gewähr t</w>
ref us
k ts</w>
génér ales</w>
wur f</w>
siè ge</w>
si onen</w>
an gen
charg é</w>
tionn aire</w>
limit es</w>
ti vi
professionn elle</w>
Pl atz</w>
am is</w>
DIS POSI
ätz lich</w>
comm enc
Or gan
mar i
s äm
bi les</w>
envoy er</w>
es c
ange fo
par l
wi ll
des ign</w>
Beschl usses</w>
ti me</w>
Verbind ungen</w>
Berich ter
P fle
Vereinbar ung</w>
perform ance</w>
vo l</w>
B ank</w>
a o
S ter
p ak
Forsch ungs
ge fügt</w>
dis crimin
hö ch
z ö
do se</w>
Än der
cl és</w>
constitu é</w>
î t</w>
hol en</w>
co in</w>
A spek
inf érieur</w>
z e
satz es</w>
R el
ag ue</w>
N icht
K amp
enregistr er</w>
I F
Materi alien</w>
pr ol
ex tension</w>
er hält</w>
N u
Cas ino</w>
électri cité</w>
diens te</w>
budg étaire</w>
G al
i c</w>
Flughaf en</w>
Bei hilfe</w>
gar an
äu ß
wal t</w>
gel eitet</w>
ch angements</w>
tra fic</w>
S omm
s eines</w>
L icht</w>
Verbind ungs
zi eht</w>
différ ence</w>
lie fer
compr endre</w>
sin e</w>
berücksich tigen</w>
O h</w>
main tenir</w>
contr ats</w>
cep endant</w>
ét en
R uss
ens o</w>
prot é
av ais</w>
dec kt</w>
certific at</w>
Stru ktur
beauf trag
jour née</w>
ai e</w>
m einen</w>
Trans par
dé fi
An dro
condu ite</w>
Ver öffent
P ER
Par k
i k</w>
as h</w>
Ber at
mondi al</w>
deu t
cons eil
et er
über prüfen</w>
pho tos</w>
bin den</w>
signi fic
on ie</w>
IN E</w>
représent ants</w>
gan genen</w>
catég ories</w>
Jahr h
Ch em
än derungen</w>
tä r
Sp e
Uni versi
Technologi en</w>
u sion</w>
mic ro</w>
bliot h
enti té</w>
de te</w>
ander es</w>
zu gs
organ e</w>
N os</w>
or tiss
wir kt</w>
F eri
ver suchen</w>
y s</w>
Beihil fen</w>
t nisse</w>
D ig
ter en</w>
Er eign
ti r</w>
s eg
län der</w>
facili ter</w>
H ô
ver walt
si té</w>
Verbrau cher
adop ter</w>
ü ss
C A</w>
Be dürf
Kon zep
W ech
Wachst um</w>
ad hésion</w>
Grün de</w>
éc lai
all ein</w>
nom in
teil weise</w>
serv eurs</w>
so fort</w>
st abilité</w>
fer enz</w>
Brow ser</w>
Risi ken</w>
N ord</w>
publi cation</w>
genutz t</w>
vis é</w>
lang fris
Sélectionn ez</w>
pré cé
communaut aires</w>
contribu tion</w>
Er klärung</w>
D ank</w>
R è
ail li
Un ter</w>
Aussch usses</w>
Sp ann
An nahme</w>
ei s</w>
proxim ité</w>
B ab
aus gebildet</w>
star k</w>
ret en
Richt linien</w>
M y
Chr ist
ar din</w>
besonder en</w>
chauff age</w>
ou se</w>
ann uel</w>
Unternehm ens
frei e</w>
gewähr leistet</w>
b ür
ass ez</w>
u er</w>
Be trag</w>
Verkehr s
for te</w>
tan dis</w>
medi zin
br ingt</w>
K er
ein s</w>
finanzi ellen</w>
be handelt</w>
is s</w>
R ob
ordn eten</w>
olog ische</w>
M ET
Ex tr
paramè tre</w>
An trag
F assung</w>
pr êt</w>
t te</w>
Su che</w>
Br enn
Z eichen</w>
élev ée</w>
ju g
em ar
fr üh
A EUV</w>
i Phone</w>
wi esen</w>
ak zep
M P</w>
N om
mög lichkeiten</w>
Proz ess
Fr ist</w>
gän ge</w>
vor aus
ep ti
ing s</w>
L eu
Kontak t
graph iques</w>
flä chen</w>
consult ation</w>
M ét
fix e</w>
m är
m ale</w>
sem aines</w>
zeh n</w>
or ation</w>
lin ge</w>
In t
dé l
établiss ements</w>
C T
pa ar</w>
it zen</w>
rel atifs</w>
auf genommen</w>
trai n</w>
a el</w>
fü llung</w>
biet ern</w>
inter vention</w>
op port
n eg
bo x</w>
pro fi
ç ant</w>
comm ut
r am
itz t</w>
br u
b uch</w>
fronti ères</w>
kontr olli
travail ler</w>
bei tragen</w>
Bil der</w>
STE LL
potenti el</w>
an wend
affi che</w>
concern ées</w>
t age</w>
er wäh
N E
édi tion</w>
woll te</w>
el er</w>
h eben</w>
Kateg orie</w>
Gener al
princip alement</w>
di x</w>
form é</w>
Down lo
er le
m én
s ession</w>
vol le</w>
bei de</w>
agno sti
appar tement</w>
Au st
W and
Wo che</w>
s agt</w>
è nes</w>
angefo cht
Restaur ant</w>
hen tifi
U kr
H aut</w>
G re
A n</w>
derni ers</w>
en gen</w>
activ er</w>
pu is
on des</w>
évalu er</w>
end gül
pl ant
Zu stand</w>
Sei ten
sozi ale</w>
considér é</w>
juridi ction</w>
v ise</w>
Web sites</w>
s auf</w>
su isse</w>
j ection</w>
Mar keting</w>
Y or
sou lign
ler nen</w>
zu gel
B eur
Obje kt</w>
f ts
vi elleicht</w>
ber icht</w>
m at</w>
Fest legung</w>
num mer</w>
ach et
wel chem</w>
câ ble</w>
i i</w>
P as</w>
sex u
gen der</w>
pos és</w>
L eute</w>
Programm s</w>
Por t
er ster</w>
loc aux</w>
K ern
Gr a
an erk
ur gence</w>
geschlo ss
di um</w>
main ten
off enen</w>
bet ei
lie fert</w>
L Y
sch u
or ien</w>
prest ations</w>
L IS
ger e</w>
vor hand
Öff ent
bet ont</w>
L ors</w>
bil at
tionn elles</w>
g auche</w>
hab er</w>
comm ent
ch api
ré ci
ver l
Erzeu gnisse</w>
gé o
is mus</w>
grö ßer
k ultur
S ER
pl at</w>
trouv é</w>
N ations</w>
Buchst abe</w>
appu i</w>
mar ques</w>
sech s</w>
er inn
mét alli
af ri
plat e
k lin
transpar ence</w>
ver stehen</w>
Temper atur</w>
C R
l y
p om
Ju gend
vo is
rais onn
m ac
R ot
lauf en</w>
conséqu ences</w>
nie der
Inn en
én onc
St off
grün det</w>
verbind ung</w>
äch st</w>
am s</w>
Me er
rit ure</w>
Initi ative</w>
acc ueil</w>
ger in
ir ation</w>
du es</w>
Her z
esso ires</w>
t ar
si eur</w>
y age</w>
EN D
sor mais</w>
spezif ische</w>
Aut o</w>
électron iques</w>
blan c</w>
G lob
l av
Ph ili
Im possible</w>
Mar ke</w>
Aus gaben</w>
M obil
cy cle</w>
particuli ère</w>
a ises</w>
Zentr al
richt et</w>
sicht s
suffis amment</w>
ex ception</w>
Recht s</w>
än den</w>
w eich
Z eich
Farb e</w>
fi é</w>
cht s
Bl ut
con jo
Leit linien</w>
G est
ge halten</w>
ä ne</w>
Not wen
priv aten</w>
Pu bli
pres se</w>
commerci ales</w>
ré action</w>
les en</w>
UNG EN</w>
pisc ine</w>
as che</w>
h inter
sur tout</w>
S S</w>
bl att</w>
TION S</w>
Risi ko
conclu sion</w>
Mitglie d</w>
B ot
évén ement</w>
o x
navig ation</w>
ränk ungen</w>
us w</w>
ind re</w>
chac une</w>
X ML</w>
E D
rec ueil
ag é</w>
échang es</w>
équip ement</w>
équip ée</w>
Aug ust</w>
ni en</w>
ab geschlossen</w>
lü sse</w>
appli quent</w>
poten zi
fact eurs</w>
Pay s</w>
ber eitung</w>
renseign ements</w>
tes ten</w>
eur o</w>
gel t</w>
m issi
N E</w>
collec te</w>
infrastruc tures</w>
Beh äl
A L</w>
l égi
fl uss</w>
C U
l ets</w>
hät ten</w>
ro tation</w>
exéc ut
Sch icht</w>
d ischen</w>
Sel bst
Zu ständi
wahr schein
grei f
Funk tion
parten ariat</w>
ap porter</w>
St äd
Portu gal</w>
erhö hen</w>
él arg
K ab
ak tiven</w>
prof iter</w>
ach eter</w>
Tat sache</w>
ein deu
H am
E di
ail les</w>
p unk
p sy
Andro id</w>
Conn ec
consid ère</w>
An teil</w>
Rus sie</w>
étr ang
négoci ations</w>
Ver b
ek tor</w>
Wettbewer b</w>
s éri
r an
weis ung</w>
minim um</w>
contr aire</w>
deh ors</w>
zusätz lichen</w>
sauvegar de</w>
déf ense</w>
col onne</w>
grund le
V ater</w>
constitu ent</w>
Verpflicht ung</w>
Verfü g
direc te</w>
import ation</w>
médicam ent</w>
respons ables</w>
B or
S au
w elle</w>
fahr t</w>
pf er</w>
aus wählen</w>
intégr é</w>
Kin dern</w>
eu m</w>
in structions</w>
é po
ar t
m auv
hy po
nutz t</w>
commun es</w>
A U</w>
et h
paragrap hes</w>
lö schen</w>
présent ation</w>
l ées</w>
eb enen</w>
grenz über
zus etzen</w>
ä den</w>
verm eiden</w>
z ierte</w>
Notwen digkeit</w>
f eu</w>
wen ig</w>
Ent schließ
Stru ktur</w>
mar kt
b on
K aff
Verk ehr</w>
staat liche</w>
in es
empê cher</w>
enn t</w>
Spr ach
häu fig</w>
Kompon enten</w>
M me</w>
pl a
n ten</w>
t eau</w>
Des halb</w>
ém ission</w>
D U</w>
proz ess</w>
ag issant</w>
C y
Verhäl tnis</w>
xi d</w>
ind em
Ver l
del à</w>
K M
correc tement</w>
erkenn ung</w>
in ess</w>
particu les</w>
ak ter
Ukr aine</w>
as ti
ru bri
ho ch</w>
at ures</w>
Lebens mittel
ali ments</w>
d y</w>
M agn
h tt
ato m</w>
ck t</w>
Empfeh lungen</w>
einzi ge</w>
Ar g
Verk auf</w>
collabor ation</w>
N atur</w>
dro ite</w>
contribu er</w>
ain te</w>
Di ff
M ain
mess er</w>
situ ée</w>
ver fahrens</w>
recommand ations</w>
tatsäch lich</w>
cons iste</w>
b enz
g st</w>
kr aft</w>
I S</w>
h auteur</w>
it aires</w>
Quali täts
der s</w>
si li
feh len</w>
ai m
Ver pack
respec ter</w>
ur g
li r</w>
rit t</w>
Dok umente</w>
S ache</w>
rup tion</w>
meille ures</w>
DISPOSI TIF</w>
am i</w>
g g
Arbeit nehmer</w>
paro i</w>
pro che</w>
M ac
Inform ations</w>
S t</w>
il om
B R
M ach
Fol genden</w>
V I</w>
rich tig</w>
ban c
ann on
a w
long temps</w>
Bür ger
histor ique</w>
Sp iele</w>
approvisi onnement</w>
ur i
form ant</w>
con çu</w>
P ME</w>
fa is
Je an</w>
at aires</w>
circonst ances</w>
um p
P P
um s
anz en</w>
W illi
w under
gewi cht</w>
Kläger in</w>
EN T</w>
D eck
e a</w>
M AR
ar ité</w>
p ein
gen s
rei ben</w>
ro s</w>
sol v
v in</w>
dé livr
ko st
Mo difi
tri but
infrastruc ture</w>
l te</w>
er fahren</w>
M ak
examin er</w>
ç ons</w>
Bar cel
ét er</w>
musi que</w>
D ou
mi gr
a zo
D abei</w>
S T</w>
unterschied lichen</w>
K ant
ob st
déci dé</w>
graph ie</w>
cro y
dimen sion</w>
off rent</w>
re chten</w>
B ES
cor por
combin aison</w>
respec tivement</w>
Ü ber</w>
an ony
gehö rigen</w>
n é</w>
Aus nahme</w>
fourni es</w>
Kommunik ation</w>
ein geführt</w>
reconna issance</w>
be f
D en</w>
conna issances</w>
Un ser</w>
ai gn
Kin der
trieb s
t ors</w>
kun fts
Ber eiche</w>
mét al</w>
Wo chen</w>
Ter min
verantwor tlich</w>
I T
pos te</w>
an genommen</w>
zu gän
neu es</w>
concentr ation</w>
schrei ben</w>
P lu
el emente</w>
O K</w>
ier re</w>
modifi é</w>
Heraus forderungen</w>
M an</w>
Ver wenden</w>
sta aten</w>
arti gen</w>
Liv e</w>
diff usion</w>
C K
ri ez</w>
a ï
dél ais</w>
posi tive</w>
dar unter</w>
beein träch
at aire</w>
gab e
mi gration</w>
ré cep
ge ant</w>
über mittelt</w>
sch ung</w>
opér ateurs</w>
ch â
écri t</w>
führ enden</w>
VOR RICHTUNG</w>
v illes</w>
cap ital</w>
al lez</w>
espè ce</w>
echanis mus</w>
so le</w>
loc ales</w>
sch le
J es
dur e</w>
gl eiche</w>
us st</w>
akti v</w>
introdu ction</w>
po ol</w>
Beteilig ung</w>
vali de</w>
gew ünsch
comm andes</w>
Ur lau
res ter</w>
espè ces</w>
ent ement</w>
K ann</w>
qu et</w>
So ci
en ci
Zentr um</w>
konn ten</w>
suscepti bles</w>
ü b
ra te</w>
nom s</w>
carb ur
Ö st
dé sormais</w>
gel aden</w>
d age</w>
Dritt an
en heit</w>
ver ab
kauf t</w>
erklär t</w>
Refer enz
br it
Nutz en</w>
Fol ge</w>
Su d</w>
bet eilig
archit ec
ê tres</w>
wach s
V ie
ein ement</w>
lo ssen</w>
empf oh
S at
connec ter</w>
is ent</w>
t ax
R ap
y eux</w>
dig lich</w>
Eigen schaft</w>
prem iers</w>
ati n
E Z
secon d
fix é</w>
ag ner</w>
g ing</w>
Er stellen</w>
pu issent</w>
Par k</w>
Zu dem</w>
hum aine</w>
er lassen</w>
it ures</w>
an o
lic ence</w>
Bild schir
Schwei zer</w>
restaur ant</w>
ac ement</w>
hör en</w>
pai ements</w>
s ac
échantill on</w>
läu ft</w>
brit anni
T est
all erdings</w>
mo tifs</w>
dump ing</w>
durch schnitt
V illa</w>
Eng lis
app elle</w>
Bevölk erung</w>
af e</w>
candi d
b us
ac ci
Elek tro
H z</w>
D auer</w>
hoch wer
te te</w>
Vertr eter</w>
li gt</w>
é pa
mit einander</w>
pl einement</w>
g ü
j ardin</w>
au ßer</w>
fourn i</w>
dé montr
Gi bt</w>
boî tier</w>
s par
Wer t
ger ungen</w>
présent é</w>
Leist ungen</w>
reich ung</w>
do k
vorgesch lag
installi ert</w>
s ach
bri gen</w>
identifi er</w>
ch ef</w>
er st
Fol gen</w>
terr asse</w>
F rie
un t</w>
Di alog
fi que</w>
I E</w>
pré vention</w>
au b
conten us</w>
T es
Nach richt</w>
appropri é</w>
employ és</w>
em m
Mot or
Jahr es</w>
pré férence</w>
D on
p neu
ex tern
quel qu</w>
S oh
Lin ie</w>
dér ou
renfor cement</w>
be ziehen</w>
B alk
so ir</w>
b loc
O rig
Pl an</w>
entschei den</w>
d einen</w>
fü r
fil tre</w>
bestimm ter</w>
extr ê
gew esen</w>
des dits</w>
du r</w>
UR L</w>
em pr
bo t</w>
zeich nen</w>
Län ge</w>
fi ez</w>
ti es</w>
rem ar
hal ts</w>
compét ence</w>
ver rou
oxy de</w>
f alt</w>
ws let
Yor k</w>
thè se</w>
pai x</w>
gem ents</w>
b ation</w>
be kommen</w>
appropri ées</w>
entschei den
Pau l</w>
En fin</w>
Netzwer k
kr ank
L ou
enti tés</w>
pru dence</w>
A K
poly mère</w>
W et
nav ires</w>
poli ce</w>
g al
v rai</w>
Ak tions
dispos ent</w>
l ad
An satz</w>
per spec
erfol gen</w>
cons ci
S ie
ét hyl
ak tions
char ges</w>
Sta at</w>
ré el</w>
dis pens
C entre</w>
r er</w>
commun auté</w>
ci el</w>
sp ie
er häl
ré parti
juridi ques</w>
gerä te</w>
attein t</w>
begrü ßt</w>
ar ten</w>
viol ation</w>
v entes</w>
ref ro
élabor ation</w>
K ün
Fu ß
ak tive</w>
th é
hän gt</w>
part i</w>
centr al</w>
confir m
f ri
wal ten</w>
versor gung</w>
pr ouv
angegeb enen</w>
fondament aux</w>
inci dence</w>
tu be</w>
entfer nen</w>
mel den</w>
correspon d</w>
nouv el</w>
c lo
veil ler</w>
H ier
Proje kt
geteil t</w>
let tre</w>
N ahr
e fs</w>
effectu é</w>
al le
end ung</w>
ch anger</w>
sol cher</w>
T on
v o</w>
flü ssi
concl u</w>
gar de</w>
onn er</w>
lo ok</w>
acc él
bénéfici er</w>
er er</w>
br ing
sub strat</w>
Stu die</w>
Ver fahrens</w>
Be tr
tionn els</w>
Kapit el</w>
soli de</w>
ter e</w>
fi r
F ai
considé rée</w>
Th om
ein te</w>
J ac
can al</w>
lec teur</w>
g or
grou p
direc teur</w>
sélectionn er</w>
Kin d</w>
ein ger
sch lag</w>
D r</w>
An bieter</w>
Gef ahr</w>
Utilis ez</w>
ab schnitt</w>
ist an</w>
n ö
Er wer
ét ais</w>
le diglich</w>
Vorschlä ge</w>
réalis é</w>
mo ts</w>
Ver sor
T VA</w>
k örper
T ES</w>
d ritten</w>
con vi
réserv ation</w>
lo in</w>
bezo gen</w>
c ée</w>
erre urs</w>
wei te</w>
identi té</w>
F F
Fortsch ritte</w>
Platt form</w>
ier ter</w>
initi atives</w>
zu verlässi
besu chen</w>
war um</w>
dis che</w>
gel tend</w>
natür lich</w>
besser e</w>
Mod ell</w>
Grund satz</w>
en a</w>
pro vis
mitt l
Rechts ak
gno ire</w>
t ol
St or
sensi blement</w>
br as</w>
tou che</w>
sélectionn é</w>
b onnes</w>
P A</w>
G ü
An fang</w>
wirk ung</w>
erlau bt</w>
Einfu hren</w>
C enter</w>
fér er</w>
ver n
Vol ks
hei ßt</w>
fon dée</w>
Wel che</w>
lum in
AN D
S on</w>
fi bres</w>
err eich
Aus tr
War e</w>
UN E</w>
li s</w>
E B
Tit el</w>
procé der</w>
KM U</w>
milli ards</w>
Afri que</w>
sta g</w>
contrô ler</w>
Arch it
C C
ä ß</w>
install er</w>
maxim al</w>
M on</w>
A gr
di g</w>
Param eter</w>
H ause</w>
uni es</w>
E C</w>
ré vision</w>
all em
c aux</w>
défin ie</w>
si tz</w>
AN S</w>
it z</w>
pres que</w>
emball age</w>
reg istre</w>
Al tern
Innov ation</w>
s port</w>
Mein ung</w>
En ter
er vi
g yp
ci ble</w>
m einem</w>
emar k</w>
veu illez</w>
disponi bilité</w>
unser es</w>
trouv ent</w>
Det ails</w>
k er
sti eg</w>
größ ten</w>
Beg inn</w>
W er</w>
pou voirs</w>
è tre</w>
m ente</w>
nah me
engag ements</w>
maj orité</w>
bar re</w>
Kl asse</w>
B ack
z es</w>
J etzt</w>
amè tre</w>
chapi tre</w>
it ze</w>
M om
part age</w>
mög lichen</w>
consul ter</w>
siè cle</w>
terr oris
Be feh
d liche</w>
l eu
Ap ple</w>
no ir</w>
W i</w>
Me er</w>
particip er</w>
w anne</w>
as chen</w>
F lor
Re cher
ass embl
cour t</w>
ao ût</w>
j ahr
pho to</w>
W LAN</w>
K ultur</w>
schr ank</w>
Arb eiten</w>
An lagen</w>
Lu ft</w>
n our
arriv ée</w>
Fischer ei
Sch ad
regel mäß
tradi tion
r et</w>
wer ten</w>
dom in
Al so</w>
internation aux</w>
COM M
form ément</w>
stri c
verbun denen</w>
x is</w>
kan ischen</w>
fahr ens
Mul ti
R ad
Bo den</w>
ei m
ob tenu</w>
Teil en</w>
fonc tionne</w>
emplo is</w>
Vermö gens
électri ques</w>
Überein kommen</w>
ch s</w>
au ff
Menschen rechte</w>
ri ch</w>
Eff izi
fil tr
g ol
ger en</w>
Ph ase</w>
Vis u
einschlä gigen</w>
ungs verfahren</w>
médi as</w>
k ol
cro is</w>
Mut ter</w>
N ich
m als</w>
tig keits
Bes onder
Aut o
Schl uss
um entation</w>
y au</w>
c e
a dul
A dr
d ates</w>
di vers</w>
c lin
Ty pe</w>
autoris é</w>
con férence</w>
mala dies</w>
her aus
För der
En tr
effectu ée</w>
G EN
conna ître</w>
allgem eine</w>
verfüg baren</w>
weis ungen</w>
Met all
particip ants</w>
t axe</w>
Vide o
véri fication</w>
appropri ée</w>
et tre</w>
bestimm ungen</w>
diver ses</w>
hinzu gefügt</w>
renouv el
rah men</w>
Lor squ</w>
g keits
strat eg
pro chen</w>
D inge</w>
Übertrag ung</w>
ig nor
olog ne</w>
Str e
an i
b all</w>
ban ques</w>
TF UE</w>
di o</w>
soci ales</w>
Gegen stand</w>
revê tement</w>
et age</w>
di agnosti
K e
lös en</w>
p at
größ er</w>
ic k</w>
Aff i
J é
Th e
trans formation</w>
N iv
inform atique</w>
lan gues</w>
H ig
bes itzt</w>
Beschäf tigung</w>
trai tés</w>
ré sou
tes ts</w>
associ és</w>
terr ain</w>
unmittel bar</w>
simil aires</w>
S oll
mal er
ge k
V enti
eu en</w>
k ennen</w>
L it
front ali
li vre</w>
be ob
lich em</w>
N eben
ir a</w>
L eg
p auv
ot o</w>
ber n</w>
Anpass ung</w>
f arb
P ul
an moins</w>
erfol greich</w>
détermin ation</w>
T Z
professionn el</w>
H or
s ang</w>
avant age</w>
adap ter</w>
aussch uss</w>
enn ung</w>
R S</w>
finanzi elle</w>
entwick lung</w>
Zwisch en
DV D</w>
int elli
gen te</w>
F abri
v res</w>
dis cus
p unkte</w>
tro m</w>
requ is</w>
Re guli
au quel</w>
ty p
be ur
pharmac eu
Transpar enz</w>
Er füllung</w>
angemess ene</w>
pri orité</w>
gu ide</w>
be zeichnet</w>
B ut
princip ales</w>
A V
Mich ael</w>
ch auss
limit er</w>
inten tion</w>
ar mes</w>
cré dits</w>
au sch
enseign ement</w>
idé al</w>
v aiss
än derung</w>
Er d
Qu er
gl y
déb it</w>
int érieure</w>
gesch äf
inter essi
W o</w>
s eiten</w>
Met hoden</w>
D oc
hal t
Aspek te</w>
indi quer</w>
fer met
Farb en</w>
Wir d</w>
Verhand lungen</w>
prä sen
Fr anc
F E
r é</w>
Fahrzeu g</w>
détermin é</w>
Bus iness</w>
BE I</w>
mont age</w>
dis par
fi li
as en</w>
h ab</w>
de venir</w>
caf é</w>
Ch i
Sch u
ger ufen</w>
för der
Ein stellung</w>
zuständi ge</w>
ap pe</w>
Gebäu de</w>
j ün
qu arti
so dass</w>
commen cer</w>
be achten</w>
A gen
di pl
zu vor</w>
Fl ach
es e</w>
visi ons</w>
bre chen</w>
verbesser t</w>
L andes</w>
Woh nung</w>
di c
ö m
h a</w>
pourr a</w>
t on
gesetz ten</w>
S ar
limit ée</w>
wil lig
Dis k
présent ent</w>
sy mbo
is ées</w>
Dem okrati
Nach richten</w>
ück en</w>
di e
fäl lt</w>
cop ie</w>
Ein heit</w>
Cli ent</w>
f our</w>
UN I
Studi en</w>
médec in</w>
qu alität</w>
Investi tions
ther mo
G A
Sch we
Bade wanne</w>
ver fol
sig ne</w>
contr e
lie gende</w>
L ig
Schn itt
vor an
Bul gar
St atisti
crip t</w>
gen ü
P res
Fo tos</w>
Sit zung</w>
Erfahr ungen</w>
D S
um ul
k ammer</w>
fourn iture</w>
fact ur
télé charger</w>
bes ag
ai me</w>
carb on
kauf s
man que</w>
agri coles</w>
is tique</w>
o vi
ess ais</w>
c ab
bereit gestellt</w>
pou ss
ier e</w>
Auf trag</w>
part ner</w>
dét ail</w>
Be darf</w>
F S</w>
flu ide</w>
défi s</w>
commerci aux</w>
us tr
angl ais</w>
Kon zentr
gu id
fédér ation</w>
Am ts
rédu it</w>
Mon sieur</w>
regel mäßig</w>
R E</w>
Be trei
K ultur
v endre</w>
ange wendet</w>
T ext
fer m
sprech ung</w>
h eu
Y ou
réguli èrement</w>
effic aces</w>
betroff ene</w>
Ord ner</w>
griff en</w>
wahrschein lich</w>
zu fügen</w>
ch ino
titu l
V it
Gel e
ch mal</w>
incl us</w>
schließ t</w>
all ant</w>
enti ss
tim ents</w>
ver waltung</w>
dé placement</w>
donn ée</w>
on g</w>
rüst ung</w>
su che</w>
regar d</w>
associ é</w>
Smar t
b it
tionn ement</w>
l ou
Führ ungs
radi o
ar es</w>
c ie</w>
main tien</w>
val oir</w>
pr êts</w>
ausgewäh lten</w>
sur faces</w>
v end
ra d</w>
ni es</w>
k ing</w>
è ce</w>
spr ache</w>
all emand</w>
co des</w>
Um ständen</w>
Ar m
künf te</w>
li re</w>
déclar é</w>
cher ch
Vertr et
N acht</w>
beru f
k ung</w>
ent schie
mani fest
I denti
vor läu
hô tels</w>
angefocht enen</w>
k ö
eil le</w>
gn issen</w>
Ac tiv
ge tragen</w>
mo tiv
z ählen</w>
k örper</w>
f um
Über eins
s av
vi vre</w>
v ain
co opér
Studi o</w>
M as
S C
O ri
St e
N ationen</w>
ô mes</w>
al d</w>
fig ure</w>
tri b
inn t</w>
natur el</w>
erhö ht</w>
at oren</w>
benö tigt</w>
c on</w>
franç ais</w>
W ill
im es</w>
ap port
comport ement</w>
ein t</w>
bi ais</w>
t al
kor re
n am
ér ateur</w>
dar stellen</w>
trans form
Kapit al
bestä tigt</w>
nation aler</w>
tä tig</w>
g l</w>
ge prüft</w>
Orig in
ein stellungen</w>
pl ais
su d</w>
ten eur</w>
par fois</w>
str ei
mand at</w>
T P</w>
L ad
compati ble</w>
QU ES</w>
region alen</w>
souhai te</w>
val u
regel n</w>
Ver tei
U TI
mög liche</w>
L im
vou dr
Internation al</w>
poly m
sp an
Sch war
S eu
tiv ität</w>
w esen</w>
propos é</w>
terr an
ordin ateurs</w>
l ait</w>
Ser ver
Vor lage</w>
Aus druck</w>
M es
We ge</w>
behand lung</w>
wich tigen</w>
C i
Ro bert</w>
D C</w>
Ges etz</w>
T ra
am er</w>
Inter ess
An erkennung</w>
Terr asse</w>
Erfol g</w>
Infrastru ktur</w>
ge z</w>
administr atives</w>
er fasst</w>
préal able</w>
N at
tex t</w>
erwar tet</w>
prév us</w>
récup ération</w>
hö chst
m ens</w>
b rev
progr essi
reç o
besch äf
v ar
ü bung</w>
C re
Bes uch</w>
Zus atz
F R</w>
é rés</w>
fabric ant</w>
Arznei mittel</w>
Um wel
R ES
col or
bai gnoire</w>
Spiel er</w>
Sch rif
A l</w>
administr ative</w>
Sy mbo
D A</w>
öff nung</w>
M äd
camp agne</w>
F requ
B A
M ün
T U
sup pression</w>
zu legen</w>
al em</w>
si ert</w>
Schwi er
b ahn
un dert</w>
em enten</w>
a x</w>
li é</w>
hal tet</w>
l eiten</w>
ä ur
fer tigt</w>
B is</w>
modifi ant</w>
av ance</w>
Berech nung</w>
O P
R oll
di ge</w>
distin c
fer ro
p oll
g eur</w>
étran ger</w>
nor me</w>
ff e</w>
Instr umente</w>
cham ps</w>
P har
stär ker</w>
wo durch</w>
mo bilité</w>
f au
sch rift</w>
direc tives</w>
H en
O r</w>
er ter</w>
Sch ei
k lu
pré occup
getr offen</w>
scientifi ques</w>
Con formément</w>
Kir che</w>
ré forme</w>
défin ies</w>
Bas is
ent lang</w>
B as</w>
vertr au
H I
propor tionn
l l</w>
CH EN</w>
ers etzt</w>
sol eil</w>
W h
vo ix</w>
er geben</w>
um ent
modifi ée</w>
in age</w>
T O</w>
considér ation</w>
op pe</w>
destin ées</w>
F ut
déc ouvrir</w>
kosten los</w>
eigen es</w>
re fl
genann t</w>
télé ph
g o</w>
F ö
c el</w>
t ac
ränk ung</w>
commerci ale</w>
it h
S ant
Recht sprechung</w>
gen ug</w>
an dée</w>
ä r</w>
J our
l enst
offici el</w>
crip tions</w>
cap able</w>
rég ul
Allgem einen</w>
glau be</w>
Kl ein
Ha ar
bas es</w>
ie te</w>
gu ten</w>
aut omo
E st
z ahlung</w>
Musi k</w>
plor er</w>
t ables</w>
exécu ter</w>
mo biles</w>
Ver letz
in qui
ser aient</w>
w eit
schaf tlichen</w>
norm ale</w>
on gl
cons eils</w>
war d</w>
â g
tier ung</w>
Ab schn
Th emen</w>
ger ech
unterschied liche</w>
it ter</w>
z ierungs
s ep
agri cole</w>
Sonn en
pr on
con version</w>
syn th
ver gleich
Kommunik ations
abhängi g</w>
Flä che</w>
ver treten</w>
groß er</w>
PRO DU
Feh ler
tinu ier
Gä ste</w>
kl einer</w>
Sch reib
ab sch
v ont</w>
TE UR</w>
L y
ück e</w>
Vor gang</w>
arb re</w>
ver li
t nis
M C</w>
it n
pres s</w>
zurück zu
hé si
r ac
m y
F as
ver se</w>
ger ne</w>
richt linie</w>
résou dre</w>
no ter</w>
men ge</w>
l abor
Bel gique</w>
Ob jet</w>
spr icht</w>
centr es</w>
it ez</w>
ex pression</w>
ab kommen</w>
réf rig
w n</w>
Gemeins amen</w>
et es</w>
ég ét
Ver fahrens
Zus timmung</w>
att ach
vol s</w>
uni on</w>
Medi en</w>
e hr
errei ch</w>
V O
M and
s ü
di amètre</w>
défin is</w>
tern el</w>
zahl reiche</w>
ap parti
en g</w>
erzeu gt</w>
appar aît</w>
re ag
Bi o
Erwä gungs
am b
Jé sus</w>
ü chen</w>
C AR
vi de</w>
g ungen</w>
Finanz ierungs
hö r</w>
eb enso</w>
con fort</w>
er in</w>
mit hilfe</w>
agri culture</w>
condu it</w>
organ es</w>
we g
Grund sätze</w>
struc tures</w>
aktu elle</w>
difficul tés</w>
C a
Ban que</w>
si di
s amm
M ême</w>
dan ger
con verti
kräf te</w>
zeich nis</w>
Arz t</w>
vers ehen</w>
juris prudence</w>
Nutz ungs
Be fu
Veröffent lichung</w>
essenti ellement</w>
al uminium</w>
HER STELL
br anche</w>
jo int</w>
rich tigen</w>
D ek
verwend eten</w>
Je der</w>
proven ance</w>
stand s
Vide os</w>
collec tion</w>
M iss
an schließend</w>
individu elle</w>
je k
pann eau</w>
pour cent
l é
Ho st
br eite</w>
dép ôt</w>
l d</w>
flexi ble</w>
le ver</w>
T emp
Aut omati
nied ri
Kompon ente</w>
tri que</w>
ô m
aufge führten</w>
A I
f ille</w>
angebo ten</w>
zun ächst</w>
Land wirtschaft</w>
c tur
gen re</w>
B re
r ê
entre tien</w>
déb at</w>
alt ungen</w>
m ass
For men</w>
S port
dé rog
Je de</w>
be arbeiten</w>
Angebo te</w>
k le
P eter</w>
Bei m</w>
to x
G N
w us
b é</w>
B ar</w>
ass emb
Fle xi
ein gerichtet</w>
r end</w>
tor y</w>
betreff end</w>
Bestell ung</w>
an forderungen</w>
fäl len</w>
therm ique</w>
lo gement</w>
vol ont
C TION</w>
unter schei
parten aire</w>
él ég
m il
pr eis</w>
el la</w>
M aschine</w>
Gehäus e</w>
w agen</w>
r auch</w>
Rè glement</w>
v égét
e gen</w>
garanti es</w>
d einer</w>
wech sel
get an</w>
J ames</w>
plani fication</w>
Nav ig
ge öffnet</w>
u x</w>
ti cs</w>
Z o
am pli
Tr ag
Ab sch
connec té</w>
Aus führung</w>
enten du</w>
hän gen</w>
ét o
Am érique</w>
be trag</w>
t aires</w>
Rechtss ache</w>
f el</w>
l ave</w>
ré alité</w>
Ex change</w>
on ni
Europ as</w>
vor genommen</w>
Av ant</w>
des cription</w>
Z ahlung</w>
rie g</w>
Er kenn
Out look</w>
in du
Gew in
C N
zahl t</w>
éco le</w>
Cert ains</w>
inform ationen</w>
des dites</w>
Kon fli
m assi
ver ständ
bat terie</w>
st a</w>
Hy dro
ban que</w>
M eine</w>
Tier e</w>
fru its</w>
on d</w>
représent ent</w>
iss age</w>
Gl as
Entschließ ung</w>
r y
fédér ale</w>
grenzüber schrei
con soli
wer t
toil ette</w>
l our
Mar i
lo is</w>
wei ten</w>
wirks am</w>
ä ger</w>
l o</w>
part ager</w>
syst ém
pl ate</w>
gesch ützt</w>
in er</w>
per fek
cou pe</w>
ver t</w>
elektron ischen</w>
ch ter
auf geführt</w>
préc ision</w>
Cho is
infr action</w>
Übereins timmung</w>
dynam ique</w>
vo te</w>
Zahl ungen</w>
erhäl tlich</w>
résul tant</w>
be darf</w>
N un</w>
Öffent lichkeit</w>
Besch wer
Telef on</w>
t au
requ ête</w>
Be fes
rubri que</w>
l ons</w>
sat elli
De finition</w>
observ ations</w>
Sach ver
vidé os</w>
off izi
dar um</w>
interprét ation</w>
itt s
gratu its</w>
M IN
Aufent halt</w>
K eine</w>
in i</w>
stell te</w>
long itu
zusätz lich</w>
Instr ument</w>
délég u
im ag
l y</w>
Con fédération</w>
gratu itement</w>
Tür k
conn ue</w>
C o</w>
C eci</w>
utilis ent</w>
An gabe</w>
loc ale</w>
t ap
Pra xis</w>
Gri ech
ck s</w>
verst anden</w>
fermet ure</w>
sch war
Po ten
c élè
Su ch
Änder ungsan
con dam
V E</w>
Bo den
Ak tivi
m ains</w>
betreff ende</w>
kon tinuier
einzi gen</w>
î le</w>
gesell schaften</w>
glob al</w>
spéci al</w>
netto yage</w>
Ander e</w>
gesch affen</w>
iv er</w>
Mitt eln</w>
R et
G U
To p</w>
der zei
ges sen</w>
un a</w>
voll en</w>
établi e</w>
por tieren</w>
por tu
Famili en
Staat san
i ement</w>
Aust ausch</w>
agn es</w>
quanti tés</w>
iti é</w>
Stand ards</w>
propri étaire</w>
ver lor
ander s</w>
vari able</w>
K auf
Män ner</w>
ober en</w>
Et at</w>
incl ure</w>
isch em</w>
propos er</w>
Er hö
nachhal tige</w>
ré sine</w>
suscepti ble</w>
sch ä
t ö
T wit
Su per
stand ards</w>
Do ch</w>
Déc ouvrez</w>
erklär en</w>
Binnen markt</w>
actu elles</w>
périph érique</w>
ten ue</w>
at mosph
inclu t</w>
chim iques</w>
Fahrzeu g
ein geb
ü r</w>
Institu t</w>
b an</w>
Öst erreich</w>
b é
Drittan bietern</w>
um gesetzt</w>
schwi eri
Dat ei
ab gel
s embl
H D</w>
Grou p</w>
Re du
eu e</w>
ins cription</w>
an ie</w>
lar geur</w>
G ut
S P</w>
is és</w>
zei traum</w>
transi tion</w>
r i</w>
digit alen</w>
Gem äß</w>
compl exe</w>
dat ei</w>
Beur teilung</w>
iss ante</w>
es ch
diff us
äus er</w>
refro id
Überwach ungs
ei dung</w>
laiss er</w>
t ag</w>
beg innen</w>
Schlüss el
ent gegen
bâ timent</w>
s é</w>
kom pon
ajou tée</w>
EI B</w>
ver arbeitet</w>
bi blioth
domm ages</w>
man agement</w>
Mét hode</w>
ré di
audi o</w>
Kom pl
onn age</w>
fr au
W ein
ver sions</w>
r ur
D enn</w>
trans vers
f ais</w>
zi p</w>
am our</w>
par c</w>
Aus bildung</w>
Aus übung</w>
g ne</w>
vér itable</w>
Verfüg barkeit</w>
geeign ete</w>
eb e</w>
Medi kam
épo que</w>
b le
Schluss fol
x elles</w>
cap teur</w>
vor gelegt</w>
Re aktion</w>
Wirtschafts zwei
comm and
Al ter</w>
Con di
O ù</w>
Wech sel
rè gl
W ort</w>
M ein</w>
le aux</w>
as su
b ank
Par tie</w>
esp agno
bein haltet</w>
install é</w>
trans actions</w>
zeich nungs
ange wand
p pe</w>
F ri
onn é</w>
ro t
vol on
ange passt</w>
imm ern</w>
funktion iert</w>
direc trices</w>
kä mp
Im mobili
üh m
régl age</w>
u cht</w>
letz te</w>
Berichter stat
natür lichen</w>
gegen sei
pay er</w>
anges ichts</w>
permet tra</w>
mag ni
atten te</w>
gr an
Kon sult
d einem</w>
äu fer</w>
ferro vi
ons es</w>
peu ple</w>
Bru xelles</w>
n s</w>
nah m</w>
r at
Sit z</w>
er ez</w>
brau cht</w>
b elle</w>
K ons
susp ension</w>
Erweiter ung</w>
F lo
Au gen</w>
exer cer</w>
stratégi es</w>
ru h
r ons</w>
ge kommen</w>
produ kten</w>
an lagen</w>
par ents</w>
Restaur ants</w>
ren voi</w>
H um
ver län
htt p</w>
So li
alk yle</w>
vollständi ge</w>
E EE</w>
No m</w>
utilis ons</w>
ord nungen</w>
y p</w>
S ili
ann ab
scientifi que</w>
Pers onal</w>
tr aums</w>
con ven
Si ehe</w>
d on</w>
four nis</w>
longitu din
St euerung</w>
de vient</w>
Ger ichts</w>
N ord
m eu
Mod elle</w>
répar ation</w>
B rem
a isons</w>
b eu
Lieb e</w>
über mitteln</w>
cou p
sta at</w>
k ation</w>
as trop
Präsi denten</w>
hin ter</w>
lie fern</w>
extrê mement</w>
ein ten</w>
gestell te</w>
Bewe gung</w>
Dat a</w>
is iert</w>
Wieder her
über prüft</w>
bil det</w>
idé es</w>
dem ment</w>
Thom as</w>
Op tim
Tr ain
C L
S and
ä ft</w>
zu folge</w>
Wirk samkeit</w>
Protok oll
p én
prior ités</w>
acqu isi
Isra ël</w>
on de</w>
inst ance</w>
f éli
fa ch</w>
uti les</w>
angem essen</w>
s por
oxy d
inform er</w>
commenc é</w>
en der
n ord</w>
b all
lo t</w>
S um
ci bl
IS SION</w>
finan c
effectu ées</w>
intég rée</w>
pré voir</w>
europ a</w>
appréci ation</w>
l aser</w>
rec ettes</w>
V éri
eingesch rän
ann ulation</w>
Russ land</w>
geh oben</w>
ber eiche</w>
kl ein
Ajou ter</w>
e fon
l aut</w>
stru ction</w>
li té</w>
encour ager</w>
Sp éci
ho her</w>
st e
fik ationen</w>
zulässi g</w>
KO M</w>
adap té</w>
atri ème</w>
ajou té</w>
it ts</w>
Gar ten</w>
pf lan
appro bation</w>
ic s</w>
gro s</w>
berech net</w>
dat en
Kontr ollen</w>
di minu
carbur ant</w>
prés entes</w>
hydr au
Trans port
Hö chst
ben ach
Fil m</w>
Ges ell
Mäd chen</w>
Ant wor
im mer
rou ge</w>
zu greifen</w>
réalis és</w>
der selben</w>
mont ants</w>
d ah
situ ations</w>
wslet ter</w>
Strat e
sons tigen</w>
Hinter grund</w>
hydro gène</w>
trai tées</w>
p tion</w>
bil dungs
ti tres</w>
Z ü
Er stellung</w>
c ur
w ay</w>
acr y
Reg ister
betreff en</w>
E isen
Re ise</w>
er greifen</w>
Str and</w>
A D</w>
gegen wär
it ation</w>
commerci al</w>
compr ise</w>
Comp te</w>
si eren</w>
alis ieren</w>
hö her</w>
G RA
Wes entlichen</w>
Effizi enz</w>
initi ale</w>
réalis ée</w>
An ordnung</w>
consomm ateur</w>
B ahn
for ces</w>
Fak toren</w>
intel lig
H ard
cons entement</w>
ord s</w>
possi bles</w>
Temper atur
couver ture</w>
au to
Vo m</w>
m ern</w>
vari été</w>
Stell ung</w>
cell ule</w>
alis iert</w>
ständi g</w>
préc ise</w>
An schluss</w>
do s</w>
is su
ausreich end</w>
priv ées</w>
complè tement</w>
inform ieren</w>
Soh n</w>
priv ate</w>
nah e</w>
v ê
as tr
beein fl
Gr enzen</w>
H alt
hydro xy
ätz ung</w>
gest ützt</w>
lauf enden</w>
en di
Unter ab
M arti
suffis ante</w>
en land</w>
form ationen</w>
l ette</w>
fl éch
erleich tern</w>
schl uss
Aut orité</w>
ré fér
ré mun
A b</w>
fai tement</w>
Di alog</w>
ri ebenen</w>
gegeb enen</w>
séqu ence</w>
S D
W un
wor k</w>
ver lassen</w>
di ction</w>
si l
climati que</w>
Dat ens
wer ke</w>
ausdrück lich</w>
J av
F RA
rei cht</w>
ö k
F eu
pf ung</w>
s ser
h on
L ev
ali gn
aktualis iert</w>
d ler</w>
Vertragspart eien</w>
Z UM</w>
idi té</w>
dé g
schl agen</w>
tri x</w>
d ingt</w>
Ein fluss</w>
n den</w>
Hol z
die jenigen</w>
T est</w>
künf tigen</w>
anc er</w>
Mon at</w>
Z iff
av oc
Au tres</w>
Ver rin
popul aire</w>
méc an
ci um</w>
notwendi gen</w>
mo tif</w>
Ti ck
H än
gen heiten</w>
An gele
g keiten</w>
cat aly
A min
einfa chen</w>
on ique</w>
ver letz
T RO
gelö scht</w>
recht liche</w>
G E
accro ître</w>
rép onses</w>
gratu ite</w>
G ER
pass ant</w>
Au x</w>
Früh stück</w>
star ten</w>
n te</w>
Geb ur
lich st</w>
verschie den
ag ée</w>
fact eur</w>
Kom pet
ges und
größ te</w>
über zeu
w ün
W ol
ann ten</w>
bes timmen</w>
mécanis mes</w>
E del
oll ar</w>
épa isseur</w>
visit eurs</w>
Co okie</w>
tier ten</w>
Werk zeu
an gebracht</w>
sch ü
ad s</w>
blo c</w>
ver d
Kop f</w>
sem i</w>
er ons</w>
ti ens</w>
dem okrati
Beschwer de
Ins el</w>
ar omati
introdu it</w>
verk nü
et ten
g ünsti
pour suivre</w>
elektr ischen</w>
l ern</w>
V iele</w>
conserv ation</w>
man ger</w>
er gibt</w>
uni vers
dan ken</w>
th i
Speich er</w>
Jus ti
si erung</w>
contac ts</w>
Tou te</w>
Zertifi k
Koh lenst
ph en
o des</w>
par faitement</w>
Con figur
e gel
T ie
Schwier igkeiten</w>
Got tes</w>
sp ection</w>
Gr èce</w>
Gewi cht</w>
tin g
rel ativ</w>
Wider spr
Twit ter</w>
in dispens
Gebi eten</w>
re j
cal end
S ans</w>
Ber ichte</w>
bean trag
St and</w>
pourcent age</w>
ar me</w>
Part ei</w>
jou eurs</w>
Beru fs
Ale x
priv il
p â
Regel ungen</w>
Zul assung</w>
Sü d
tri che</w>
C S</w>
judici aire</w>
con f
un er
säm tliche</w>
fäh igen</w>
Stär kung</w>
caract ères</w>
W issen</w>
f ant
W ür
Willi am</w>
par am
ret ard</w>
pré fér
S ank
gs weise</w>
compar aison</w>
destin ée</w>
publi é</w>
trans mettre</w>
professi on
mar che</w>
A kt
ar bi
extern es</w>
l ac
hum ain</w>
Schlaf zimmer</w>
Tag es
t ter</w>
erheb lich</w>
grö ße</w>
rich tige</w>
S em
dép end</w>
ff et</w>
Initi ativen</w>
ergi es</w>
cli mat</w>
cul aire</w>
SYSTE ME</w>
emp fin
po l</w>
de gré</w>
C ES</w>
r isi
sel bst
ab ges
f ung</w>
rapp elle</w>
ü ben</w>
fr anc
M r</w>
k ul
T a
Sch nei
ob wohl</w>
au ßen</w>
exist ants</w>
ic a</w>
dossi ers</w>
vor stehenden</w>
ren du</w>
be ab
liss ement</w>
K lei
ten en</w>
suff it</w>
förmi gen</w>
num ériques</w>
institu tion</w>
regel ung</w>
Kühl schrank</w>
schw er</w>
vorzu gsweise</w>
ber ühm
li ée</w>
té mo
stand s</w>
compr im
Fol gendes</w>
Ent wurf</w>
sp ät
garanti ss
Fahrzeu ge</w>
embour g</w>
ul l</w>
Gr and</w>
act eur</w>
Beschäf tigungs
aff t</w>
cou ches</w>
se par
Be dien
territ ori
verkehr s
et o
Qu i</w>
as tique</w>
beschrän kt</w>
M ER
es tens</w>
h t
Auf bau</w>
em als</w>
m iss
il lég
L AN
dies el
p eine</w>
mög lichst</w>
oc cu
Enter prise</w>
re pas</w>
alis ée</w>
octro i</w>
rév él
Empfeh lung</w>
d ank</w>
UR E</w>
Be grün
Nor men</w>
qu atrième</w>
équili bre</w>
pos ant</w>
durch zuführen</w>
be gl
rembour sement</w>
t op
ü mm
Sk y
tu de</w>
plate forme</w>
Mer ci</w>
Lin ks</w>
S eri
An ges
pré hen
compéti tivité</w>
Pro fil</w>
réc emment</w>
Cham bre</w>
aux quels</w>
maler weise</w>
pl af
funk tion</w>
ém a</w>
éch app
vol ution</w>
ap eu
w w
bar es</w>
P ack
Stand punkt</w>
pass agers</w>
Tu be</w>
be hör</w>
K abel</w>
appel é</w>
mus st</w>
Gr up
réci pi
L S</w>
vi e
ver walten</w>
Ver einten</w>
pertin entes</w>
cour rier</w>
Her zen</w>
tr ot
intern es</w>
EZ B</w>
proch aine</w>
Ge walt</w>
ach se</w>
métalli que</w>
fonctionn alité</w>
oblig atoire</w>
au rez</w>
ali täten</w>
n a</w>
unter liegen</w>
fest legen</w>
régi onal</w>
gelö st</w>
acc essoires</w>
An dre
St art</w>
D ri
dou te</w>
Ir lande</w>
pos ent</w>
emp fehlen</w>
R au
sou tient</w>
pen sion</w>
n ame</w>
Auf grund</w>
ori entation</w>
han di
c ach
m ak
mati n</w>
itali en
r and
r ent
v ap
Geb rauch</w>
Protok oll</w>
réuni ons</w>
CA TION</w>
versch i
O s
Clu b</w>
ar y</w>
L am
ban ken</w>
D ét
prépar er</w>
pr ennent</w>
Gele genheit</w>
alis é</w>
P unkte</w>
glau ben</w>
personenbezo gener</w>
Mus eum</w>
Am ster
besch rieben</w>
gen au
ier enden</w>
publi cité</w>
om b
Bem üh
zäh lt</w>
vo is</w>
physi ques</w>
pf lich
déplo iement</w>
ress ortiss
Empf änger</w>
f a</w>
Men gen</w>
esp aces</w>
Türk ei</w>
étudi ants</w>
yst em</w>
hil ft</w>
installi eren</w>
st ati
w asser</w>
Men ü</w>
des c
h angs</w>
ens wür
ä fen</w>
Ass embl
qu ie</w>
Öff nung</w>
dat um</w>
F ar
arri ve</w>
benutz t</w>
S ing
analy tiques</w>
A T</w>
str eng
Kr ise</w>
M au
soli di
è lement</w>
PO LY
ig ung</w>
b ag
Lux embourg</w>
bil d
pho sph
ge worden</w>
simul tan
h au
opér ateur</w>
rap porteur</w>
erforder t</w>
ww w</w>
communi quer</w>
bour g</w>
è dent</w>
wär en</w>
Fäl le</w>
im possible</w>
betei ligt</w>
ver folgen</w>
ch ôm
feu illes</w>
Downlo ad</w>
sch wei
Garanti e</w>
It ali
économ ies</w>
Trä ger</w>
di min
wir st</w>
exist ant</w>
g an</w>
Mar ken</w>
Pfle ge
P N</w>
E P</w>
tiss u</w>
si n</w>
Be trifft</w>
Inte gr
en vel
in cit
C B
ge zogen</w>
benutz en</w>
act ez</w>
ô ts</w>
compens ation</w>
DI E</w>
déc len
fest zustellen</w>
co hésion</w>
Dritt ländern</w>
in jection</w>
per tes</w>
en es</w>
accor der</w>
ass ure</w>
unver züglich</w>
Niv eau</w>
is p
démar rage</w>
mé lan
eff ici
R ä
accessi ble</w>
for table</w>
br an
Mon it
ti k</w>
P ort</w>
gerä um
Tur quie</w>
Del eg
éc ar
d ge</w>
Da zu</w>
héber gement</w>
chiff res</w>
discrimin ation</w>
besch l
den s
B and
tä glich</w>
S atz</w>
ä ssi
e qu
D ès</w>
Eur atom</w>
S a</w>
Teil nahme</w>
erhö h
bring ung</w>
ari o</w>
quali t
ég ale</w>
K lage</w>
é rées</w>
Har mon
T RI
cr ist
cher s</w>
Em issionen</w>
multi ples</w>
p pen</w>
absor b
ex ig
servi r</w>
exist antes</w>
éris ation</w>
pri me</w>
ge is
einfa che</w>
dre h
poss é
Char les</w>
h enti
aci des</w>
re ise</w>
O li
Lebens mittel</w>
b ü
af en</w>
ts äch
Institu tionen</w>
vo itures</w>
deck ung</w>
H ome</w>
Teil nehmer</w>
vertr et
vi ce</w>
ss tr
A li
ti ef
ig es</w>
Ver sto
Ab stand</w>
port able</w>
k el
erzi elt</w>
cl air</w>
Fr em
H Y
certifi cation</w>
appr entiss
tir é</w>
reven us</w>
St ation</w>
I B
wer tst
entschie den</w>
sensi ble</w>
In kraft
Mar ia</w>
gr ad</w>
griff s
Lo gi
Ex cel</w>
gleich s
über nehmen</w>
Mon tr
ess er</w>
ongl et</w>
hab t</w>
autoris és</w>
ma zeu
men er</w>
s ait</w>
usamm enf
inv es
Be ob
const ante</w>
vi ens</w>
accor dée</w>
LI CHE</w>
Wirtschaf ts</w>
ent stehen</w>
kontak tieren</w>
cher n</w>
ch ir
för derung</w>
größer e</w>
europä ischer</w>
acqu is</w>
Ad ap
mon o
fes te</w>
Donn ées</w>
tu t</w>
éclai rage</w>
G én
li eben</w>
W asch
Stoff e</w>
S port</w>
g re
conform es</w>
indic ateurs</w>
K a
pl antes</w>
adap tation</w>
quarti er</w>
C er
G B</w>
Nom bre</w>
is tres</w>
P endant</w>
Analy tics</w>
D ritten</w>
multi pli
f usi
be wahr
j emand</w>
füh l</w>
Rechts mittel
Wettbewerbs fähigkeit</w>
réparti tion</w>
Z ellen</w>
pl em
Fil ter</w>
Stand or
adress es</w>
pi vo
dési r
nor mal</w>
en ver
exclu sion</w>
m issions</w>
oc c
ständi gen</w>
W C</w>
and a</w>
compr om
influ ence</w>
ver sucht</w>
emper atur</w>
grund s
At tribu
ann es</w>
Fern seh
Sta ats
Bestand teil</w>
zu frie
Fäh igkeit</w>
asi le</w>
erstr eckt</w>
wich tiger</w>
benutz er
volon té</w>
Ser ie</w>
exclusi vement</w>
industri elle</w>
onn ée</w>
EW R</w>
stär ken</w>
Au triche</w>
comment aires</w>
wor fen</w>
Unter lagen</w>
p fen</w>
Überein kommens</w>
Anzei ge</w>
M aschinen</w>
land s</w>
Her stell
r d</w>
Liefer ung</w>
hum ains</w>
zi g</w>
p ft</w>
Hoh eits
guid age</w>
er läu
st adt</w>
Disk us
MI T
Su ite</w>
voll er</w>
ber s</w>
Archit ek
aur aient</w>
einzel ne</w>
S amm
sy mpt
zu gr
comm ence</w>
fu gi
bis her</w>
exter nen</w>
lan gt</w>
enti el</w>
lo ss</w>
t d</w>
uch s
Ob wohl</w>
Öff nen</w>
fe kt</w>
élev és</w>
ser ez</w>
vorläu fi
sch ön
compos és</w>
in vention</w>
san ctions</w>
EU RO
i ons</w>
li a</w>
Verrin gerung</w>
üss el</w>
gesch i
I ER
pré venir</w>
S H
verab schie
ver langen</w>
Acc ess</w>
Trans port</w>
pl ant</w>
Sin d</w>
Koordin ierung</w>
den ke</w>
pro tok
ré ser
zentr alen</w>
ö l</w>
anci en</w>
lo ss
fass ungs
nehm ern</w>
dr in
psy ch
län ger</w>
Vor teil</w>
accep ter</w>
di rig
Indus tri
rec ouv
B rei
mo itié</w>
L iss
Viel falt</w>
pré voy
S eine</w>
cert aine</w>
hand eln</w>
V ier
tr än
Amster dam</w>
sta de</w>
L ab
IR E</w>
i cher
im pul
b ahn</w>
etw ai
D ynam
haup tsäch
Sch reiben</w>
Anmel dung</w>
enc re</w>
er teilt</w>
gef ör
effectu és</w>
et h</w>
r ad
gi ge</w>
chois issez</w>
A R</w>
ch ant</w>
Inv est
rel ève</w>
apprentiss age</w>
ci a</w>
Komm ent
Sti l</w>
fisc ale</w>
st ets</w>
ati ne</w>
det ailli
op position</w>
T en
conn us</w>
bil lets</w>
k u
Des cription</w>
steh ende</w>
ist ent</w>
For t
aut hentifi
spezi ell</w>
Bel gien</w>
wel chen</w>
radi o</w>
eh er</w>
em pl
restaur ants</w>
beg innt</w>
év ent
ac compli
Nation al
natür liche</w>
pourr ont</w>
P op
différ ent</w>
s ens
dés activ
Wer bung</w>
indem n
To ols</w>
dimen si
besteh end</w>
g agn
pouv ait</w>
Kon z
Tro ck
è n
hin zu</w>
empfoh len</w>
Stra ße</w>
Dire kt
Qu el</w>
ex is
y an
schö nen</w>
tour n
n ey</w>
N acht
Bedürf nisse</w>
lar gement</w>
kon ver
Grou pe</w>
dép endant</w>
Lag er
candid ats</w>
durch führen</w>
décri t</w>
fix er</w>
lan gs
con struc
appro fon
um mer</w>
seu il</w>
rec y
om é
fi ée</w>
kon kr
gen omm
activ es</w>
elektron ische</w>
Konfigur ation</w>
be vorzu
Con vention</w>
an gesehen</w>
dau ert</w>
ain ement</w>
fon dé</w>
Jos ep
Sig nal</w>
Per form
jähr lich</w>
er m
Be griff</w>
inf ec
Be kann
cam ér
zer tifi
am ique</w>
am en
re trait</w>
vic times</w>
stratégi que</w>
P ré
Ak tionen</w>
voudr ais</w>
sal ari
P ologne</w>
Nach bar
chaî nes</w>
acquisi tion</w>
sch altung</w>
bâ timents</w>
v ues</w>
form ée</w>
S trom</w>
El tern</w>
bénéfici aires</w>
ég al</w>
F C</w>
W est
gar der</w>
dé du
trib utions</w>
ven us</w>
C ity</w>
französ ischen</w>
Antrag steller</w>
gouvern ements</w>
p eur</w>
ent end</w>
Vi elleicht</w>
B ra
Neu e</w>
contin u</w>
Nach dem</w>
ch ance</w>
arrê ter</w>
Al les</w>
ig ner</w>
attein te</w>
unter en</w>
établi es</w>
M ili
analy tische</w>
g ut
Versicher ungs
D EN</w>
Affi cher</w>
devr a</w>
l és</w>
w ettbewer
certific ats</w>
li eux</w>
tot alement</w>
Merk male</w>
fäh ig</w>
mar ge</w>
règl ements</w>
verur sa
C entr
en voi</w>
k oh
contr act
an ger
con tiennent</w>
dispos é</w>
UTI LIS
Geor ge</w>
appli quée</w>
Stad t
o ss
i an</w>
Mi gr
v alle</w>
S eh
tend ance</w>
B us</w>
g ou
ex cl
sep t</w>
be fu
trans frontali
ch ines
di ri
L td</w>
aus führ
wirks ame</w>
sign al
ktur en</w>
er enden</w>
Jour nal</w>
aktualis ieren</w>
k ein
Mehr wertst
Condi tions</w>
war ten</w>
gewäh lt</w>
Griech enland</w>
G A</w>
pl eine</w>
sépar ation</w>
aly sat
Hô tel</w>
ju ge</w>
produ ite</w>
D ritte</w>
d rei
as es</w>
m onn
grav es</w>
an ten
tr et
grav e</w>
il leg
da cht</w>
Fr ag
ré cl
par tement</w>
so bald</w>
h ü
stei gen</w>
ein heiten</w>
Lis bonne</w>
HERSTELL UNG</w>
si chten</w>
o tes</w>
tin ér
ain tes</w>
ü se</w>
erwar ten</w>
abili tés</w>
ordn ete</w>
passi ert</w>
én um
om e
fam illes</w>
will st</w>
Liss ab
Ab hängi
zugän glich</w>
w ander
geh ende</w>
Schalt fläche</w>
min istre</w>
appli qué</w>
Ber g
É C
trans port
Je des</w>
künf tige</w>
ay s</w>
Fir ma</w>
eti schen</w>
betra chtet</w>
combus ti
Tr ouv
frei heit</w>
Erzeu gung</w>
W ur
b and</w>
eh men
verursa cht</w>
dimen sions</w>
th ér
Klima anlage</w>
sor gt</w>
A qu
moder nes</w>
Main tenant</w>
Po ol</w>
A ir</w>
kür z
m ali
gere cht</w>
Deu t
c ens
is tiques</w>
qu ellen</w>
vain c
ver an
Str ei
Urlau b</w>
fi able</w>
F O
T im
Mo der
S C</w>
uni versi
h aft</w>
sa ison</w>
zw eck
je une</w>
zuge ordnet</w>
par alle
administr ateur</w>
pé tro
favor iser</w>
Sub st
Kateg orien</w>
st ö
lim ité</w>
X X
m essen</w>
Er de</w>
kat oren</w>
asch in
gef äh
relev anten</w>
éventu ellement</w>
nah m
enthalten en</w>
C le
P lä
sta te</w>
le un
w ann</w>
es sor</w>
min ist
d t</w>
expéri ences</w>
kon om
griff e</w>
Kop f
An hangs</w>
déclar ations</w>
R um
glob alen</w>
Besu cher</w>
w in
St euern</w>
erh af
Lond on</w>
zentr ale</w>
fa ch
demand eur</w>
S ens
Mit te</w>
ét age</w>
refroid issement</w>
st ahl</w>
Entwick lungen</w>
ver ein
In c</w>
éten due</w>
f requ
Jes us</w>
ver kaufen</w>
indi cation</w>
B S</w>
ap prendre</w>
Marti n</w>
ließ en</w>
kur z</w>
alco ol</w>
ein erseits</w>
ver lei
zuständi g</w>
Par ti
EIN ER</w>
UR S</w>
vo ient</w>
app els</w>
Compu ter
Auf sichts
umfass ende</w>
eign eur</w>
her vor</w>
cô tés</w>
relev er</w>
ec teur</w>
eu ert</w>
char d</w>
am in</w>
d ing</w>
v gl</w>
tru ctur
restri ctions</w>
uch s</w>
p ist
K auf</w>
d lich</w>
pl ante</w>
streng ungen</w>
E l</w>
I ran</w>
an geben</w>
h ex
Ver halten</w>
A z
er mittelt</w>
met tent</w>
Fi re
B CE</w>
spr ach</w>
Leb ens</w>
dat eien</w>
wieder hol
fest zulegen</w>
Best ä
Ko oper
St ör
der art</w>
A C</w>
rem placement</w>
let tres</w>
Elek tr
v illage</w>
dev ait</w>
autoris ations</w>
ts ch</w>
ativ er</w>
différ ences</w>
Gerichtsho fs</w>
Gesch le
schlä gt</w>
dienst leistungen</w>
déplac er</w>
démocr atie</w>
entraî ner</w>
plais ir</w>
Gewähr leistung</w>
hauptsäch lich</w>
ré fugi
flä chen
Vo ici</w>
nomm é</w>
simp les</w>
Frei heit</w>
ad em
N am
tier te</w>
dis ques</w>
st y
Schl uss</w>
plat ten</w>
Entschei dungs
oll er</w>
ko ordin
inter ess
M ens
p ur
S eg
p el
atten dre</w>
secon des</w>
complément aires</w>
accessi bles</w>
Bemüh ungen</w>
re den</w>
pil ote</w>
v aste</w>
tro l</w>
h aus</w>
ä tigkeit</w>
geo graf
Geb iete</w>
N eben</w>
I mp
en tri
grün den</w>
Sch engen</w>
völ lig</w>
Pol en</w>
Ge trän
inter nen</w>
Fr an
E u
amend ements</w>
Be zugs
ru cken</w>
Stand ort</w>
All erdings</w>
S M
banc aire</w>
confli t</w>
fa d</w>
ci elle</w>
onc é</w>
qui p
trä ger</w>
ag ences</w>
C ir
H äl
P en
ge wä
défin it</w>
Funk tions
Gesch windigkeit</w>
Ab lauf</w>
É ternel</w>
particuli ères</w>
kur z
ge zeigt</w>
Shar e
autoris ée</w>
S ob
mach ung</w>
S D</w>
Pflan zen</w>
recommand ation</w>
ing éni
Flü cht
m uni
o is
Bezieh ung</w>
voy ag
Partner schaft</w>
angemess enen</w>
Isra el</w>
setz ungs
spann ung</w>
génér er</w>
dar aus</w>
V E
Auc un</w>
stru ktur</w>
hô te</w>
K i
exp iration</w>
Ma cht</w>
voll mäch
inform iert</w>
v acc
zi p
ak e</w>
a o</w>
Ö l</w>
hervor rag
am én
digit ale</w>
lo ire</w>
N U
Bei träge</w>
er ungen</w>
lin gs
Sek tor</w>
Kon ferenz</w>
Famili en</w>
St ei
mar qu
P y
jour nal</w>
acht ung</w>
Au gen
dan ach</w>
to ires</w>
essay er</w>
Fest stellung</w>
Vereinbar ungen</w>
or y</w>
geschloss enen</w>
mol éc
atta quée</w>
Diff er
kon stru
cré e</w>
be zieht</w>
Ver änderungen</w>
pati ent</w>
é ité</w>
S ous</w>
ro i</w>
ar i</w>
Anges ichts</w>
hand el</w>
ein ander
Vie w</w>
num éro
ge halt</w>
Inform ation
res tructur
B lan
situ és</w>
M ini
por tes</w>
gro ss
Dig it
den rées</w>
programm s</w>
R ich
Gerä ten</w>
t eten</w>
moder n
zugr unde</w>
ä le</w>
T our</w>
O C
Nach hal
Chois issez</w>
déci der</w>
présent ée</w>
auf nahme</w>
Wor t
neu esten</w>
ES TION</w>
rel ativement</w>
Kor re
met tant</w>
vorgeschlag enen</w>
Z ahn
Bur eau</w>
d ritte</w>
effic acement</w>
an ordnung</w>
neu tr
gen ti
moder nen</w>
V O</w>
h i</w>
essenti els</w>
den den</w>
verlor en</w>
Misch ung</w>
em ali
P D</w>
pou dre</w>
Schlüss el</w>
be ding
mar iti
Visu al</w>
ver trag
ag erie</w>
analy ser</w>
o ires</w>
R aum
n ap
L esen</w>
v il
chim ique</w>
port ent</w>
gefäh r</w>
Gesch m
aî tre</w>
proc esseur</w>
antwor ten</w>
EIN ES</w>
gouvern ance</w>
mo teurs</w>
établiss ant</w>
an ische</w>
ajust ement</w>
J O
dr a</w>
näch ste</w>
Ein gang</w>
ó n</w>
spécifi é</w>
L IN
O pfer</w>
wer tung</w>
f ten</w>
Aus legung</w>
str eck
adul tes</w>
ast ung</w>
Erhö hung</w>
au ben</w>
cu le</w>
jäh rigen</w>
H aben</w>
gi g</w>
amm es</w>
effizi enz</w>
S TI
D ANS</w>
envoy é</w>
m ung</w>
vaiss elle</w>
Kr eu
Englis ch</w>
K ammer</w>
S ON</w>
star ke</w>
grund lage</w>
iv e</w>
Auc une</w>
Speich ern</w>
simil aire</w>
esti gt</w>
détec ter</w>
priv és</w>
H at</w>
en contre</w>
Josep h</w>
Sto ck
An gel
c ouv
An zeigen</w>
Ord nung</w>
poin te</w>
é rée</w>
ol é
in tr
ai gu
aut om
Pflan zen
be ge
Beh in
ann te</w>
lib ér
einger eicht</w>
magn étique</w>
sch lüss
Fr anzös
compagn ie</w>
mouv ements</w>
B it
Reg ierungen</w>
reten ue</w>
Bes itz
sons tige</w>
S K
den k
B AR
Er wachs
adop tées</w>
In fek
ä s
Aus gang
pro fon
jo indre</w>
lut ter</w>
D ollar</w>
Hil fs
AL E</w>
vi ande</w>
Pl as
K up
prob ablement</w>
ur g</w>
Demokrati e</w>
gu er</w>
Obje kte</w>
capit aux</w>
res tr
P ad</w>
man uel</w>
fer a</w>
dé m
V ic
begrenz t</w>
ét anch
p e
in te</w>
off rant</w>
ti scher</w>
rempli r</w>
aut onom
for tement</w>
vo ies</w>
Sti ch
Kom fort</w>
Sch la
B is
fa isc
Konzep t</w>
al a</w>
mäß igkeit</w>
Rand n
G R
Abs timmung</w>
erzi elen</w>
al lis
Pu is</w>
s avez</w>
us ine</w>
ri d</w>
Fre unde</w>
combus tion</w>
Vor sitz
S W
schlag s</w>
ot h</w>
lis tes</w>
P L
Pak et</w>
spät estens</w>
Registr ierung</w>
F F</w>
i tinér
pl äne</w>
Behäl ter</w>
I L</w>
sign ature</w>
he k</w>
L ang
chiff re</w>
péri odes</w>
Z one</w>
Ban ken</w>
ier tes</w>
hö here</w>
précé dente</w>
c ut
satelli te</w>
Am eri
ban des</w>
m ün
Ausfu hr
Bil dungs
op ini
différ ente</w>
calend rier</w>
Ern ähr
Mom ent</w>
TR AN
S us
ak t</w>
adap t
t ôt</w>
on ale</w>
Fr anç
di vul
erh oben</w>
Mu ster</w>
us te</w>
am e
wen ige</w>
adop tée</w>
ü brigen</w>
H eute</w>
cé ré
n ütz
lok ale</w>
Vertr auen</w>
fahrzeu ge</w>
T ari
serv ant</w>
r aten</w>
ap e</w>
län dischen</w>
fer me</w>
kom pati
pauv reté</w>
requ ises</w>
Befeh l</w>
ré formes</w>
pos t</w>
be häl
M édi
rég imes</w>
ö se</w>
pap e</w>
ungs system</w>
ier ende</w>
fonctionn er</w>
tiv er</w>
région ales</w>
an alo
ph ar
expli que</w>
bei zu
ré un
Z ahlen</w>
indépend amment</w>
c ru
To m</w>
vorhand enen</w>
vo ire</w>
T om
fin ale</w>
aspec t</w>
Lissab on</w>
d ün
um fan
Artik eln</w>
kon to</w>
ac les</w>
v ins</w>
An gst</w>
getr ennt</w>
V C</w>
d achte</w>
Koh len
limit ation</w>
r ait</w>
kap az
chau d</w>
mainten ance</w>
W END
in aire</w>
climati sation</w>
zy lin
ic ô
Au jourd</w>
effec tivement</w>
expéri ment
rem ise</w>
li ger</w>
es tre</w>
Ver län
gesch ütz
As soci
Auf merk
Milli ar
Min ister
persön liche</w>
imm un
res tent</w>
Ge ist</w>
conserv er</w>
echanis men</w>
Des ign
Mikro welle</w>
Z un
beteilig ten</w>
Pro vin
erklär ung</w>
st at</w>
ti se</w>
Fl ash</w>
pr e</w>
Dis krimin
el det</w>
Min der
indi quant</w>
Lin ux</w>
dé tru
mi x
échantill ons</w>
inst aur
ge fü
kosten losen</w>
a j
particuli ers</w>
F es
deut schen</w>
Sp alte</w>
Ereign isse</w>
gesch rieben</w>
Bu dg
e gr
ursprün glichen</w>
ab and
Ä r
conc rè
kl ar
A ni
auf treten</w>
sub ventions</w>
ré fléch
W at
ém or
sicher stellen</w>
investiss eurs</w>
pl aît</w>
T rei
ck er
fi le</w>
b its</w>
dé charge</w>
Unterab satz</w>
gew innen</w>
inter valle</w>
Mittel me
To d</w>
Mo dus</w>
d y
ö st
institu tion
cant ons</w>
étrang ères</w>
nav ire</w>
An strengungen</w>
an bieten</w>
Gemein schaften</w>
Ex press</w>
Fer ner</w>
sicher gestellt</w>
ém et
ti le</w>
écri te</w>
dispos er</w>
étran gers</w>
Wert pap
Gr ad</w>
Über gangs
es site</w>
Mor gen</w>
grenz en</w>
durch ge
erneu er
bou t</w>
preu ves</w>
si eben</w>
par le</w>
trock ner</w>
nach zu
L as
Spr achen</w>
ver gessen</w>
is ieren</w>
trans fer
auf zunehmen</w>
Medi a</w>
Kun de</w>
y en</w>
Liefer anten</w>
kontr olle</w>
qu ot
région ale</w>
wieder her
bilat ér
B A</w>
Le hr
re isen</w>
ren voy
négoci ation</w>
schö ne</w>
Z eu
zeich nungen</w>
c ouvrir</w>
ap er
inter diction</w>
Mo tor</w>
An weisungen</w>
Co sta</w>
ég lis
Er r
einfa ch
K ali
ass es</w>
récup érer</w>
Di en
Brei te</w>
can aux</w>
Ak tion</w>
gr ade</w>
seu ls</w>
t ag
bes tr
h an</w>
Br üssel</w>
B ac
stu di
logi que</w>
Kün st
emp fangen</w>
du quel</w>
Ach se</w>
gesch windigkeit</w>
aussch usses</w>
Ac tive</w>
recher ches</w>
leb ens
haup t</w>
G ast
k üh
w ünsch
E ri
enregistr é</w>
B au</w>
altern ative</w>
Sob ald</w>
ah t
Liz enz
Ver träge</w>
An hän
arb eits
profi tieren</w>
gro ß</w>
P ok
effectu e</w>
conç us</w>
um enten</w>
at a</w>
drück t</w>
fix és</w>
mensch lichen</w>
eti sche</w>
intel lec
soli dar
ur a</w>
Gu ide</w>
Er gän
willig ung</w>
Unterschie de</w>
cop oly
tempor aire</w>
requ ise</w>
erzeu gen</w>
S icht</w>
amend ement</w>
par tout</w>
Antwor ten</w>
Stu fe</w>
er end</w>
rési dence</w>
aus gesetzt</w>
i OS</w>
st anden</w>
fix ées</w>
Cert aines</w>
Zivil gesellschaft</w>
kl us</w>
bezieh ung</w>
m ir
par venir</w>
sor g
o le</w>
St ütz
o si
iss aire</w>
str om
géo graphique</w>
somm e</w>
condu ire</w>
ann ul
po t</w>
Vertr au
Auf hebung</w>
ver tik
be währ
ist et</w>
recommand é</w>
in corpor
Kon ver
Net z</w>
erg ri
St abilität</w>
remplac er</w>
li min
F ang
in ée</w>
in vo
po stes</w>
chôm age</w>
P eri
eur en</w>
minim ale</w>
sicher e</w>
in oxyd
Hol z</w>
lau b
Char ak
fü llen</w>
ein gestellt</w>
Apart ment</w>
prof il
M eter</w>
ST O
Komm issions
verrin gern</w>
anzu wenden</w>
ber ühr
o is</w>
nor malerweise</w>
eh lt</w>
un gefähr</w>
Syn chron
tatsäch lichen</w>
déc or
st ein</w>
lin e
Direc tory</w>
über wach
anerk annt</w>
No te</w>
be gan
v on
virtu elle</w>
W ahl
I C</w>
I G
organis ationen</w>
ô me</w>
be qu
Aufmerk samkeit</w>
r ang
fronti ère</w>
ös en</w>
Fäh igkeiten</w>
parti ellement</w>
é lo
ma î
Kamp f</w>
ho h
I D
PRO D</w>
personenbezo gene</w>
tier e</w>
Be tra
garanti t</w>
Mens ch</w>
ter s
hy per
l assung</w>
zi r
S tim
Can ada</w>
natur elle</w>
eindeu tig</w>
B aut
geeign eten</w>
Share Point</w>
F A</w>
tari fs</w>
comp ag
Sch äden</w>
Sch ön
Jahrh undert</w>
T radi
in spection</w>
zahl reichen</w>
néc essite</w>
hab ili
P eti
el ung</w>
pren ez</w>
associ ée</w>
priv ative</w>
T sch
Fre und</w>
in dex</w>
anci enne</w>
am t</w>
V M
programm ation</w>
C C</w>
un sten</w>
eh emali
Ab end</w>
Mo bilität</w>
O st
i en
jähr lichen</w>
mani pul
Agr ar
Sec ur
über schr
L aden</w>
th ème</w>
titul aire</w>
Er forder
wesent lich</w>
Verbr eitung</w>
exc essi
s et</w>
satis faire</w>
j ap
ü ler</w>
pom pe</w>
region ale</w>
Gol d</w>
e en</w>
Sch ule</w>
al p
Symbo l</w>
puis que</w>
genehmig t</w>
Übertrag ungs
c av
étanch éité</w>
ständi ge</w>
iv re</w>
concep t</w>
wissenschaf tlichen</w>
T al
K ro
I V
di versité</w>
ag ence</w>
öffent lich</w>
verrou illage</w>
établi t</w>
prä z
visi ble</w>
plac é</w>
Ein heiten</w>
Mach ine</w>
Über mittlung</w>
HT ML</w>
P E
centr ales</w>
reven u</w>
drück en</w>
intégr er</w>
D adurch</w>
Kun st</w>
us e</w>
converti r</w>
l ers</w>
man ie</w>
hö heren</w>
bef estigt</w>
Ges prä
p H</w>
bew usst</w>
Flexi bilität</w>
somm et</w>
Aut om
o ine</w>
kämp fen</w>
sor tir</w>
exi ge</w>
actu els</w>
cht ungs
Untersuch ungen</w>
remplac é</w>
kto p</w>
Ver gan
fix ée</w>
Stra ßen
ver folgt</w>
Gl as</w>
AU X</w>
R ab
r ont</w>
bru it</w>
o ti
Internet seite</w>
C ur
eb t</w>
apparti ent</w>
aut és</w>
b it</w>
Ur teils</w>
conten ir</w>
samm eln</w>
trans action</w>
è mement</w>
vi er
im mobili
be fr
angewand t</w>
prés ents</w>
Lux emb
en ge</w>
fo i</w>
Urspr ung</w>
ver kauft</w>
in ser
ut és</w>
él o</w>
dig ungs
ung ül
mariti me</w>
R am
Woh l
bes itzen</w>
ver y</w>
cht s</w>
C arb
besch lossen</w>
inform atiques</w>
Fö n</w>
établi s</w>
bewer tet</w>
n ér
cons ac
z ept
You Tube</w>
arr y</w>
configur er</w>
wach st
ann er</w>
ar ischen</w>
bereit et</w>
betroff en</w>
direc ts</w>
H an
ong ée</w>
Ma xim
g agner</w>
Bildschir m</w>
om en</w>
Recht san
off ene</w>
su jets</w>
B aum
unbe dingt</w>
aust ausch</w>
e o</w>
r accord
speich er</w>
all ég
ad et</w>
préc is
aéri en</w>
st amm
c ér
ab schn
Tes ts</w>
mu ß</w>
rapp eler</w>
gri lle</w>
frei wil
arm ée</w>
Auftrag s
tex tes</w>
Exper ten</w>
re dev
suc re</w>
H D
at ome</w>
Re de</w>
spezi elle</w>
com préhen
besteh ende</w>
éli gi
in désir
Eigent um</w>
k eit
Prior itäten</w>
organ ique</w>
f ec
vor über
jec t</w>
vorgesch lagen</w>
Feri en
fu tur</w>
cul ation</w>
lin ks</w>
Ri chard</w>
heur eux</w>
û ment</w>
S eigneur</w>
natur elles</w>
xi d
Besch icht
tr itts
Ber ichts</w>
Aus land</w>
Strate gien</w>
steh end</w>
über all</w>
dem i</w>
vis iter</w>
cr yp
lo y
bes ei
op tionen</w>
Mad rid</w>
p hr
Mar ie</w>
esp ère</w>
Re zep
C ar</w>
trans mises</w>
tour isme</w>
vol et</w>
cl av
D ES
ét end</w>
elektr ische</w>
arri ver</w>
Po li
veil le</w>
ö konom
spéci alement</w>
Kohlenst off
car di
célè bre</w>
F itn
alis me</w>
T T</w>
augment é</w>
Techni k</w>
C D
St ore</w>
weiter er</w>
Be am
pre ise</w>
second aire</w>
spéci ales</w>
ma g</w>
an i</w>
lè vement</w>
sou mettre</w>
d ette</w>
Organ e</w>
ein sch
glis e</w>
prim er</w>
sou mises</w>
impli que</w>
inoxyd able</w>
lég ales</w>
ré examen</w>
ber eiten</w>
Mut ter
st ab
B U
T as
élimin ation</w>
P eut</w>
hu it</w>
Ide e</w>
mb ol
Tr ai
D rit
blo ck
accept able</w>
lin é
star ken</w>
ba isse</w>
H ör
m ech
integri erten</w>
än gt</w>
c ateur</w>
é pi
FRA GE</w>
automo bile</w>
effec tive</w>
kl ass
indi re
ten us</w>
b asse</w>
Sp ie
Meer es
mon té</w>
y ant</w>
Län gs
D ate</w>
zeichn eten</w>
geför dert</w>
gegen über
it en</w>
raisonn able</w>
aus führen</w>
AP I</w>
T reib
trot z</w>
G as</w>
er scheint</w>
veu lent</w>
h ou
Hal b
cohér ence</w>
paralle l</w>
K y
per fekt</w>
k einer</w>
élabor er</w>
av or
ou tch
zentr um</w>
Vergan genheit</w>
élev ées</w>
k ilom
nachhal tigen</w>
sec tions</w>
dériv és</w>
pl ay</w>
ch ement</w>
In fo
g ie</w>
ge wer
vul nér
ou i</w>
S N
Ab weich
renouvel ables</w>
zu erst</w>
fin dung</w>
redu zieren</w>
transpar ente</w>
zugel assen</w>
par fait</w>
c ase</w>
en vers</w>
pla ques</w>
D H
ähn liche</w>
ty p</w>
g h</w>
be trieben</w>
sensi bil
Reguli erungs
Reis e
ro ir</w>
zeichn ete</w>
Flach bild</w>
fi ehlt</w>
pneu mati
A h
m echanismus</w>
schn eller</w>
Schlussfol gerungen</w>
essenti elles</w>
St ahl</w>
ét endant</w>
Re li
biblioth èque</w>
der rière</w>
Daten schutz</w>
Bewer tungen</w>
Durch messer</w>
anzu zeigen</w>
liber tés</w>
schö n</w>
br eiten</w>
G ül
a des</w>
Ét ant</w>
verbr auch</w>
vollständi gen</w>
sec ré
lo s
Betrei ber</w>
in suffis
Gener ation</w>
modu s</w>
outch ou
L os</w>
Fo to
écou lement</w>
Aus rüstung</w>
el a</w>
QU ESTION</w>
b ons</w>
span nen</w>
AN FRAGE</w>
An triebs
sin n
D eux</w>
V in
i on</w>
Vor ab
Str eit
Dim ension</w>
pr enant</w>
en ez</w>
opp elt</w>
Erwägungs grund</w>
par king</w>
geb r
consult ez</w>
pi x
équip é</w>
approuv é</w>
Ag ent</w>
nuclé aire</w>
Hoheits gebiet</w>
n de</w>
aux quelles</w>
Sch ie
M ur
éthyl ène</w>
be wegen</w>
ré elle</w>
W ind
untern ehm
classi que</w>
optim al</w>
Ver stärk
Ver zeichnis</w>
mess agerie</w>
N ET</w>
ab onnement</w>
architec ture</w>
éto iles</w>
For um</w>
aut henti
V öl
Vor haben</w>
um en
il à</w>
frü heren</w>
omm e</w>
grei che</w>
reib ungs
z ell
act ement</w>
h aut
an wenden</w>
organis er</w>
PI B</w>
Register karte</w>
zi ele</w>
féli cite</w>
rég ulation</w>
subst anti
spi elt</w>
requér ant</w>
gehö rige</w>
li o</w>
erle i</w>
Köni g</w>
Z wei</w>
asi n</w>
bliot hek</w>
collec tées</w>
Veranst altungen</w>
Prüf ungen</w>
p as
verhin dert</w>
Br and
Assembl ée</w>
Eff ek
développ é</w>
üh r</w>
Zuständi gkeit</w>
n ommen</w>
ordonn ance</w>
Ro hr
F R
s aurait</w>
Up date</w>
Ver m
St ahl
Dienst leistungs
Eigent ü
Poten zi
produc tivité</w>
p epti
Chr ist</w>
sig keit</w>
Mat éri
H aft
fes ten</w>
Re par
C our
d s
um pe</w>
considér ablement</w>
sympt ômes</w>
A si
préci s</w>
ill on</w>
lin gu
Pri x</w>
größ eren</w>
ver binden</w>
T C</w>
At mosph
Entfer nung</w>
mét é
pa quet</w>
Lauf e</w>
réser voir</w>
intensi té</w>
Voraus setzung</w>
éco les</w>
Ma x</w>
fabric ants</w>
le ge</w>
bénéfici aire</w>
Web seiten</w>
ho l</w>
er o
Perform ance</w>
R ome</w>
in spec
E tik
sign é</w>
Mär kte</w>
um in
W ander
Po liz
phy s
tra vers
con ver
Ben ach
aur ont</w>
in titu
aufge fordert</w>
gel angen</w>
grunds ätzlich</w>
V PN</w>
el e
B C</w>
spécifi cations</w>
constitu er</w>
parall èle</w>
con vainc
C P
ag o</w>
emp fiehlt</w>
f and</w>
Vor bereitung</w>
imp ôt</w>
s mar
agré able</w>
angegeb ene</w>
le hen</w>
introdu ire</w>
sorg fäl
K ä
co eur</w>
DN S</w>
commerci alisation</w>
Sant a</w>
ak u
re tirer</w>
ag ées</w>
a ér
EN T
Er mittlung</w>
mo des</w>
Qu ellen</w>
a zi
rit es</w>
F ig
h iver</w>
R ent
pa trim
An rei
bas ée</w>
Mehr heit</w>
k ette</w>
in struction</w>
adap tée</w>
correc tion</w>
Städ te</w>
O h
contrô leur</w>
cher cher</w>
histor ischen</w>
Gemein de</w>
analy ses</w>
bu ffet</w>
fäh ige</w>
t ü
par cours</w>
flexi on</w>
defin ieren</w>
ma x</w>
ah re</w>
gewünsch ten</w>
g on
B ir
Formul ar</w>
Fe der
Bet ä
er fassen</w>
enqu êtes</w>
gest alten</w>
über haupt</w>
Bu d
Häl fte</w>
essay ez</w>
gr ad
am or
ori fi
plac er</w>
atom es</w>
EM ENT</w>
Fil ter
budg étaires</w>
con fortable</w>
ag és</w>
cou pl
zun ehm
ch on</w>
enregistr ées</w>
c ités</w>
aus gerichtet</w>
F al
R einig
unter sucht</w>
entr ées</w>
coll è
A M</w>
Off en
st able</w>
personn els</w>
prest ation</w>
compati bilité</w>
én or
con g
Er satz
viel fäl
redu ziert</w>
lag e
hô p
Er lass</w>
ein geben</w>
Bel eu
mer zen</w>
T un
En semble</w>
Währ ungs
alk yl
élimin er</w>
concl ure</w>
tr é
obst acles</w>
pres criptions</w>
ven ant</w>
M a</w>
der a</w>
Pr ess
AS P</w>
An f
P atri
oph ie</w>
t onnes</w>
feh ler</w>
Um stände</w>
akti ken</w>
crit ère</w>
Be arbeitung</w>
lan cer</w>
n d</w>
Elek tron
vi eil
Lond res</w>
gi on</w>
haus se</w>
bind ung</w>
in ts</w>
montr é</w>
V il
k tions
a ß</w>
Gr ande</w>
Ein nahmen</w>
dé sin
V R</w>
all ons</w>
ges etz</w>
ge ordneten</w>
änder ten</w>
dis tribut
milli ers</w>
récipi ent</w>
viol ence</w>
dé di
co l</w>
enti r</w>
be dien
él év
mel dung</w>
W ell
wer fen</w>
réalis ées</w>
Umwel tsch
R est</w>
dro h
verhäl tnis</w>
sto ck</w>
Kaff ee</w>
Ch anc
Hin der
sicher en</w>
Zu behör</w>
PA R</w>
W and</w>
prési dence</w>
bénéfi ce</w>
Plan ung</w>
internation aler</w>
ferrovi aire</w>
mili taire</w>
ô les</w>
titu tion</w>
arbeit eten</w>
par k</w>
réper toire</w>
leb nis</w>
dar gestellt</w>
S MS</w>
ca outchou
schlä ge</w>
Li ber
coordonn ées</w>
comport ent</w>
vol uti
St unde</w>
F L
ver bo
Ins besondere</w>
an gt</w>
Do sis</w>
con tributions</w>
Um struktur
Klima wand
représent ation</w>
B IP</w>
bem üh
Z oll</w>
indépend ants</w>
étro ite</w>
spéci ale</w>
tot alité</w>
kur se</w>
détail lées</w>
höchst ens</w>
außer gewöhn
irgend einem</w>
Br an
Verl ust</w>
bat tre</w>
ein ges
réglement aires</w>
Produ its</w>
r ain
Somm er</w>
so i
E lec
fik ation</w>
ret our
Inkraft treten</w>
enh aus</w>
tr au
bo issons</w>
for d</w>
précéd ent</w>
cour se</w>
L etz
Fr aktion</w>
her aus</w>
Slo v
At lan
Fut ter
A US
u ß</w>
réfrig érateur</w>
Po st</w>
c ess
op s</w>
An hör
F ein
I TE
Protokoll s</w>
Al ko
arg ument</w>
associ ées</w>
or es</w>
enz y
pressi ons</w>
gesch n
r ein</w>
périph ériques</w>
Begrün dung</w>
chino is</w>
beab sich
vali dité</w>
p aire</w>
endr ait</w>
tion al</w>
Pap ier</w>
f ou
zer stör
répon d</w>
Smar t</w>
Grund rechte</w>
bewer tung</w>
cour ri
Wär me
P unk
H om
por tion</w>
besser en</w>
Sk i
ali er</w>
inform é</w>
Syst emen</w>
réfugi és</w>
perman ent</w>
Tr av
Fai tes</w>
pl ätzen</w>
compl exes</w>
O ne</w>
sa h</w>
M rd</w>
handi cap
Su ède</w>
Tre ffen</w>
entier ung</w>
individu els</w>
aus geschlossen</w>
von einander</w>
hei m
ét ér
H P</w>
monn aie</w>
itt el</w>
st ations</w>
Jahrh under
Her z</w>
ant an
professionn elles</w>
Trä ger
Qu es
Aktiv ität</w>
lam pe</w>
m aschinen</w>
basi ert</w>
habit ants</w>
ag enc
ér ance</w>
acc ent</w>
parl ement
per ç
ver trag</w>
Soli dar
Mo bile</w>
An gl
garan tiert</w>
h l</w>
oh n
provis oire</w>
lo sigkeit</w>
R esp
Au ß
ent decken</w>
str ahl
no tes</w>
Versto ß</w>
spezi ellen</w>
serv i</w>
Un abhängi
Ver zö
précis ément</w>
Des ktop</w>
D än
conc ours</w>
ig t</w>
min ér
co ff
trans mis</w>
att én
essi ons</w>
s ätzen</w>
I A</w>
hy le</w>
berech tigt</w>
M AN
op tischen</w>
k in
Z äh
I K
Kapaz ität</w>
Kri eg
ide al</w>
de voir</w>
produ ktion</w>
ver gangenen</w>
c eci</w>
modu les</w>
H imm
b rech
Milliar den</w>
Be zeichnung</w>
ver brau
derzei tigen</w>
A P</w>
b ob
devr ont</w>
ay ez</w>
co t
Indi en</w>
ver langt</w>
Ma ison</w>
Benutz ung</w>
Eng agement</w>
ver wand
flexi bilité</w>
fi zierung</w>
umfass enden</w>
O c
ex actement</w>
so in</w>
s eit
n amen</w>
restructur ation</w>
spr üf
P LA
wi d
suff isant</w>
rend ement</w>
i Pad</w>
O LA
D ev
hil fen</w>
véri fi
Dialog feld</w>
Ab sätze</w>
fourn ie</w>
SCH RI
et hyl
ver arbeiten</w>
he ber
prof it</w>
S äu
onn és</w>
on ach</w>
G EN</w>
überw achen</w>
stock ées</w>
S R
auf en</w>
Haar trockner</w>
v as</w>
Bo hr
G O</w>
H oriz
Universi tät</w>
ext érieures</w>
k al
inclu ant</w>
met hode</w>
C T</w>
Proz ent
Hal blei
Balk on</w>
Sat elli
ir r
G O
ing ton</w>
per du</w>
Sank tionen</w>
Blu t</w>
ru f</w>
kön ne</w>
c ache</w>
dé fic
is tischen</w>
accept ez</w>
S ci
E A</w>
IN TER
ber eichen</w>
c ales</w>
respons abilités</w>
k aum</w>
Soft war
mon étaire</w>
it a</w>
considér er</w>
K n
Se e
recht lich</w>
Pl atte</w>
de venu</w>
St eck
d ons</w>
äu fe</w>
vertiss ement</w>
erheb liche</w>
Ch ance</w>
allgem ein</w>
W ord</w>
lu ß</w>
än der</w>
bl er</w>
Um geb
mus ste</w>
voran gehenden</w>
le iste</w>
Su iv
Ap ps</w>
RI TE</w>
Sch li
sch li
ma isons</w>
Er krank
posi tionen</w>
Sek unden</w>
in dépendant</w>
ges amm
orient ations</w>
frau de</w>
füh len</w>
isc o</w>
i ez</w>
An träge</w>
f o</w>
vér ité</w>
Verletz ung</w>
fourn issent</w>
is oli
In de</w>
confli ts</w>
leit ungen</w>
ander erseits</w>
man che</w>
Haf tung</w>
för dert</w>
appropri és</w>
wirk lichung</w>
j a
gr and
commut ation</w>
fil ms</w>
Vol k</w>
S R</w>
P U
Kam era</w>
Kur z
Trans aktionen</w>
er geb
re ti
PR ES
Wohn zimmer</w>
bu ch
defin ierten</w>
dérog ation</w>
éc riture</w>
bestä tigen</w>
spir itu
prop yl
sek tor</w>
To il
kar ten</w>
tr age</w>
nehm ung</w>
eng ager</w>
indi cations</w>
än en</w>
v élo</w>
g sten</w>
qu in
er ende</w>
ressortiss ants</w>
Anspr üchen</w>
E h
récl am
bénéfi ces</w>
mentionn ées</w>
Nach weis</w>
fi bre</w>
dor f</w>
ver ändert</w>
mö gen</w>
Qu elles</w>
Dan iel</w>
stat us</w>
Benach rich
ti e
dét ach
B rie
Ass ur
W ich
K ön
ay a</w>
grenz ung</w>
Krank heit</w>
O U</w>
sais ie</w>
allem ande</w>
am ing</w>
g ent</w>
ress ource</w>
Re form</w>
gesetz lichen</w>
enf in</w>
sû reté</w>
Z eiten</w>
um welt
ab len</w>
erforder liche</w>
Chr isti
Don c</w>
An forderung</w>
génér aux</w>
z ellen</w>
aér on
phar mazeu
signific ative</w>
fi abilité</w>
seg ment</w>
E cht
Qu el
M ails</w>
Nat ür
vê tements</w>
mesur er</w>
Cré er</w>
c tu
liqui des</w>
mittel ten</w>
m utz
Kon stru
bas é</w>
aut o</w>
J er
Verantwor tlichen</w>
mäß ige</w>
Vir tu
Pla yer</w>
li ts</w>
Mass nahmen</w>
besch ä
exp édition</w>
fr euen</w>
hand els
magni fique</w>
Barcel ona</w>
ann eau</w>
export ations</w>
er mitteln</w>
re connu</w>
rech ter
As yl
Se e</w>
gar e</w>
län dlichen</w>
envel oppe</w>
indispens able</w>
Hot el
Kar ten</w>
e is
Sign al
j unge</w>
TR E</w>
h onn
ev entu
doc umentation</w>
verschieden er</w>
élec tr
met hoden</w>
schaf t
éri eur
P RE
d iss
sélectionn ée</w>
hô tes</w>
eff ort</w>
Luxemb urg</w>
U V</w>
äußer st</w>
Grün dung</w>
O m
Ziel en</w>
inn eren</w>
w ink
ci eux</w>
annu elle</w>
sto ßen</w>
N é
o w
in hi
aug mente</w>
r ie</w>
ges tionnaire</w>
attribu tion</w>
annab is</w>
ö ss
cô te</w>
spr ach
di ert</w>
eig nis</w>
cylin dre</w>
herunter laden</w>
rig keit</w>
vor gang</w>
harmon isation</w>
com posi
Ex plorer</w>
issu e</w>
W aff
isp iele</w>
fact ure</w>
w onach</w>
rou e</w>
ré ti
camp ing</w>
sensi bles</w>
ri ons</w>
Mitglie dern</w>
er wor
sc én
ssi cher
ul tr
geleg te</w>
comm uns</w>
Konzentr ation</w>
Progr ammen</w>
sol é</w>
diagnosti c</w>
Kl age
rédu ite</w>
Fr ank</w>
K rieg</w>
so i</w>
alis ten</w>
Aktu alisierung</w>
effizi enten</w>
kün st
funk tionen</w>
ar tet</w>
termin al</w>
re production</w>
Versor gungs
W issen
agri cul
P ierre</w>
R und
franç aise</w>
im position</w>
in folge</w>
T ür</w>
dan ger</w>
démocr atique</w>
gemä ss</w>
transpar ent</w>
in jec
Ver wirklichung</w>
pré déterminée</w>
travail le</w>
Hei z
compati bles</w>
élec tions</w>
ch ent</w>
équip ées</w>
stu fe</w>
zug unsten</w>
pie ds</w>
législ atives</w>
aus gelegt</w>
entrepr en
érieur ement</w>
constru ire</w>
S end
fic ateur</w>
Identi tät</w>
O k
charg ée</w>
ge gründet</w>
v aut</w>
lo r</w>
équi pes</w>
entr äger</w>
Unterschie d</w>
connexi ons</w>
Ma ß</w>
Schließ lich</w>
Man uel</w>
min ister
tradu ction</w>
Ne wsletter</w>
récep teur</w>
pens er</w>
alis te</w>
G lü
L an
Camp ing
War en
r uss
k es</w>
B IN
kre te</w>
F ER
Pass wort</w>
ré pli
dép asse</w>
tu er</w>
kosten lose</w>
Ar ab
Vor der
Sch aden</w>
or t
c ouvre</w>
be trieb</w>
gl u
f enster</w>
Mö chten</w>
F IN
zugel ass
Ab wick
ges prochen</w>
dé liv
sp unkt</w>
E ssen</w>
ord nen</w>
Rum ä
enregistr és</w>
br uch</w>
é vo
R in
tron om
autor iser</w>
na issance</w>
rev anche</w>
maß geb
indépend ante</w>
S tri
geb unden</w>
Be träge</w>
Bür o</w>
Re pli
pro fond
geh äus
fer n
dé pass
sp iele</w>
Kat alysat
b ad</w>
Stellung nahmen</w>
Zu verlässi
B uch</w>
Mar k</w>
Geh eim
Posi tionen</w>
produ kt</w>
appli quées</w>
fahr t
Atmosph äre</w>
gen i
US D</w>
appar tements</w>
sou mise</w>
komm enden</w>
conduc teurs</w>
C Y
pl ats</w>
kr ise</w>
den s</w>
St ück</w>
En registr
bli che</w>
norm alen</w>
ex céd
compag nies</w>
avi on</w>
gesch ätz
b and
Daten bank
komm erzi
Ir land</w>
alis és</w>
r us
produc teur</w>
ans ässi
Qu ell
qu ets</w>
ay er</w>
haf ten</w>
quo te</w>
Un gar
montr er</w>
En suite</w>
anci ens</w>
cl aire</w>
Rou manie</w>
octro y
S et</w>
stratégi ques</w>
M M</w>
caoutchou c</w>
sel s</w>
ech te</w>
né anmoins</w>
vorzu legen</w>
restaur ation</w>
w est
ordin aire</w>
paro le</w>
li ers</w>
Geb ühren</w>
associ ations</w>
gouvern ement
Cor por
SCHRI FT
hier zu</w>
vap eur</w>
fr ein
Char ta</w>
ad jac
extrém ités</w>
Produk ts</w>
z usammensetzung</w>
syst emen</w>
F inn
po t
ün d
ber eichs</w>
Ö l
Berichterstat ter</w>
min i
Politi que</w>
grenz e</w>
mon ter</w>
M emb
b ack</w>
LE MENT</w>
annu els</w>
la c</w>
sa c</w>
considé rés</w>
g han
spéci aux</w>
T au
Nach frage</w>
aus genommen</w>
fer s</w>
dire kten</w>
be fin
Einfu hr
fol gender</w>
hal tungs
en k</w>
pl ages</w>
Pat ent
Eb enen</w>
S et
Hy per
ad mission</w>
gor ith
ges endet</w>
améric ain</w>
télé chargement</w>
endro its</w>
C lar
co s
cons acr
anim al</w>
jou e</w>
bl ess
ti ll
pil otes</w>
KO MM
fil les</w>
mäß igen</w>
Ber icht
intelli gente</w>
faisc eau</w>
H ü
rou lement</w>
re traite</w>
Ziff er</w>
résul te</w>
halten s
führ ungen</w>
v étér
A sie</w>
V II</w>
V ou
n isses</w>
bet t</w>
Wahr heit</w>
lux e</w>
g ent
mitglie d
ouver tes</w>
P age</w>
énonc ées</w>
Ide en</w>
indépend ance</w>
ét han
B le
ti ère</w>
Appli cation</w>
zu l
att aque</w>
ac ét
cl ô
lan te</w>
sub sidi
assemb lage</w>
au ber
M ON
synchron isation</w>
k ons
Entfer nen</w>
ch st</w>
dimin ution</w>
in spir
V isi
ers etzen</w>
en ger</w>
lös ungen</w>
en du
L ager</w>
ci dent
trans fé
mal gré</w>
hist ori
kr ist
V an</w>
z in</w>
L at
enk ung</w>
S ammlung</w>
ess eurs</w>
lie ß</w>
Grund verordnung</w>
aut on
vi br
Vereinig te</w>
perspec tives</w>
ent ure</w>
L ett
R at
X box</w>
propos és</w>
Mc Af
all ou
ri che</w>
chang é</w>
einig er</w>
man chmal</w>
gew and
S O</w>
W eil</w>
sc ène</w>
besch adet</w>
tin a</w>
Krank heiten</w>
Br anche</w>
Ko so
Gra fi
rémun ération</w>
w eb
versicher ung</w>
prim aire</w>
trai tements</w>
ober fläche</w>
Vertragspart ei</w>
dire kte</w>
liv res</w>
eign et</w>
hal og
M ü
V os</w>
y m
n ä
bat eau</w>
CO R
activ ation</w>
be au</w>
re pose</w>
gab en
mehr erer</w>
An tik
port ez</w>
Prot ection</w>
Sub strat</w>
ment ation</w>
Mo de</w>
Min er
TI SCH
akzep tieren</w>
klär ungen</w>
Poly mer
mét hyl
McAf ee</w>
en gr
fisc ales</w>
Zy lin
bu chen</w>
sélectionn és</w>
con ci
ex pan
St ep
Em issions
ten tion</w>
h am</w>
Fel der</w>
Fu ß</w>
V eg
imprim ante</w>
Met all</w>
E s
B ahn</w>
Ac co
essenti elle</w>
Hin sicht</w>
Sor ge</w>
électro de</w>
espagno l</w>
mag asin</w>
gel ag
Er fassung</w>
confirm ation</w>
Sho p</w>
ck el</w>
atri ce</w>
en venue</w>
solidar ité</w>
men ace</w>
unabhängi gen</w>
mus ée</w>
ch ien</w>
M B</w>
Europ é
Flu g</w>
onn ées</w>
diri ge
g üns
verkehr s</w>
trans férer</w>
men ées</w>
s am</w>
F E</w>
cl ause</w>
sol li
zü ge</w>
contribu e</w>
Hy dr
To ol</w>
plac ements</w>
nour riture</w>
M ise</w>
B und</w>
B ay</w>
Abhängi gkeit</w>
Al t
sons t</w>
gest artet</w>
age gen</w>
Hig h</w>
gew onnen</w>
inst antan
fin i</w>
Proje kten</w>
Ver ständ
Haus halt</w>
B and</w>
contr aign
ann uler</w>
Al l</w>
benach bar
Sch lei
tr ement</w>
recher cher</w>
exp édi
integri ert</w>
führ ende</w>
er ai</w>
H L
Ré serv
be hin
schn ell
Ver kaufs
U hr
FOR MA
g licher</w>
O l
wei ßt</w>
kan ische</w>
M é
Par ce</w>
la te</w>
Geri chte</w>
Binnen mark
r ates</w>
patrim oine</w>
ein zur
com bien</w>
inv it
z err
j em
flo w</w>
H off
Schwe den</w>
sou ris</w>
AS E</w>
su pr
Pa ar</w>
Pap ier
Arbeits plätze</w>
col onnes</w>
franc s</w>
oll ars</w>
fr ist</w>
Geschäf te</w>
présent ées</w>
O der</w>
gu ter</w>
hy bri
pu r</w>
schn elle</w>
y e</w>
end omm
H i
OR DN
terroris me</w>
ét ats</w>
f lor
Ar bei
Auf zeichnungs
F ourn
J ack</w>
Angele genheiten</w>
Prem ium</w>
exemp les</w>
ol d</w>
ro y
br û
schwieri g</w>
M un
atmosph ère</w>
Gesell schaften</w>
konfigur iert</w>
Pers on
mar ke</w>
t hr
ch és</w>
fer enzen</w>
éri r</w>
ver arbeitung</w>
ge gangen</w>
p ain</w>
ten e</w>
M ai
cataly seur</w>
d oppel
Fle isch</w>
Hard ware</w>
ag ement
st euerung</w>
ic o</w>
pré fé
m eines</w>
hei m</w>
wen igen</w>
intéress ées</w>
su gg
plan ung</w>
is ez</w>
Sy mpt
ag en
ra y</w>
einheit lichen</w>
Sp ek
stock s</w>
Verlän gerung</w>
sign es</w>
ent uren</w>
Pi x
Verk nü
alis mus</w>
constat er</w>
Véri fiez</w>
ma ßen</w>
popul aires</w>
il ler</w>
app en</w>
ad judi
L ast
sicher n</w>
inv ité</w>
D I</w>
bekann ten</w>
ein verstanden</w>
bloc age</w>
ü bt</w>
Aus gabe</w>
land ais</w>
tiv al</w>
k ationen</w>
acc rue</w>
in spi
Be tru
tra jet</w>
Be gl
gem essen</w>
d eb
indi ce</w>
Fil m
constitu ée</w>
Kaff e
net z</w>
AD N</w>
di vision</w>
inter pr
bal con</w>
automati sche</w>
Afri ka</w>
Kon form
moy ennes</w>
B ase</w>
de vi
SI S</w>
Stre et</w>
personn elle</w>
ém atique</w>
s ec</w>
G S</w>
Tex te</w>
complément aire</w>
kop f</w>
Aus sprache</w>
intellec tuelle</w>
ré col
Flüssi gkeit</w>
E valu
recy cl
perman ente</w>
höch sten</w>
Ar r
su m</w>
entschei dung</w>
zul etzt</w>
Hand el
inst ant</w>
Blo ck
des tru
exi gence</w>
Kontak te</w>
s om
Pre isen</w>
figur ent</w>
r ets</w>
pro be</w>
nö tig</w>
observ er</w>
constat é</w>
ef eu
An stieg</w>
Proz esse</w>
ci pl
ex tra
ber icht
ech ischen</w>
Dar lehen</w>
proch ain</w>
propri étaires</w>
ke hren</w>
co okie</w>
f ar
h äfen</w>
régl er</w>
beeinträch tigen</w>
ma ß</w>
re prise</w>
lan ts</w>
sum é</w>
port efeu
g in</w>
u ation</w>
Al li
c ancer</w>
mentionn és</w>
Ma ster</w>
ch s
Kü chen
Pro pri
activ é</w>
beantrag t</w>
defin ierte</w>
D eine</w>
em lich</w>
erk annt</w>
Wet ter
évi dence</w>
es tr
ouver ts</w>
finan ziert</w>
sou pape</w>
Pers onal
be auté</w>
si eurs</w>
décou lant</w>
ent our
lic ences</w>
pro vin
b itten</w>
D UR
sign als</w>
Ty p
or g</w>
Nieder lande</w>
B arb
eingeschrän kt</w>
onn el</w>
konzentr ieren</w>
prest ataires</w>
ri p
To chter
il loire</w>
z ität</w>
wettbewer bs
propos ées</w>
Maß gabe</w>
t us</w>
Dan emark</w>
Ver haltens
ordnungs gemäß</w>
Kon text</w>
il d</w>
erlau ben</w>
woh ner</w>
in forme</w>
su ch</w>
a issent</w>
x e</w>
cou ple</w>
fai bles</w>
Z usammenf
C ours</w>
wesent liche</w>
extr action</w>
nomin ation</w>
p ac
Kab el
Mi gration</w>
st euern</w>
B all
éch ou
reço it</w>
beru ht</w>
solv ant</w>
in os</w>
Im mun
publi cit
pf licht</w>
inscri t</w>
n ul
VER WEND
én ergies</w>
I ra
la isse</w>
labor atoire</w>
ch age</w>
kap it
ag on
verstär kt</w>
g ä
Befes tigungs
li ques</w>
H ast</w>
vereinbar ung</w>
favor able</w>
Charak ter</w>
end ent</w>
p ili
pré férences</w>
unterschei den</w>
bur eaux</w>
Back up</w>
è se</w>
Par mi</w>
Eisen bahn
läss lich</w>
cour te</w>
R ol
Lou is</w>
H R</w>
ren contre</w>
Venti l
CH F</w>
H ey</w>
réglement aire</w>
Ma ße</w>
j i
Gesch äft</w>
schrif tlichen</w>
ter in</w>
H AL
perfek te</w>
vor liegen</w>
E mp
F euer
exper tise</w>
mont agne</w>
d ûment</w>
dem eure</w>
r äume</w>
w an</w>
hum idité</w>
AP PAR
ra ff
nehm er
N o</w>
rend ez</w>
Reg ister</w>
Rei hen
vor liegt</w>
v ill
IS T
ent al</w>
situ e</w>
sicher ung</w>
Frie den</w>
h eits</w>
am us
effizi ent</w>
Dar stellung</w>
sais ir</w>
effizi ente</w>
cad res</w>
bilat er
numéro s</w>
p ig
hand lung</w>
per dre</w>
Sol ar
Teil s</w>
an passen</w>
z te</w>
mag as
cri tique</w>
Mehr zahl</w>
Pho to
Radi o</w>
X T</w>
Datenschutz erklärung</w>
ähn lich</w>
ge zi
Kunst stoff
O B
b ét
zu stand</w>
äuß eren</w>
cy cl
am ide</w>
dah in</w>
pré server</w>
li es</w>
évent ail</w>
entraî ne</w>
hum aines</w>
zu lassen</w>
Diskrimin ierung</w>
gere cht
rech nung</w>
Z eile</w>
vorher igen</w>
Bo x</w>
re di</w>
L assen</w>
besch icht
acc ou
Deu tsch</w>
best and</w>
wirks amen</w>
man gel
ver anst
Z ins
par ts</w>
t est
Su chen</w>
Ster ne</w>
proc ur
tr ou</w>
Komm iss
br ei
su isses</w>
anim ale</w>
posi tionn
be haup
j ungen</w>
For derungen</w>
mari age</w>
inser tion</w>
dom esti
tu ellement</w>
Jus qu</w>
Modu l</w>
ph il
dis cipl
k riterien</w>
Koso vo</w>
Pro fil
Urspr ungs
verli eren</w>
IN G</w>
kompl ett</w>
Mess ung</w>
L er
ant eil</w>
w e</w>
É ch
Z ut
prä sent
reconna ître</w>
Wor ld</w>
péri odi
So fern</w>
c t</w>
Schw ellen
G o</w>
fr agt</w>
Gr an
AN TI
VI D</w>
bou teil
stei gt</w>
Kro ati
alis tes</w>
m o</w>
Kop ie</w>
f leurs</w>
X P</w>
l u</w>
eto oth</w>
équival ent</w>
inv ités</w>
Ti p
Appar tement</w>
ver öffentlichen</w>
b act
potenti els</w>
Beteilig ten</w>
ac compl
Ver teilung</w>
Tr enn
C I</w>
Ph en
bli n</w>
E x</w>
Bl ack
Menschen rechts
Besch ränkungen</w>
Verpack ung</w>
Bat ter
optim iser</w>
Altern ative</w>
bezo genen</w>
consci ence</w>
uni ques</w>
erinn ert</w>
Politi k
T ol
on ais</w>
Jap an</w>
it ed</w>
Rap port</w>
Prior ität</w>
icô ne</w>
Z elle</w>
ren omm
médi caux</w>
Dé fin
conç ue</w>
voy ez</w>
antwor tung</w>
sp ati
région aux</w>
évalu ations</w>
s ée</w>
Str ahl
neu f</w>
tionn aires</w>
Di agno
sp f
fi ables</w>
Bo s
In haber</w>
gebi ete</w>
sol u
Z in
teil nehmen</w>
f ein
hy gi
K lar
émet teur</w>
W issenschaf
bl en</w>
mon om
Jap on</w>
affec ter</w>
in croy
ÉC RITE</w>
L ern
Nouv elle</w>
SCHRIFT LICHE</w>
vor le
er e
aktiv itäten</w>
sti que</w>
con state</w>
Ges icht
e an</w>
ch at</w>
endgül tigen</w>
ver ser</w>
ex ac
capit ale</w>
Kunst stoff</w>
k reis</w>
gel assen</w>
In spek
excell ent</w>
T onnen</w>
TI QUE</w>
pen di
W ellen
Ab fall
ad o</w>
églis e</w>
schwer en</w>
avi ons</w>
O S
Heraus forderung</w>
oxy gène</w>
Schiff e</w>
gerä ten</w>
Währ ung</w>
Arm ut</w>
po ign
Groß britanni
quanti t
latér ale</w>
T elek
mi et
rép ut
St ar</w>
infr actions</w>
maî tr
aus stattung</w>
Pf lichten</w>
P hil
ORDN UNG</w>
vertr itt</w>
minu te</w>
Dokum enten</w>
wen der</w>
Au dio</w>
heur eusement</w>
F P</w>
p ierre</w>
Ge fühl</w>
us alem</w>
S ource</w>
v ez</w>
ach ev
C K</w>
Hin weise</w>
tier enden</w>
ist a</w>
P N
perspec tive</w>
ap porte</w>
Ver ab
camér a</w>
S es</w>
dem eur
gr ie</w>
éc r
Terr oris
Ou tre</w>
wä sche</w>
we gs</w>
akzep tiert</w>
lan cement</w>
As sozi
wä sser
Reg ierungs
H oll
ar ch</w>
f ei
c ali
Sau er
verrin gert</w>
spr e
indic ateur</w>
idé ale</w>
st ät
estim é</w>
Zus ätzlich</w>
discus sion</w>
rel è
t amp
r ut
Hon grie</w>
de aktivieren</w>
Pl at
y r
rédi ents</w>
bé bé</w>
s timmen</w>
préc iser</w>
unter richtet</w>
I M
por tiert</w>
S cript</w>
B E</w>
onn aire</w>
Akt eure</w>
s ung</w>
ém is</w>
Montr er</w>
int emp
ti sches</w>
den ces</w>
Fischer ei</w>
enregistr ements</w>
Führ ung</w>
venti l</w>
Feh l
arg uments</w>
ex press
L eitung</w>
Bes ei
W ä
fer tig</w>
oc cident
simultan ément</w>
as en
erkenn t</w>
d ollars</w>
cert ainement</w>
Ges tion</w>
dig keiten</w>
Seh enswür
bi ologique</w>
V ali
ör ter</w>
Di agr
virtu ellen</w>
wirtschaf tlicher</w>
B M
ble u</w>
Blu etooth</w>
verbind ungen</w>
Hin zufügen</w>
K lin
S par
lan cé</w>
trouv ez</w>
unabhängi ge</w>
Net to
or ale</w>
St ev
pour suite</w>
Wer be
médi cal</w>
B en</w>
SS L</w>
inclu ent</w>
aur ais</w>
R O</w>
correc te</w>
groß es</w>
ä uren</w>
mentionn é</w>
ein tes</w>
kon krete</w>
sup er</w>
Bet t</w>
ill ustr
dur ables</w>
a sten</w>
einfa cher</w>
Sek toren</w>
pren antes</w>
dis cu
intégr ité</w>
f i</w>
Grenz e</w>
no tion</w>
Gewi chts
individu elles</w>
audi o
phén om
vor liegende</w>
O E
rou es</w>
reag ieren</w>
c us</w>
Err eur</w>
ten der</w>
Krank en
lo ses</w>
si erte</w>
Camp ing</w>
Qu ad
Bab y</w>
Wun sch</w>
Hoch schul
erwäh nt</w>
déf i</w>
voul ais</w>
k amen</w>
i quement</w>
den sité</w>
considé rées</w>
garan tieren</w>
br in
correspond ante</w>
lo ir</w>
Ver sionen</w>
wel l</w>
ür en</w>
ak te</w>
ven ez</w>
began n</w>
Li qui
Mel dung</w>
œu vres</w>
qu ar
dem ain</w>
ge plan
Et her
technologi que</w>
Euro pol</w>
sch m
ph a</w>
gemein schaftlichen</w>
adap tés</w>
MA N</w>
Statisti ken</w>
Au fru
dis per
inv ent
lu ft
déf ail
n ischen</w>
fen êtres</w>
pre is
profond eur</w>
communaut és</w>
mauv ais</w>
arti g</w>
équ itable</w>
L CD</w>
inter rom
Al lez</w>
Der iv
uni forme</w>
Fran ken</w>
pers on
Uni vers
pist on</w>
n äh
B ord</w>
vois ins</w>
Sympt ome</w>
ré sol
minist ère</w>
w ahl</w>
Z US
K A
cy clo
j ene</w>
C R</w>
un t
auton ome</w>
ge liefert</w>
on cer</w>
pharmaceu tique</w>
anzu geben</w>
D em</w>
Er eignis</w>
cul tures</w>
dis krimin
eb ung</w>
mécan ique</w>
com pose</w>
Configur ation</w>
verständ lich</w>
norm alement</w>
behand eln</w>
muni cip
ti l
ré tab
go ût</w>
betrei ber</w>
gül tig</w>
Co des</w>
voyag eurs</w>
O DER</w>
Entr ez</w>
fro id</w>
Spezi fikationen</w>
W affen</w>
zi emlich</w>
Modu le</w>
M att
en ch
gewä hren</w>
Fahrzeu gs</w>
d ank
öffent licher</w>
B ind
Rem ar
p es
py ri
pertin ents</w>
ergri ffen</w>
arch iv
lei d</w>
ma z
Bekann t
O uti
hin gewiesen</w>
cli ent
geb rau
g reg
Benutz ern</w>
ast er</w>
po th
über sch
rap ides</w>
Spiel en</w>
an geschlossen</w>
r ang</w>
ell s</w>
éc art</w>
tr at</w>
lég èrement</w>
den de</w>
aus gestatt
Kol legen</w>
ét endre</w>
grei ft</w>
olog y</w>
li bres</w>
b elles</w>
ver wei
particip ant</w>
origin aires</w>
über eins
bewer ten</w>
echn ologie</w>
min ister</w>
cri tiques</w>
pré serv
Be ispiele</w>
cit ée</w>
obten us</w>
Euro stat</w>
compr ession</w>
ie den</w>
ac er</w>
tu e</w>
Al uminium</w>
F isch
alis ées</w>
h n
comm ander</w>
servi ert</w>
Ro m</w>
ech ten</w>
län dische</w>
Gi pf
gericht eten</w>
mélan ges</w>
S AN
plaf ond</w>
ot h
zei le</w>
fer enz
beauftrag t</w>
b o</w>
soli des</w>
présent és</w>
betra cht</w>
wer ts</w>
isten z</w>
Ar me
Kan al</w>
er fordern</w>
kl asse</w>
An betracht</w>
tch èque</w>
excell ente</w>
beeinträch tigt</w>
couver cle</w>
ex klu
R éc
H äu
Liz enz</w>
o st
propos ée</w>
Mol ek
adéqu ate</w>
Er hebung</w>
arrê té</w>
ann exes</w>
dri que</w>
mittl eren</w>
cu it</w>
gn er</w>
lan den</w>
erh eben</w>
P in
ex plor
échapp ement</w>
Sc an</w>
tax es</w>
men gen</w>
Kraft stoff
Re d
öl le</w>
Z immer
Sp a</w>
Fin den</w>
zurück zuführen</w>
Nutz ern</w>
teil ungs
cré ée</w>
IS CHEN</w>
accord é</w>
T ot
enti ère</w>
al é
Schi ff</w>
gest altet</w>
Edi tion</w>
Po wer</w>
do té</w>
ouv r
S perr
Sch rau
intég rés</w>
m ur</w>
eg al</w>
surveil ler</w>
hin reich
ob jek
ori entier
exploit ant</w>
N ah
Par tik
Du blin</w>
VI II</w>
compl éter</w>
all ée</w>
ém atiques</w>
K ON
kt oren</w>
S afe</w>
axi al</w>
mach te</w>
gl ück
elek tro
ch ée</w>
kli mati
discus sions</w>
per tur
lu ß
Durchführungs verordnung</w>
indi quée</w>
z oll
besch riebenen</w>
fr anch
F enst
Sp i
par faite</w>
Ein beziehung</w>
aschin en
publi er</w>
S é
re commande</w>
inscri re</w>
ameri kanischen</w>
str a
ssi s</w>
ergän zt</w>
tu m</w>
vie w</w>
d f</w>
er fahr
G ep
l aut
élarg issement</w>
einheit liche</w>
V ar
In seln</w>
dé co
Agen da</w>
unter str
Cro atie</w>
amè tres</w>
arti fi
stell ten</w>
Rechtsak te</w>
Ou v
Ber n
Berat ung</w>
Gel tungs
Gén ér
conn ues</w>
war t</w>
kl ei
Über blick</w>
reconna ît</w>
früh er</w>
liti gi
donn ent</w>
r on
J ob</w>
st on</w>
be für
vi eux</w>
C af
Zwec ken</w>
Werk e</w>
basi s</w>
ten sions</w>
Zu g
fi ziert</w>
export ateurs</w>
dien sten</w>
Ausw ahl
ai mer
bénéfici ent</w>
ain er</w>
anzu passen</w>
J ord
Al umini
démar rer</w>
appar tenant</w>
Internation alen</w>
í a</w>
s and
EI L</w>
horizont ale</w>
Gleich zeitig</w>
mod ell</w>
er statt
bo ard</w>
verur sachen</w>
authentifi cation</w>
ou est</w>
L ok
Z EU
d î
Pers ön
Sch ö
Halblei ter
ausgewäh lte</w>
avoc at</w>
auf nehmen</w>
verbun dene</w>
A sp
Wiederher stellung</w>
ap é</w>
ün f
cit er</w>
su g
erfol gr
leh nen</w>
it eur</w>
behäl ter</w>
inc lin
s lo
is tor</w>
concern ent</w>
wirk sam
last ung</w>
zu gewiesen</w>
sel ek
Te ams</w>
ré ellement</w>
rapp el
ser n</w>
cultur el</w>
inf o</w>
Sch m
her steller</w>
T ANT</w>
DN A</w>
Proje kts</w>
Tel efon
fr ère</w>
poll ution</w>
Indus trie
pann eaux</w>
medizin ische</w>
cli quant</w>
indésir ables</w>
quot as</w>
Unabhängi gkeit</w>
EI T</w>
Sta ates</w>
â tre</w>
Unter künfte</w>
präsen tiert</w>
vis age</w>
F err
affir m
posi tiven</w>
voul ons</w>
donn ant</w>
integri erte</w>
X I
finan cer</w>
log o</w>
or gt</w>
accueil lir</w>
im pose</w>
ssyst eme</w>
couver ts</w>
aper çu</w>
ssicher heit</w>
Apart ments</w>
A GE</w>
Vou lez</w>
ry th
vali dation</w>
prati quement</w>
es o</w>
m â
Glob al</w>
ent endre</w>
v ingt</w>
Zul ass
proje kte</w>
auf gehoben</w>
be endet</w>
kultur ellen</w>
ma trice</w>
mär kte</w>
Gen ève</w>
pl att
Medi en
D EN
Dän emark</w>
év ac
s év
mor gen</w>
R a
Con sult
b att
Joh n
refus er</w>
Sicher ung</w>
Gericht s
leg te</w>
kompl ex
stock er</w>
réus si</w>
anti cip
ré tro
str om</w>
berühr t</w>
Er war
su ites</w>
lin ien
n º</w>
Ac cor
D ec
express ément</w>
atta qué</w>
beschl uss</w>
einge halten</w>
cor ruption</w>
ni emals</w>
virtu el</w>
ter res</w>
Hand lungen</w>
zahl ungen</w>
W ein</w>
Wer k</w>
Modifi er</w>
Ch ez</w>
ad missi
déplo y
wech seln</w>
erläu tert</w>
recouv rement</w>
oh ol
su i
p iste</w>
Alk yl
ausge wo
Arbeit geber</w>
materi alien</w>
B it</w>
G ES
Rou te</w>
vers aire</w>
Verständ nis</w>
dur abilité</w>
dispos és</w>
bewe gt</w>
vorläufi gen</w>
re group
arch ie</w>
con fron
er wer
wün schen</w>
H ouse</w>
hol ung</w>
bereit zustellen</w>
ul aires</w>
Pro be</w>
Prof essi
atten d</w>
im pressi
modu l
maj eure</w>
lin ken</w>
acc us
konfigur ieren</w>
f action</w>
cu ir</w>
to xi
lich keits
apport ées</w>
le vier</w>
O R</w>
S ul
obten tion</w>
kein erlei</w>
R eich
end a</w>
pro ches</w>
Her kunfts
étiqu ette</w>
kombin iert</w>
Lu f
Aus sicht</w>
Anwendungs bereich</w>
Di cke</w>
Geld bu
grundle genden</w>
car rière</w>
k unden</w>
H ül
cht es</w>
Geschm ack</w>
Oh ne</w>
Un gleich
int ement</w>
ck et</w>
agricul teurs</w>
T ieren</w>
syst emati
ri gi
beträ cht
dispos ée</w>
d ine</w>
cont amin
fr app
sul fon
aéri enne</w>
dér ation</w>
inf l
mili taires</w>
Ein willigung</w>
U M
caractéris tique</w>
form ats</w>
st ers</w>
ass or
lon gues</w>
am ent</w>
détec teur</w>
Barcel one</w>
An merk
Verbesser ungen</w>
Ko ch
termin é</w>
anti dumping</w>
halten en</w>
jäh rige</w>
Neben wirkungen</w>
vor nehmen</w>
Nahr ungs
intermédi aires</w>
Potenzi al</w>
Flä chen</w>
P OR
F li
éventu elles</w>
employ é</w>
ch oc
regar der</w>
f es</w>
Er reichung</w>
G ER</w>
p av
Rumä nien</w>
Adr essen</w>
sch ritt</w>
Buch ung</w>
évol u
aus wirken</w>
rur al</w>
Res ervi
s able</w>
environnement ales</w>
ch tigkeit</w>
er br
Bot schaft</w>
Res er
B enz
équili br
Re formen</w>
ing o</w>
wach sen</w>
ras ch</w>
dürf te</w>
w ak
Ver arbeitungs
ré férences</w>
C F</w>
tz dem</w>
reib ungen</w>
S af
Min i</w>
gef äl
dipl omati
ref us</w>
annon ce</w>
fi z
V M</w>
de g
H aut
fer tigen</w>
câ bles</w>
tari f</w>
al ise</w>
ac comp
lis chen</w>
Zwei fel</w>
Pers onen
propor tion</w>
ES C</w>
in ken</w>
ein setzen</w>
berech tigten</w>
Architek tur</w>
Beob acht
sp iel</w>
ö t
bloc s</w>
än ge</w>
dis k
Eigentü mer</w>
sat ur
unterschied lich</w>
Ma j
Sehenswür digkeiten</w>
komm e</w>
innov ative</w>
Nutzungs bedingungen</w>
A th
Randn r</w>
m ar</w>
mar k</w>
ari a</w>
M ission</w>
verwend ete</w>
geplan ten</w>
bereit stellen</w>
susp en
Qu o
J ack
Ab bildung</w>
vis ites</w>
constitu tion</w>
él astique</w>
ob s</w>
Natür lich</w>
bou illoire</w>
s timmt</w>
bil an</w>
prol on
Sen sor</w>
iden tiques</w>
Wet ter</w>
Großbritanni en</w>
ß es</w>
fer mé</w>
st an
T isch</w>
client èle</w>
restri ction</w>
Einfu hr</w>
s col
ger icht</w>
lo is
ur b
zus ehen</w>
Poliz ei</w>
circu its</w>
s äure</w>
tik a</w>
li ation</w>
haf te</w>
ah nen</w>
Situ é</w>
k ümm
Comm uni
ern st
con ventions</w>
Besei tigung</w>
Probl emen</w>
f tung</w>
Fri ed
einge fügt</w>
T I</w>
vi es</w>
pr ê
enst ein</w>
ähn lichen</w>
opini on</w>
wer tige</w>
P fer
AR TI
wirtschaf ts
industri els</w>
schaf tliche</w>
Edel stahl</w>
k eln</w>
précé demment</w>
natur els</w>
no yau</w>
P M</w>
Wor te</w>
N er
bou tique</w>
men tion</w>
Be antwortung</w>
dé li
L abor
erinn ern</w>
sch äd
Hen ry</w>
cal me</w>
Vir us</w>
Deb atte</w>
SYSTE M</w>
K as
Wort laut</w>
P T</w>
genehmig ung</w>
rä um
pf lichten</w>
cou rir</w>
F lag
Ungar n</w>
beeinfl us
smar t
ing rédients</w>
heu tigen</w>
m eur
Bei tritt</w>
M asse</w>
Aut or
Z ell
überw acht</w>
privil égi
Pro to
förmi ge</w>
alis ierungs
land s
exist ante</w>
Log o</w>
h na
stück e</w>
ti re</w>
clu b</w>
M oh
Pr om
Zeich en
resp ir
eng age</w>
trai ts</w>
ah me</w>
Res ort</w>
fal sch</w>
ma tri
Interess en
hydrau lique</w>
tradition ellen</w>
gerin ger</w>
er leben</w>
T ak
M ir
jou eur</w>
environnement ale</w>
p ont</w>
é no
finan zierung</w>
Kenn zeichnung</w>
geh e</w>
propos ons</w>
tis sus</w>
überzeu gt</w>
Al ters
K ilom
dé grad
Gewähr ung</w>
fonctionn aires</w>
Zo om</w>
ap s</w>
Bestä tigung</w>
sû re</w>
ME DI
charg és</w>
ress ourc
AL I
Min im
H ist
ink lu
so ft
st ammen</w>
Is land</w>
Änderungsan trag</w>
conjo intement</w>
Sp aß</w>
N ehmen</w>
Schwer punkt</w>
wo od</w>
be vollmäch
con sole</w>
rou leau</w>
Ap p
sph äre</w>
ab ord
R C</w>
én ie</w>
Widerspr uch</w>
carb oxy
Schul d
F oto</w>
produ k
n eur
EL L
Anhör ung</w>
V ision</w>
nied riger</w>
rec tifi
In dex</w>
Wasser stoff</w>
arbeit ete</w>
Sp itz
dev rez</w>
den noch</w>
ordnungs gemä
N atri
genau e</w>
wei chen</w>
eig entlich</w>
Ur heber
enf re
pro jec
Wahr schein
ch efs</w>
Vermögens werte</w>
reli é</w>
stei gern</w>
Am er
Weiter en</w>
Am t</w>
tri bunal</w>
P L</w>
sorgfäl tig</w>
M T</w>
w ahr</w>
F ei
men aces</w>
Kli m
proz esses</w>
tr y</w>
Gest altung</w>
S onne</w>
g ation</w>
Rec o
hal ter</w>
Sch r
Cop oly
olog isch</w>
sei tens</w>
ho ffe</w>
B ett
Sitz ungen</w>
pétro le</w>
rempl issage</w>
p df</w>
äur e
sec tori
Aus arbeitung</w>
li br
Speich erung</w>
c ass
T inten
A ide</w>
zieh ung</w>
fourn issant</w>
Zuverlässi gkeit</w>
ré tr
Plu sieurs</w>
kl assi
ari um</w>
constru it</w>
î les</w>
belieb igen</w>
it alien</w>
J am
s és</w>
Arbeits platz</w>
wär ts</w>
Magn et
ag ements</w>
Auf träge</w>
einzig artige</w>
S M</w>
dev riez</w>
ray onnement</w>
del eg
vol umes</w>
M ex
ajou te</w>
d est
j on
port és</w>
for um</w>
é pou
k y</w>
schei be</w>
Kan di
f un
ges icher
is ierungs
Ver wend
em ail</w>
ter ont</w>
O b</w>
posi tiv</w>
s ail
ar z
Qu els</w>
bew ahren</w>
voy ages</w>
enregistr ée</w>
lég ale</w>
über wie
Betrieb ssystem</w>
blei b
terran é
besag ten</w>
A E
Con trol</w>
kilom ètres</w>
Part nern</w>
mo indre</w>
anwend bar</w>
Uni versité</w>
délivr ance</w>
EI T
kl are</w>
basi erend</w>
TER I
zi pi
Himm el</w>
Tr ès</w>
chr om
accep té</w>
l on</w>
instr umente</w>
at er
D G</w>
prof ils</w>
avanc ées</w>
tend ances</w>
ver ändern</w>
détermin e</w>
ci ens</w>
Kraft fahrzeu
ver halten</w>
enn em
O u</w>
sho p</w>
fut ure</w>
Zü rich</w>
ch ances</w>
Ä N
aux ili
rem erci
Ber echn
sépar ément</w>
G B
is o
Sch o
le bt</w>
Schnitt stelle</w>
Di am
Grup pen
Recher che</w>
Aus nahmen</w>
MIT TE
häu fig
Er teilung</w>
appel er</w>
confir mé</w>
Einzel heiten</w>
Dri ve</w>
gen öss
ob enen</w>
z o</w>
Af ghan
fac ult
unn el</w>
pers onen</w>
dép utés</w>
â me</w>
för m
ol z</w>
éventu elle</w>
J ou
Aus stellung</w>
künf tig</w>
Bulgar ie</w>
ot ball</w>
v e
ser re</w>
Struktur en</w>
combusti ble</w>
P I</w>
Secur ity</w>
J ourn
délég ation</w>
Dien sten</w>
kon solidi
plat eau</w>
zw ecken</w>
all um
sup ports</w>
medizin ischen</w>
ersch einen</w>
Aus bau</w>
Arbeits markt</w>
plant ation</w>
Gesetz e</w>
cap teurs</w>
magas ins</w>
ver einfa
st äd
Adr ess
Op en</w>
v an
Hand els</w>
Kno ten</w>
vis a</w>
Im pf
Ober flächen
Se qu
proté ines</w>
accep te</w>
occ asi
Déc ision</w>
Män nern</w>
w in</w>
ss er</w>
Än dern</w>
Up dates</w>
fin e</w>
A F
T ai
es ter
el as
mét aux</w>
Mil ch
l ager</w>
Allgem eine</w>
symbo le</w>
T ier</w>
Ver bot</w>
sor t</w>
Her stellungs
Br un
Ab end
Um f
ci des</w>
en or
A chtung</w>
Win kel</w>
Er bringung</w>
sol ange</w>
durchge führten</w>
Er klärungen</w>
Über sicht</w>
ni er</w>
séri eux</w>
Star t
appar ition</w>
dem andée</w>
R and</w>
au lt</w>
M U
Über prüfen</w>
iel ten</w>
affec tation</w>
I ci</w>
mit geteilt</w>
cri t</w>
ra m</w>
age ant</w>
bact éri
législ ative</w>
éch el
class es</w>
eri es</w>
O sten</w>
is tische</w>
sicht bar</w>
n m</w>
re ck
Tr an
arriv é</w>
ol i</w>
second aires</w>
T OR
mü ss
ru es</w>
M ES</w>
P VC</w>
hor lo
italien ischen</w>
prakti sch</w>
Ad ri
tradi tion</w>
im poser</w>
unter such
Vor schlags</w>
Amts blatt</w>
l ab
C ard</w>
pu issant</w>
I R</w>
in ation</w>
so dium</w>
n ers</w>
ach ats</w>
Durch schnitt
C ab
lég umes</w>
Flug häfen</w>
str e
zi elen</w>
Sup primer</w>
ab outi
u l</w>
d unk
Sicher ungs
nu tri
sexu elle</w>
politi scher</w>
W iss
stütz en</w>
É quip
gewünsch te</w>
liti ge</w>
danger eux</w>
lauf ende</w>
ant érieure</w>
plac es</w>
Werk zeug</w>
Nation al</w>
Ent decken</w>
St euer</w>
sp aci
K ein</w>
ré nov
reg ul
cou cher</w>
offen sichtlich</w>
S ein</w>
komm uni
cér amique</w>
m isch
Aus stattung</w>
ex on
clin iques</w>
d agegen</w>
cru ci
histori ques</w>
proté ine</w>
Vers and
L eur</w>
z éro</w>
par lé</w>
fa ç
Klä ger</w>
Bür gern</w>
co effici
ven tion
en kt</w>
ff er</w>
Mar y</w>
T at</w>
Lei ter</w>
suiv ent</w>
transvers ale</w>
schl ei
st chen</w>
examin é</w>
omm unik
el ements</w>
organ ischen</w>
Hän dler</w>
wirtschaf tlich</w>
aus ger
drin gend</w>
über nommen</w>
ser rage</w>
mensch liche</w>
D ol
initi al</w>
Aut hentifi
liné aire</w>
satis fait</w>
Unter schei
gerecht fertigt</w>
Re aktions
beauftrag ten</w>
hin aus
G VO</w>
er as</w>
accept ation</w>
eh me</w>
réglement ations</w>
entr um</w>
Servi ce
Net work</w>
Str aft
A ction</w>
verein bar</w>
statisti que</w>
s me
mauv aise</w>
T on</w>
déc al
A vi
rem édi
défic it</w>
fil ter</w>
hom olog
EIN EM</w>
Pf licht</w>
Kapaz itäten</w>
Bes te</w>
Pr aktiken</w>
No ël</w>
be zahlen</w>
F ich
j i</w>
Dokum ent
In verkehr
M ah
ex positions</w>
dou leur</w>
APPAR EIL</w>
er bringen</w>
Smart phone</w>
be enden</w>
Vor aus</w>
wen k
spr ä
kat eg
onn ements</w>
is ra
in aires</w>
B on</w>
év it
land wirtschaftlichen</w>
san itaire</w>
inter dit</w>
Empf än
réc ente</w>
A do
bewe gung</w>
Pr ü
mor c
G PS</w>
b at</w>
mitt lungs
Wer den</w>
dé bar
constitu ant</w>
Né anmoins</w>
Schul en</w>
ari ats</w>
reven ir</w>
Col lec
Z U
einig ungen</w>
cherch eurs</w>
res ul
En ts
ein stellung</w>
soulign é</w>
ann a</w>
Stär ke</w>
Nachhal tigkeit</w>
Auff or
Vor bringen</w>
ver teilt</w>
L L</w>
lei ter</w>
Ver gü
Commun autés</w>
ergi e
stat u
quotidi en</w>
län ge</w>
T ages</w>
erweiter t</w>
et a</w>
mili tär
Fest platte</w>
Regi onal
Materi als</w>
men ée</w>
N ad
compréhen sion</w>
Fre unden</w>
délégu é</w>
Ter re</w>
Rem ote</w>
bür ger
fut ures</w>
isten ten</w>
Koh ä
geb nisse</w>
Produk tivität</w>
zy klus</w>
w ände</w>
L ast</w>
envir ons</w>
Fr eu
R y
H U
Dienst leistung</w>
r al
Stim me</w>
migr ants</w>
in tu
or a</w>
calcul er</w>
cap ables</w>
Accor d</w>
Gegen satz</w>
veil l
W ER
fu hr</w>
organis ée</w>
K ür
der artige</w>
Be ach</w>
minim ales</w>
Indi katoren</w>
Kenn wort</w>
gespeich erten</w>
ma ître</w>
Hoh l
Lö schen</w>
ST RU
ge achtet</w>
g as</w>
D rei
k ehr</w>
kon sul
r ane</w>
S icht
Au dio
structur els</w>
finan ces</w>
Gemein den</w>
l enti
G ES</w>
aus o</w>
Gl ück
ci de</w>
pr é</w>
in é</w>
Frequ enz
ad ing</w>
gl as</w>
Sam sung</w>
raccord ement</w>
aus el</w>
schrif tlich</w>
En vir
k it</w>
cont est
Fahr er</w>
W inter
D au
üns tigten</w>
alis ierte</w>
Er haltung</w>
techn ischer</w>
zw in
ett i</w>
nah e
Trei ber</w>
re prises</w>
einge gangen</w>
b i</w>
W ien</w>
Bes itz</w>
sou ver
acci dent</w>
Betra cht</w>
Ak k
c teur</w>
ä umen</w>
Ver einfach
re jet
sig nale</w>
bon us</w>
y n</w>
hal tlich</w>
attein ts</w>
ici les</w>
pré visions</w>
dés activer</w>
Bru der</w>
sch iff
tr ah
Gew inn
portefeu ille</w>
der te</w>
best ell
Durch setzung</w>
réserv es</w>
s exe</w>
TI N
int érieures</w>
situ ées</w>
ell o</w>
ré vo
p istes</w>
Wei hna
plur i
gere gelt</w>
c ture</w>
Associ ation</w>
ti ne</w>
no eu
san gu
Sto ff</w>
B I</w>
D M</w>
inf ection</w>
s ées</w>
ét h
sen ken</w>
Vi dé
C lau
dé bu
Ira k</w>
höch ste</w>
langfris tige</w>
be kräf
détail lée</w>
posi tion
is cht</w>
cop e</w>
Anti dump
H ab
VERWEND UNG</w>
o p</w>
iss ants</w>
OLA F</w>
C oll
ad hési
funktion ieren</w>
lie f</w>
Com posé</w>
am pl
br auch</w>
In tensi
erheb lichen</w>
personnalis é</w>
spécifi quement</w>
unter liegt</w>
gesetz es</w>
Sicher heit
Sch wes
gest altung</w>
mon tée</w>
A maz
Rei fen</w>
génér ateur</w>
comm issaire</w>
T ar
öff n
latér ales</w>
Druck er</w>
Antidump ing
T F</w>
énerg étiques</w>
t ellement</w>
Ab sicht</w>
J A
cht est</w>
É glise</w>
cl ari
Ed ge</w>
fr ein</w>
fil tres</w>
at o</w>
ä digung</w>
Besch werde</w>
chois ie</w>
Haushalts jahr</w>
Acc ès</w>
charg ées</w>
Über gang</w>
Gol f</w>
mét hyl</w>
conten ues</w>
requér antes</w>
kl ag
po issons</w>
trou bles</w>
Kat astrop
lü ssen</w>
Kroati en</w>
Fin lande</w>
er öffnet</w>
on i</w>
de aktiviert</w>
D É
Ass istant</w>
Konsult ation</w>
lin g
soll test</w>
fisc al</w>
cli quer</w>
Ver ordnungen</w>
flu g</w>
fer mer</w>
clin ique</w>
sta ats</w>
bar res</w>
be hält</w>
Musi k
N C</w>
tr ont</w>
her z
iel d</w>
ü ste</w>
weiter es</w>
part ements</w>
R N</w>
Im age</w>
ec t</w>
über greif
ungül tig</w>
enti elle</w>
tempér atures</w>
complè tes</w>
m me
z immern</w>
produ ziert</w>
Behand lungs
Vertei digungs
on str
proc ès</w>
Administr ator</w>
Aus bildungs
form ations</w>
genü gend</w>
im migration</w>
E th
institu ant</w>
N a
re joindre</w>
tu b
Pro ject</w>
environn ements</w>
P fad</w>
Zur ück
H all
betr achten</w>
Erwer b</w>
g a</w>
N a</w>
diff iciles</w>
w ahren</w>
d rucken</w>
alis ierten</w>
individu el</w>
In halts
correspon dent</w>
Ver stö
frei ung</w>
Erzeu gnissen</w>
amélior ations</w>
étiqu etage</w>
P rés
cro ire</w>
viv ant</w>
S ir</w>
bedeu ten</w>
S cot
J eux</w>
Char te</w>
Op tions</w>
Inst anz</w>
di versi
plan ète</w>
re is
Fortsch ritt</w>
re guli
übertrag ung</w>
explo iter</w>
for tab
Ado be</w>
soulign er</w>
vorgeseh ene</w>
ar m</w>
to it</w>
hier für</w>
i o</w>
verbind et</w>
dép ens</w>
St ein
eil ungen</w>
m urs</w>
dériv é</w>
parti s</w>
ult érieure</w>
Nouv eau</w>
Kr äf
region aler</w>
progr ammen</w>
afri c
configur é</w>
Fak tor</w>
por ting</w>
spécifi ée</w>
un des</w>
COM POSI
chines ischen</w>
ger ing
vor her</w>
Glü ck</w>
AL L
Mus ée</w>
vor bestimmten</w>
légi times</w>
ber ichte</w>
kon zep
M ES
journ aux</w>
Sum me</w>
par avant</w>
Soll te</w>
Sho w</w>
adap tées</w>
Bewe gungs
Zu wider
Gegen stände</w>
echni k</w>
kan al</w>
mittl ere</w>
t ait</w>
origin al</w>
Sk rip
for êts</w>
f la
condi tionn
Li b
Vertei digung</w>
conform er</w>
spécifi er</w>
minim al</w>
Sti ck
Sky pe</w>
beruf lichen</w>
Direc tive</w>
richt linien</w>
Or te</w>
réserv er</w>
L ar
observ ation</w>
Ä gyp
Telek ommunik
montr ent</w>
cu isson</w>
ro l</w>
beeinflus sen</w>
m émor
A éro
ver änder
di a</w>
konkr eten</w>
end lich</w>
Re chten</w>
T ru
IS CH
E CH
eu ung</w>
fut urs</w>
S ex
S AT
F RE
ser s</w>
ti quement</w>
pé nale</w>
si erten</w>
je gliche</w>
étudi er</w>
Fü ll
neg ativen</w>
L aut
B est</w>
mobil en</w>
enc einte</w>
Gemeins ame</w>
lo ser</w>
fréqu ences</w>
Funktion ieren</w>
vor zunehmen</w>
Ver änderung</w>
ol o</w>
appel ée</w>
ri es</w>
is ierten</w>
considér ations</w>
Be arbeiten</w>
a z</w>
manu ellement</w>
H ans</w>
Rechts grundlage</w>
for schung</w>
Ab ent
Herr en</w>
ri vi
Sel bst</w>
W TO</w>
r ats</w>
suiv ie</w>
individu ellen</w>
châ ssis</w>
mé lang
élo ign
Ein trag</w>
Privat sphäre</w>
äm ie</w>
respec tifs</w>
améric aine</w>
hoh em</w>
Energie effizienz</w>
dirige ants</w>
no ten</w>
D ein</w>
le ger</w>
i ens</w>
vers ement</w>
ex posés</w>
Bat terie</w>
Sal z</w>
On e
eh nt</w>
médi terrané
Wissen schaft</w>
Be weis
Dét ails</w>
kon zip
Poly mer</w>
Mar s
char gez</w>
Ab t
schl us
vor ran
gericht ete</w>
Cir cuit</w>
mu tuelle</w>
m än
opérationn el</w>
Bem erk
dau erhaf
Versor gung</w>
pol ar
Ein leitung</w>
absol ument</w>
Jahr zeh
Pro c
S EN</w>
ph ones</w>
Imp ul
attribu t</w>
Stra ßen</w>
I so
medi um</w>
schwer wie
na m</w>
inclu sion</w>
eigen schaften</w>
au trement</w>
P ack</w>
S EN
C M</w>
Bestand teile</w>
tab leaux</w>
Sin n</w>
tu yau</w>
f it</w>
ti les</w>
activ ement</w>
Kan ada</w>
st h
R A</w>
Cor e</w>
bo den</w>
Be zug
étrang ère</w>
best än
B EN
ém ie</w>
mix te</w>
enf ör
B ol
S wit
Aus richtung</w>
G ut</w>
is h</w>
val able</w>
opport unité</w>
er b
W A
g ingen</w>
aéro ports</w>
Platt formen</w>
phr ase</w>
intemp s</w>
p ér
Um wand
c y</w>
fas sten</w>
zi el</w>
el ementen</w>
prof it
des sin</w>
démontr er</w>
h éli
CO D</w>
zwei f
disk uti
wachst um</w>
beein druck
Reihen folge</w>
ré flexion</w>
geb oren</w>
mi gen</w>
gl er</w>
S timmen</w>
accél érer</w>
Luft fahrt
expli quer</w>
jeun esse</w>
lieb e</w>
ELE CT
ang ulaire</w>
M em
Drit ter</w>
N O</w>
dar gelegt</w>
op tische</w>
exprim er</w>
ser ie</w>
meu bles</w>
haut ement</w>
pens ez</w>
P ère</w>
trei ben</w>
nutz ung</w>
as i</w>
assur ant</w>
PAR TI
classi fication</w>
hochwer tige</w>
iden tique</w>
contribu ent</w>
Er findung</w>
ryth me</w>
Par amètres</w>
ir t</w>
og a</w>
f ête</w>
Gesetz es</w>
ge bieten</w>
pa quets</w>
Befu gnisse</w>
wissenschaf tliche</w>
Co un
den kt</w>
lei den</w>
Mär kten</w>
al erte</w>
sol aire</w>
Harmon isierung</w>
In ner
sec ret</w>
I DE</w>
Er halt</w>
automati schen</w>
S UR</w>
n ation</w>
os s</w>
M echanismus</w>
Hei zung</w>
Met ho
tes te</w>
tr on</w>
E spr
correspond ance</w>
kon st
fl uss
getr enn
ent liche</w>
Tab leau</w>
bedien ung</w>
cu ivre</w>
Win ter</w>
anz us
St abil
c le
cré és</w>
Be dienst
lag en
Dim en
stand ard
Abschn itte</w>
rec ou
War tung</w>
infl amm
K urs</w>
VM ware</w>
k amp
ein bezogen</w>
san itaires</w>
is ie</w>
Einsch ränkung</w>
näh er</w>
o v</w>
autoris ées</w>
ide ale</w>
ü gen</w>
Man i
op f</w>
en tiert</w>
ent ôt</w>
b lis
ges tri
g in
let ten</w>
ab us</w>
B in
dem an
b ie</w>
or ts</w>
Ferien woh
vis er</w>
korre kt</w>
onal d</w>
Ru he</w>
av al</w>
Ré s
Wachst ums
commut ateur</w>
diesel be</w>
registr iert</w>
dé gu
ON G</w>
beschrän ken</w>
frein age</w>
unter zeichnet</w>
connec tés</w>
dom icile</w>
é si
Besch lüsse</w>
ér ité</w>
pou ssi
dis tor
ster ben</w>
E V
En den</w>
sch éma</w>
Car te</w>
grenzüberschrei tenden</w>
kor rig
paro is</w>
S av
erk r
N ic
visi bilité</w>
w a</w>
modu l</w>
bénéfi cie</w>
g re</w>
connec teur</w>
schi cken</w>
b om
t nissen</w>
AR D</w>
M eil
occu pe</w>
dem selben</w>
ele gan
Schließ en</w>
uti f</w>
parti elle</w>
b lichen</w>
Bewer tungs
transfer ts</w>
Aktions plan</w>
ans ehen</w>
L enk
Lauf zeit</w>
P ass</w>
is sus</w>
Zei traums</w>
onn ant</w>
D ach
sei d</w>
erh aft</w>
Frem d
p in
veil lent</w>
vor gelegten</w>
Mass en
Vis a</w>
For derung</w>
souhai tent</w>
Aussch uß</w>
re gr
sol ches</w>
An kunft</w>
homolog ation</w>
fü ll
chauss ures</w>
y pen</w>
emb ar
Situ ationen</w>
ci en</w>
mi di</w>
acr yl
ér ations</w>
collè gues</w>
publi ée</w>
Bi bliothek</w>
Ergeb nissen</w>
strateg ischen</w>
Fer tig
att est
gr as</w>
Dan ke</w>
trans porteur</w>
recommand ons</w>
geh and
kontrolli eren</w>
Com bien</w>
grün de</w>
Ler nen</w>
O MC</w>
s avons</w>
zentr en</w>
P P</w>
préjudi cielle</w>
poth ek
ent gegen</w>
geb un
Auf lösung</w>
L yn
kapaz ität</w>
Kompet enzen</w>
o ter</w>
met tez</w>
El ementen</w>
lä tter</w>
Tab ellen</w>
Woh nungen</w>
ab eth</w>
ati n</w>
To chter</w>
ätz ungen</w>
prob able</w>
welt weiten</w>
ouv ri
t aus
wieder um</w>
Wahr ung</w>
arb res</w>
uli erung</w>
Br et
zur eich
Be denken</w>
lei der</w>
O ly
Aus gleichs
gän gen</w>
jug é</w>
p éch
S zen
cas ino</w>
h ül
aéri ennes</w>
zer ischen</w>
Fr ü
organis é</w>
verl etzt</w>
écur ité</w>
Voll streck
ï d
W ash
ein st
geh ol
né er
soft ware</w>
sul f
dr ale</w>
b ot
versicher ungs
bezo gene</w>
port ail</w>
O H
ér ant</w>
at em
gew in
verwalt et</w>
H K</w>
ch an
Haf en</w>
Plä ne</w>
ter ait</w>
é mo
Afghan istan</w>
Ach eter</w>
sou lev
amin o</w>
ati schen</w>
B y
lib ération</w>
ein geleitet</w>
wieder holen</w>
sol s</w>
D ém
Z immern</w>
tu bes</w>
fäl lig</w>
Veranst altung</w>
C a</w>
kompati bel</w>
Con tent</w>
nég ative</w>
di erung</w>
brev et</w>
cr its</w>
y lam
Po d</w>
gesetz te</w>
B ad
ELE K
considér able</w>
em placements</w>
le ister</w>
plac és</w>
zei ge</w>
Origin al
exist ent</w>
geh ens
législ atif</w>
gehäus e</w>
o ff</w>
sen k
BE H
pour vue</w>
Kol lek
Ad v
Gr ü
poss èdent</w>
Flug zeu
bean tragen</w>
D R</w>
kre di
qu ette</w>
Verl uste</w>
jün gsten</w>
Ether net</w>
châ teau</w>
Ein satz
Men sch
B a
confir mer</w>
Dor f</w>
Im plem
banc aires</w>
rou leaux</w>
ausreich ende</w>
Éch ec</w>
bein halten</w>
Des igner</w>
HY D
am an</w>
ge änderten</w>
Wär me</w>
absor ption</w>
om er</w>
beg onnen</w>
be kämpfung</w>
pl ung</w>
tr um</w>
camp agnes</w>
bil let</w>
hi ér
über nimmt</w>
G um
Pat h</w>
mat ur
vers eh
bou che</w>
verknü pft</w>
flu g
technologi ques</w>
gehö rigkeit</w>
riteri um</w>
Schrif t
ack s</w>
peri ode</w>
um zusetzen</w>
ber at
circul aire</w>
empê che</w>
an bieter</w>
ko fen</w>
è tes</w>
Her stellen</w>
collabor ateurs</w>
lat er
AM MEN
D év
forder te</w>
eti sch</w>
Ver schi
De fin
K it</w>
un r
signi fi
sou s
app ell
coff re</w>
H ir
ge dacht</w>
CO VID</w>
S ehr</w>
Ac cu
S ais
bel ast
zu gehörigen</w>
Bra si
verbo ten</w>
indi quées</w>
t ailles</w>
J on
caus es</w>
Grund sätzen</w>
environnement aux</w>
Arbeits weise</w>
Materi al
lei chter</w>
tour ner</w>
comm is</w>
rom anti
basi erte</w>
ri es
identifi zieren</w>
fest stellen</w>
supprim é</w>
cohér ente</w>
hi elt</w>
éné tr
G anz
Arme e</w>
fabri qués</w>
pein ture</w>
loc alisation</w>
itä t
Ar chi
Au ge</w>
gel s</w>
schr itt
R É
k i
w en</w>
Dig ital</w>
Internation ale</w>
Min ute</w>
jus ti
ot her
com parti
St au
Ver kauf
Mil ch</w>
ob je
s ehe</w>
tr ous</w>
re publik</w>
Provin z</w>
salari és</w>
transi t</w>
Gl auben</w>
ati s</w>
lam e</w>
se e</w>
effec tif</w>
ajou t</w>
egel ung</w>
inter ventions</w>
po isson</w>
B rési
rah mens</w>
an es</w>
Oper ation</w>
ru f
sek ret
appar aître</w>
vor schlag</w>
Städ ten</w>
ner v
Ein trag
M alt
verl ust</w>
Redu zierung</w>
Über prüf
an sch
kontr oll
mit ten</w>
ann ulaire</w>
deut sche</w>
Mini bar</w>
R ing</w>
unter suchen</w>
pé d
R ollen</w>
tran qu
Soci été</w>
el opp
mo dé
G D</w>
mi eten</w>
ent standen</w>
légi time</w>
kehr t</w>
ar ische</w>
di am
fi eld</w>
le gi
I M</w>
I l
Ty pen</w>
k einem</w>
R einigung</w>
G az
ach eté</w>
sub i</w>
W eg
Com pan
genomm enen</w>
imprim er</w>
d äm
cent aines</w>
C ER
am ent
ar dis
laut et</w>
Ge werk
so yez</w>
actionn ement</w>
to p</w>
éch ec</w>
Bulgar ien</w>
I CH
for êt</w>
annon ces</w>
Frei heiten</w>
di lu
verstär ken</w>
c esse</w>
s w
le ader</w>
Kl assi
end ur
oc yan
vis ent</w>
M ahl
Ar th
dou ane</w>
mu ster</w>
Su per</w>
D P</w>
S ehen</w>
h är
o cé
ent steht</w>
ä tigkeiten</w>
en cer</w>
dr ait</w>
I soli
il y</w>
spec tac
steh e</w>
P et
fr om
be anspr
remédi er</w>
ungs einrichtung</w>
inc en
r ing
Be weise</w>
EN N
kontrolli ert</w>
man qu
G AN
ge fasst</w>
Innov ationen</w>
Com par
Ant i</w>
os ophie</w>
En erg
ho w</w>
ON U</w>
wes enheit</w>
Ver lauf</w>
rej eté</w>
o la</w>
Le e</w>
einig t</w>
Esp ace</w>
geb ühren</w>
Zur ich</w>
D ON
posi tifs</w>
élec trom
ex posé</w>
ver ank
di agr
dau ern</w>
In halten</w>
Phili ps</w>
install és</w>
voul u</w>
f aus
f lan
Gebi et
Lebens mitteln</w>
fa isons</w>
Tick ets</w>
einges tu
gel esen</w>
cont actez</w>
is to
Ok ay</w>
Ein griff</w>
AU F
gem ess
En gl
mom ent
C N</w>
opport unités</w>
pan or
restri c
r av
fr aî
matéri els</w>
conn ais</w>
Ges icht</w>
S timm
fur t</w>
mi roir</w>
Gegen d</w>
Pal ette</w>
D B</w>
wi dri
t heit</w>
Be förderung</w>
M ou
Energi en</w>
human itaire</w>
gr ammes</w>
ti t
atta ques</w>
indi quent</w>
ver arbeitungs
i T
class ement</w>
E li
cin qui
ein ture</w>
mont agnes</w>
Ergän zung</w>
g ènes</w>
ursprün glich</w>
D enk
vi erten</w>
M B
lic y</w>
S z
tu el</w>
gleich zei
Um feld</w>
trieb e</w>
b lin
Land wir
F ok
appréci er</w>
p asser
Hô tels</w>
motiv ation</w>
heb t</w>
réus site</w>
einzel staatlichen</w>
rie gel
è vement</w>
Car act
Fir men</w>
lo gements</w>
Komment are</w>
le ben
deg rés</w>
R h
be h
eu s</w>
sch alt
tré sor
iss er</w>
tu y
v illa</w>
venti l
Ein en</w>
kur ze</w>
visi bles</w>
L ap
affir me</w>
vor ange
ber ich
Daten banken</w>
geschi eht</w>
Bac kofen</w>
ex iger</w>
Sw iss
n ein</w>
sch ule</w>
G H
M es</w>
anti corps</w>
At tr
Trouv ez</w>
Re isen</w>
ven tionen</w>
ver trä
Justi z</w>
hal l</w>
Besch aff
s z
orifi ce</w>
P as
leit ungs
Erwachs ene</w>
in e
rap proch
an geb
en ade</w>
comp table</w>
zei gten</w>
fr em
IN FORMA
Qu ar
vari ables</w>
beschäf tigt</w>
diff er
éc ologique</w>
offici elle</w>
etwai ge</w>
J eu</w>
administr ations</w>
klin ischen</w>
ver zi
Funktion alität</w>
seg ments</w>
emati k</w>
Telef onn
ni emand</w>
Besch ränkung</w>
Jos é</w>
hand lungen</w>
persön lich</w>
bis her
er aient</w>
v it</w>
prest ataire</w>
Um gang</w>
g le</w>
tu eux</w>
Buchst aben</w>
cylin drique</w>
op tiques</w>
ok s</w>
progressi vement</w>
betei ligen</w>
spar en</w>
wech sel</w>
dî ner</w>
Dév elopp
Fr u
uni versité</w>
th èmes</w>
ZUS AMMEN
Prem ier</w>
K E</w>
ai r
SA N</w>
op ath
satis faction</w>
Con férence</w>
tari at</w>
Int elli
Ver fol
verlän gert</w>
pay sage</w>
rou tes</w>
W est</w>
Garanti en</w>
wus ste</w>
cul p
t ür
zz a</w>
entr ez</w>
sili cium</w>
éventu els</w>
hy len</w>
F lan
dis ant</w>
appar aissent</w>
j ard
re pos</w>
oblig atoires</w>
ab li
popul ations</w>
rus se</w>
wiederhol t</w>
proch aines</w>
An ten
do tées</w>
ver weist</w>
sp anne</w>
Jahrhunder ts</w>
ass en
T el</w>
jewei lige</w>
obten ue</w>
Brési l</w>
iss ait</w>
sup érieures</w>
un möglich</w>
on alen</w>
zufrie den</w>
an om
T aste</w>
fin alement</w>
th é</w>
Me d
Sp alten</w>
rän ken</w>
relè vent</w>
be wäl
po int
Ne w
b ords</w>
âg és</w>
Chem ik
ö tz
réguli ère</w>
H ände</w>
met hyl</w>
urg ie</w>
ol en</w>
probl eme</w>
Be ding
manu ell</w>
versch lüss
ange l</w>
qu itter</w>
kö mm
Ent schä
Kant one</w>
gew al
per n</w>
P ESC</w>
Zusammenf assung</w>
einzig artigen</w>
Verb und
Französ isch</w>
tab il
wichtig ste</w>
Brem s
hö her
lis che</w>
am i
aus es</w>
gele gen</w>
ret ourn
gr up
prol ong
Sig nale</w>
A cr
L T</w>
Ma ster
ur s
L au
ter ungen</w>
spr in
S alle</w>
seu les</w>
industri es</w>
Alex ander</w>
Ani m
a p</w>
ar ités</w>
tamp on</w>
bet ä
W äh
erleich tert</w>
UTILIS ATION</w>
B r</w>
alli eren</w>
amm ern</w>
c élé
un zureich
abgel ehnt</w>
G ASP</w>
Consult ez</w>
lois irs</w>
An fragen</w>
famili ale</w>
Wo chen
ab gesch
on te</w>
F I</w>
Hu b
flü ge</w>
témo ign
to t</w>
S ab
lieb t</w>
Mün chen</w>
Schreib tisch</w>
C ad
Fo und
Kli ma</w>
Ameri ka</w>
Corpor ation</w>
Christ op
ko cher</w>
r ation
fondament ales</w>
Soci al</w>
écri re</w>
Schn ell
d an</w>
cad eau</w>
Einsch ränkungen</w>
gemein schaft</w>
Schwar z</w>
étro itement</w>
r ares</w>
Mi ke</w>
Leg isl
Ein spr
s hi
ampl eur</w>
urr ence</w>
le gungs
Sal z
m ères</w>
nehm enden</w>
Hig h
Ab gabe</w>
lig keit</w>
Untern ehmer</w>
rä umen</w>
visu elle</w>
K äufer</w>
tab ac</w>
Diskus sion</w>
verabschie det</w>
Wertpap ier
sch ätzen</w>
S L</w>
d ä
correspond antes</w>
min istres</w>
Mitarbei tern</w>
lou er</w>
gr ap
S ons
ergän zen</w>
geograf ischen</w>
v eau</w>
Untersuch ungs
zu gang</w>
Fahrzeu gen</w>
b ol
déc ouverte</w>
Solidar ität</w>
iT unes</w>
cré di
comprom is</w>
Bei tritts
aus gesch
el be</w>
bri l
tä tigen</w>
Dro p
Bahn hof</w>
Konfigur ations
Versch lüss
tr i</w>
S mit
compos ée</w>
unterstr eicht</w>
syn thèse</w>
OR T</w>
Sp ir
kompon enten</w>
re vi
contr aintes</w>
zü gi
trans fér
Aus gang</w>
T HER
pr intemps</w>
ag o
Deb ian</w>
Vertret ung</w>
chois is</w>
Prof itez</w>
avanc ée</w>
Mili tär
demokrati schen</w>
organis iert</w>
conseil ler</w>
ri eren</w>
issi ez</w>
Zwei tens</w>
plan en</w>
An trags</w>
M Hz</w>
feh lt</w>
provo quer</w>
griff s</w>
travail lent</w>
erklär te</w>
Bl ack</w>
Klimawand el</w>
rég issant</w>
zipi en</w>
SE TZ
alt h</w>
CA D</w>
Gep ä
G il
volont aire</w>
k in</w>
arti cul
h ts</w>
äl teren</w>
adop tés</w>
Y el
opérationn elle</w>
respec te</w>
äs tin
S enden</w>
p énétr
ul ar
os c
am id</w>
répon dent</w>
durchschnitt liche</w>
mer ci</w>
formul ar</w>
estim ation</w>
kom pet
a e</w>
jou é</w>
Verm eidung</w>
Land schaft</w>
Ann a</w>
cultur elle</w>
zier ter</w>
Köni gr
SC SI</w>
as y
rencontr er</w>
durchschnitt lichen</w>
Er fahren</w>
prop ag
lo ts</w>
M ic
Ge danken</w>
ak en</w>
aff ili
endr ont</w>
schutz es</w>
rand onnée</w>
fé min
en gen
ge plant</w>
Spezi al
L ot
und i</w>
ator ische</w>
S omit</w>
unter halb</w>
lég er</w>
cat alogue</w>
fin de</w>
AU F</w>
L as</w>
judici aires</w>
climati ques</w>
crimin alité</w>
itali enne</w>
pal ette</w>
Verhäl tnis
ar ab
Mo yen</w>
schn ei
Schwi mm
ag ez</w>
zw ecke</w>
N S</w>
int è
E is
ge arbeitet</w>
tä glichen</w>
Wirtschaftszwei gs</w>
kompon ente</w>
SA P</w>
stör ung</w>
Ch y
An ne</w>
particip é</w>
En tre
nuclé aires</w>
gew isse</w>
Ü brigen</w>
E le
wink el</w>
br em
Kontroll kä
Be vor</w>
arr êts</w>
F AB
Fol gen
T ap
S e</w>
chem ischen</w>
gesetz lich</w>
fant as
er ör
Her kunft</w>
manu elle</w>
Ori ent</w>
Kon ten</w>
ung er</w>
assur é</w>
ar tiger</w>
interessi ert</w>
str af
Sp itze</w>
communi quées</w>
Inverkehr bringen</w>
er stes</w>
désign é</w>
A vis</w>
au tion</w>
habitu ellement</w>
comp tabil
nach gewiesen</w>
pul v
modifi és</w>
RE G
et ern</w>
thér apeu
Nor v
J ur
lad ung</w>
int egr
den selben</w>
appu yez</w>
D ün
Wirk ungen</w>
stütz t</w>
Te e</w>
statt finden</w>
ver zö
auf merk
W all
Pla y</w>
gol f</w>
am ortiss
aus gestellt</w>
ord res</w>
su chte</w>
équip és</w>
elektr isch</w>
Identifi zierung</w>
chem ische</w>
Son y</w>
Wash ington</w>
me ist</w>
Mittel punkt</w>
Er st
ray ons</w>
her um</w>
S ä
umfan gr
cinqui ème</w>
di eren</w>
permet trait</w>
correspond ants</w>
arr ête</w>
Be fehl
ort ho
y lo
ois eaux</w>
D AT
Spann ung</w>
hy dri
n ennen</w>
Bo ot</w>
Chanc en</w>
T ö
rech nungs
bezieh ungen</w>
ge form
in sé
SU B
gyp te</w>
em aschine</w>
Mitglied s
Wei ter</w>
bal ay
s ages</w>
Finn land</w>
destin ataire</w>
um p</w>
gen auso</w>
ITE MENT</w>
pl ainte</w>
tr ac
Ver such</w>
au paravant</w>
g ei
Kohä sions
Gerä ts</w>
bi entôt</w>
At om
inn ere</w>
dé passer</w>
concentr er</w>
P ou
A ri
Z U</w>
St amm
Bel astung</w>
woll ten</w>
Infrastru ktur
zi vil
cou liss
wus st
C hat</w>
Gen au
G all
métalli ques</w>
re trouver</w>
Stei gerung</w>
r n</w>
kürz lich</w>
Wasser kocher</w>
suppl ément</w>
produ isent</w>
Nach richt
General sekret
fa ktor</w>
reç ues</w>
Produ it</w>
entwick elten</w>
lok aler</w>
Erzeu gen</w>
Cont actez</w>
can apé</w>
L oc
G é
speich er
propos ent</w>
fall enden</w>
PRO TE
relev é</w>
Ab fälle</w>
ac y</w>
Norv ège</w>
kl eidung</w>
s sten</w>
or er</w>
compét ent</w>
Adap ter</w>
Wer ten</w>
sac ri
extr ait</w>
ré jou
att entes</w>
Kommunik ation
L ay
nor men</w>
Br ü
S achen</w>
sup porter</w>
geis tigen</w>
r ab
En ti
K en
Tro tz</w>
Ernähr ung</w>
esc ence</w>
Ho st</w>
entr et
mitt ler
G ir
Er suchen</w>
préoccup ations</w>
ét al
li tät</w>
ver wirk
ssi g
Geh alt</w>
pré lèvement</w>
Kreu z
mor ts</w>
C e
ad hér
ssyst ems</w>
axi ale</w>
om er
Haupt stadt</w>
koh är
imm eu
intég rées</w>
toil ettes</w>
financ ements</w>
Fahr t</w>
médec ins</w>
Lös ungsmittel</w>
J an</w>
zunehm end</w>
conna ît</w>
quotidi enne</w>
Sor gen</w>
em it
ens wert</w>
Sol utions</w>
Soll ten</w>
sou ple</w>
en cl
sch ar
k ations
ph ases</w>
our eux</w>
Vereinfach ung</w>
cour ants</w>
mac ro
inci dences</w>
gu tes</w>
Re d</w>
Austr alie</w>
lin k</w>
Acc essoires</w>
IS CHE</w>
ac et
emb les</w>
Ber n</w>
O k</w>
al b
op poser</w>
compl ex
inklu sive</w>
ex am
eri a</w>
schwer e</w>
poll u
déten dre</w>
Ab teilung</w>
ann oncé</w>
com pu
Kom m</w>
we ge</w>
es po
concentr ations</w>
rempli es</w>
ressourc en</w>
tig ter</w>
é ré
par tant</w>
recycl age</w>
œ il</w>
posi tionnement</w>
zu zu
Geh ir
dou ze</w>
Ein reichung</w>
juridi ctions</w>
teil ungen</w>
inter venir</w>
o w</w>
procé dés</w>
Beschwerde kammer</w>
tier ende</w>
Br ut
LA GE</w>
teil te</w>
ver tei
AC H</w>
ent er
Trans aktion</w>
m étab
auf bau</w>
gesch ehen</w>
i ii</w>
Aufent halts
m ur
Sen si
en rich
Z eilen</w>
th e
Eff ekt</w>
Tag s</w>
memb rane</w>
po che</w>
azo te</w>
at ors</w>
ent ou
dépend ance</w>
Kü ste</w>
bequ em</w>
d rap
Cré ation</w>
es ters</w>
i Pod</w>
Reco very</w>
bou cle</w>
réc entes</w>
ell i</w>
stu fen</w>
Vol umen</w>
be feh
Stu denten</w>
autonom ie</w>
c an</w>
besch leun
H S</w>
Lo cation</w>
ax es</w>
strat egie</w>
Pri mär
nach drück
A ar
recher chez</w>
zw öl
fan den</w>
puis qu</w>
Gesch irr
Reinig ungs
k as</w>
en tieren</w>
Vi a</w>
Mehrwertst euer</w>
ett et</w>
pro sp
param eter</w>
erweiter n</w>
er sucht</w>
con fér
off ice</w>
com be</w>
T aus
connec tée</w>
Asp ekt</w>
parti el</w>
f asse</w>
tu é</w>
Kri min
Remar que</w>
gewäh lten</w>
S ün
prakti sche</w>
arr en</w>
h ause</w>
CL AR
bar s</w>
No ch</w>
Ex port
C ot
Vor gänge</w>
Genehmig ungs
bor ne</w>
französ ische</w>
Mad ame</w>
Pers onn
gül tige</w>
organ iques</w>
destru ction</w>
M exi
ath an</w>
dan ke</w>
fais ait</w>
ts eite</w>
vor legen</w>
o gen
Ex p
comprim és</w>
üst et</w>
Pla y
remar qu
ã o</w>
ja une</w>
modifi ées</w>
télé communications</w>
char i
lég ère</w>
dr ess
at egie</w>
Rah mens</w>
vorher ige</w>
courri el</w>
tes ter</w>
Ü BER
sozi aler</w>
P resse</w>
Au di
territ oires</w>
res ervi
B our
for tsch
as cens
in su
auf wand</w>
aff ér
G ali
déclar e</w>
ti ger
ver geben</w>
get ö
gs te</w>
jähr liche</w>
lumin eux</w>
Fo lie</w>
ar te</w>
Königr eichs</w>
begrenz te</w>
betrei ben</w>
Parlam ent
Par all
ö den</w>
Comm erce</w>
ü bri
Christ us</w>
vers ammlung</w>
ss on</w>
ver a</w>
ger ingen</w>
con vertiss
re fle
Fü hren</w>
fav oris
ol ine</w>
bran ches</w>
ü t
Rem ot
k tionen</w>
Befu gnis</w>
glis ser</w>
wes halb</w>
Fel d
her zustellen</w>
garantiss ant</w>
spä teren</w>
Gew ebe</w>
br achte</w>
Prin zip</w>
bou tons</w>
encour age</w>
Assur ez</w>
cor ro
Kooper ations
investi r</w>
Aff ich
is ier
av a</w>
inter opér
accueil le</w>
respec tives</w>
Kontrollkä stchen</w>
envis ager</w>
accor dées</w>
extr em</w>
Star ten</w>
industri el</w>
Ke y
al lo
amén agement</w>
sécur isé</w>
termin ée</w>
fi che</w>
gi es
brev ets</w>
chau de</w>
Ch lor
Vo ilà</w>
wer ken</w>
I I
rép ét
be zü
hor mon
resp ek
ter ies</w>
Kenn tnisse</w>
Gol d
r en</w>
Alk yl</w>
Treib haus
ge druck
cl oud</w>
Fr isten</w>
Tour ismus</w>
Roy al</w>
voll em</w>
Bo î
Frei zeit
Per spek
ge ordnete</w>
Künst ler</w>
Pr enez</w>
dou x</w>
Aktivi eren</w>
EL LE</w>
hol m</w>
institution ellen</w>
kontinuier lich</w>
Well n
EN TI
Hy bri
lich te</w>
eit eten</w>
krist all
Kon tin
är er</w>
difficul té</w>
Posi tion
Er richtung</w>
be dürf
ol ution</w>
répon dant</w>
P O</w>
glie d</w>
hôp ital</w>
stamm t</w>
s cript</w>
onn aires</w>
intégr alité</w>
li tt
Vers and</w>
substitu é</w>
zei traums</w>
Mont age</w>
ni que</w>
xi èmement</w>
cardi aque</w>
mel dungen</w>
si f</w>
PRODU CTION</w>
langfris tigen</w>
or ique</w>
ren voie</w>
en dem</w>
ü sse</w>
Fi x
Mark tes</w>
clav ier</w>
en ergie</w>
häu fi
inst ances</w>
lag erung</w>
britanni que</w>
vor lage</w>
ck t
d ement</w>
sub vention</w>
ï des</w>
re voir</w>
ferm ée</w>
c ées</w>
ali a</w>
Accu eil</w>
val ent</w>
Ressourc en
ni ch
Ein kaufs
demand eurs</w>
ard o</w>
Dat a
Vor gaben</w>
Institu te</w>
versor gungs
arbei ter</w>
ex tru
g az
ver bringen</w>
Schön heit</w>
ac ou
Körper s</w>
Zu g</w>
Innov ations
Wei ß
possé dant</w>
TI V
Ein gabe</w>
cr eux</w>
ti gem</w>
zu gleich</w>
denti n</w>
Ber ne</w>
arti stes</w>
effek tiv</w>
Her unter
detailli erte</w>
Bi blioth
pl om
is ierte</w>
T an
em en
fo lie</w>
o va</w>
ver stoßen</w>
k W</w>
T am
ap porté</w>
C ali
visit ez</w>
nécess airement</w>
vorgeschlag ene</w>
Ver hin
mon str
échantill onnage</w>
HT TP</w>
beur teilen</w>
ach em
éligi bles</w>
N ap
Yel p</w>
ass ist
Betä tigungs
absol ut</w>
In n</w>
G T</w>
Str ecke</w>
Verpack ungs
alu t</w>
t emperatur</w>
Nor m</w>
P hy
inter rog
S ES</w>
St ap
syn dic
rig ht</w>
zusammen arbeiten</w>
marqu age</w>
nied rigen</w>
H ay
sail lie</w>
P RI
Erwar tungen</w>
BI OS</w>
Proz essor</w>
A mé
dis cher</w>
t um
it ables</w>
Er läu
an en</w>
Alko hol</w>
i elt</w>
tox ic
douan ières</w>
entr av
p ent
Vidé o</w>
wi es</w>
sec ours</w>
horizont al</w>
Télé charger</w>
Sch altung</w>
Elek tri
Det ek
ci bles</w>
K le
bl é</w>
cav ité</w>
compar er</w>
is tern</w>
str ö
Dom ain</w>
W ahlen</w>
geb ro
Las er
Prüf ungs
contre partie</w>
s ent</w>
Bedien ungsan
erh ielt</w>
milli on</w>
echn ologi
n ant</w>
Ques tion</w>
off rons</w>
Al ban
st atique</w>
correc t</w>
terran ée</w>
F em
Ch â
Cl assi
mä ssi
B â
e zu
travail lé</w>
entr é</w>
boî tes</w>
proz esse</w>
mom ents</w>
Echt zeit</w>
f aux</w>
No ti
fest gesetzt</w>
ER UNG</w>
insuffis ance</w>
Kön nen</w>
ab ro
appu yer</w>
L aut</w>
Flüssi g
Acco unt</w>
déf endre</w>
L um
hu iles</w>
s u</w>
az ier
öh ne</w>
fi ant</w>
gest euert</w>
be antworten</w>
d ney</w>
Z ie
appro xim
besonder er</w>
provin ce</w>
Frank furt</w>
Server n</w>
pi ques</w>
be haltlich</w>
obten ues</w>
cit ement</w>
Ur sachen</w>
ein richten</w>
verm ut
de venue</w>
parlement aire</w>
Cel ui</w>
staat licher</w>
au be</w>
staat san
per mé
chi ens</w>
ult érieurement</w>
délégu és</w>
Alumini um
sau ber
délivr é</w>
im pl
tin stitu
Wahr nehmung</w>
exprim é</w>
pan ier</w>
représent é</w>
mul tim
olog ischer</w>
C her
sch afft</w>
kurz fris
langs am</w>
ins iste</w>
ähr t</w>
Wirtschaf t
étiqu ettes</w>
net tement</w>
Ur sache</w>
be zahlt</w>
Geschäfts ordnung</w>
alis che</w>
ank ungen</w>
leg ungen</w>
Medi um</w>
aktiv er</w>
tru ktur</w>
notifi cations</w>
Analy sen</w>
Chy pre</w>
m ail
i z
M D</w>
électro des</w>
ungs weise</w>
Port fo
sp e
COMM ISSION</w>
hin gegen</w>
proje kt</w>
T hr
T able</w>
Zertifik at</w>
trans former</w>
ex haus
Ch eck</w>
fabri qué</w>
pré déterminé</w>
st or
co ton</w>
ergän z
laub nis</w>
territori ale</w>
Europ ean</w>
Beding ung</w>
cor riger</w>
Fol glich</w>
vit esses</w>
z elle</w>
eb o</w>
diesel ben</w>
Am end
Ein gangs
bat eaux</w>
con vers
E id
á n</w>
Geschäfts bedingungen</w>
Compu ters</w>
facili té</w>
Koh är
or ing</w>
Sek ret
Zu ge</w>
nei ge</w>
gegenwär tigen</w>
proportionn alité</w>
G ur
gegeb ene</w>
neg ative</w>
aqu euse</w>
her kömm
Prozess bevollmäch
attribu ts</w>
préc ède</w>
Leu cht
anspr uch
mor ale</w>
renfor cée</w>
ro hr</w>
désign ation</w>
L ind
char akter
Connec t</w>
gele istet</w>
Ré solution</w>
L aur
um zu
geh ei
énonc és</w>
hau tes</w>
anten ne</w>
na h</w>
ver kauf
not ation</w>
s entation</w>
T M</w>
am ont</w>
Ant oni
Benutz ers</w>
Found ation</w>
pix els</w>
gesch m
Gewin ne</w>
p ut
kontr ollen</w>
mou sse</w>
U K</w>
l les</w>
C ô
Hinder nisse</w>
frequ enz</w>
E F</w>
M ay
cu e</w>
zuverlässi ge</w>
M UL
be grün
jon ction</w>
re par
form és</w>
anni versaire</w>
strateg ische</w>
Zu gangs
F T</w>
geschn itten</w>
l ast</w>
è ques</w>
Espr it</w>
Moder nis
grav ité</w>
rés ist
fon dées</w>
j an</w>
zi elt</w>
be gründet</w>
aus gaben</w>
gl ace</w>
W ün
introdu ite</w>
sch alter</w>
P om
dé posée</w>
H omme</w>
re präsent
w olle</w>
Anzei ge
Vorab entschei
alli age</w>
em issionen</w>
ex t</w>
P al</w>
ali ph
K S</w>
zylin dr
plate formes</w>
Freu de</w>
an gel
her stellen</w>
den heit</w>
eb er</w>
AL Y
Az ure</w>
Brasi lien</w>
S ah
ed i</w>
ass elbe</w>
dr aht
IS E</w>
äus ern</w>
En tre</w>
ho c</w>
Stell en
uni vers</w>
t em
zw isch
Dé solé</w>
Z I
sup érieurs</w>
ck s
hydro carb
zu geben</w>
nation alité</w>
War n
compl ément</w>
aimer ais</w>
AN CE</w>
sci ence</w>
Franc isco</w>
an f
k ator</w>
Spe is
dém ie</w>
collec ter</w>
Bedürf nissen</w>
Richt linien
déci de</w>
di chte</w>
inter val
défini tive</w>
Geb rau
T ok
identifi ant</w>
ai dent</w>
port ables</w>
Christi an</w>
Web si
Schw anger
p elli
schl usses</w>
Kon kur
Geschirr sp
clô ture</w>
con s</w>
Ul tr
Wil d
Sch üler</w>
IF RS</w>
es enen</w>
VI S</w>
Médi terranée</w>
tatsäch liche</w>
démontr é</w>
lec teurs</w>
ag entur</w>
on ce</w>
notwendi ge</w>
vor gegebenen</w>
schu he</w>
protég é</w>
stär ke</w>
S SI
Dokum entation</w>
d res</w>
Bürger innen</w>
fondament al</w>
pr ête</w>
d ungser
or isation</w>
B B</w>
ein mali
handicap ées</w>
tari f
zi ge</w>
acci dents</w>
Krieg s
rent abilité</w>
fi d
Punk ten</w>
déc rites</w>
spr achen</w>
acht ens</w>
atin g</w>
EURO P
longitudin al</w>
mer veill
personnalis és</w>
l ettes</w>
omm es</w>
wesent licher</w>
considér ants</w>
pour riez</w>
ambi ti
R È
is lam
zz i</w>
Mar ke
const amment</w>
plac ée</w>
G ehen</w>
ri ere</w>
Rom a</w>
par e</w>
stat ten</w>
Origin al</w>
optim ieren</w>
litt ér
gel te</w>
concrè tes</w>
lu ft</w>
Ker am
ob by</w>
initi alement</w>
comb at</w>
perman ence</w>
FAB RI
Vor gehen</w>
Nor m
remplac ée</w>
Kohlen wasser
ge fordert</w>
administr atif</w>
on ium</w>
eur er</w>
getö tet</w>
regelmäß igen</w>
arr ang
Basi c</w>
Gr em
Pass ag
Str öm
Wissenschaf t
lin gen</w>
ad ol
asp ir
formul aires</w>
construc teur</w>
Schad en
mel z
Dem ande</w>
cré ez</w>
p ä
ax is</w>
fix ant</w>
Tradi tion</w>
CO U
expan sion</w>
z ün
AU S</w>
eil les</w>
ließ t</w>
rés istant</w>
Ober flächen</w>
P ic
Prä z
al ter
Jugend lichen</w>
blo quer</w>
sal aires</w>
Arg ument</w>
men ac
tö ten</w>
haf tet</w>
zugelass enen</w>
rend ent</w>
L G</w>
N ig
V aku
S ON
Dis play</w>
nach stehend</w>
ti enne</w>
comm er
imp ut
füh le</w>
weit gehend</w>
Ein kommen</w>
herunter geladen</w>
in et</w>
spécialis tes</w>
Aus wertung</w>
Vertret ern</w>
us es</w>
ab kommens</w>
Kontak tieren</w>
TE XT</w>
édu c
For ce</w>
Aus si</w>
grundle gende</w>
MEN TS</w>
Zu gangs</w>
gef allen</w>
woh nen</w>
der ten</w>
Budg et</w>
requ iert</w>
aufge treten</w>
Ar genti
Land es
CB D</w>
Ress ource</w>
recht zeitig</w>
Hinter grund
Gener al</w>
le ch
consacr é</w>
BES CH
erstr ecken</w>
form ent</w>
F é
Y o
st euer</w>
Ö ko
H AB
astr oph
entraîn é</w>
limit ées</w>
zo g</w>
nachdrück lich</w>
pay é</w>
vorhand ene</w>
on ci
ver gleichen</w>
fond ement</w>
ens eite</w>
Amin os
obst acle</w>
br ut</w>
ko dex</w>
B ay
M echanismen</w>
kur zen</w>
tri ques</w>
R aums</w>
ech ische</w>
sicher heits
In don
intéress é</w>
recou rir</w>
emp fan
K ern</w>
âg ées</w>
b ague</w>
tz us
lie b</w>
produ zieren</w>
ca p</w>
fili ales</w>
Rück kehr</w>
im matri
läu bi
enthalten d</w>
auszu legen</w>
Gre en</w>
iss t</w>
bro w
G or
H A
V ista</w>
ur gi
mutz ung</w>
farb e</w>
activ ée</w>
am ende</w>
analy sieren</w>
G M</w>
L M</w>
célé br
uli ert</w>
hinzu weisen</w>
Gr aph
préc ises</w>
sci ences</w>
ag nen</w>
laiss é</w>
ons äure</w>
ï de</w>
ç age</w>
ein dre</w>
i èrement</w>
ré agir</w>
ins érer</w>
punk ten</w>
HER R</w>
Por to</w>
ges to
venti lation</w>
sol ven
fr action</w>
Kilom eter</w>
Ö R
Mal gré</w>
beeinfl usst</w>
ouver tures</w>
an ien</w>
s ports</w>
législ ations</w>
Wirtschaftszwei g</w>
fur ent</w>
succ essi
Schutz es</w>
intéress ant</w>
Besch werden</w>
e ch</w>
RA ID</w>
Be aucoup</w>
beob achten</w>
i um
Gen ießen</w>
mü ssten</w>
ek u
ch ées</w>
m ails</w>
nach weisen</w>
o ts</w>
Pro ben
ex erce</w>
pf e</w>
B ig</w>
pro spec
aus führenden</w>
V ill
continu ent</w>
lib ell
Vi et
Mark en
ma che</w>
Sti ftung</w>
comprim é</w>
dr ome</w>
LA TION</w>
flo tte</w>
protég és</w>
ni ère</w>
Ä T</w>
publicit aires</w>
EF SA</w>
sk a</w>
élev age</w>
concl us</w>
Gü ter</w>
tig sten</w>
DO C</w>
ir ait</w>
renouv ellement</w>
gar s</w>
Fitn ess
di ap
Nor mal
schlüss el</w>
éni que</w>
Ti me</w>
Lö schung</w>
trans position</w>
auf gaben</w>
gerech net</w>
ul ose</w>
M ail
ol e
Kon to
M angel</w>
sup pose</w>
Man u
beob achtet</w>
be zug</w>
défin issant</w>
fi ées</w>
frei es</w>
cher chez</w>
bekann te</w>
ten ez</w>
mas que</w>
e wi
é par
berühm ten</w>
basi eren</w>
be aux</w>
erh obenen</w>
El ément</w>
Gegen wart</w>
p ir
ap pris</w>
univers el</w>
Port al</w>
i f
C ell
auf er
sou tenu</w>
zu einander</w>
enfre i</w>
D un
D amen</w>
composi te</w>
erwer ben</w>
mat h
um geben</w>
vol umen</w>
Pro position</w>
V P</w>
couver t</w>
Dis poni
V el
hil fe
überwach ung</w>
kehr ungen</w>
ten te</w>
gesch ichte</w>
Tag ung</w>
pré voient</w>
mentionn ée</w>
n œu
pneu s</w>
cy cles</w>
con e</w>
gebo ten</w>
jou ent</w>
F LU
Z O
mit zu
Gem üse</w>
syst em
lin es</w>
betr agen</w>
libr ement</w>
ag a</w>
er o</w>
maj eur</w>
tou ches</w>
lu bri
H äuser</w>
fréqu emment</w>
hin g</w>
ern t</w>
Weiter entwicklung</w>
Qu anti
ber ichten</w>
de viennent</w>
gem eldet</w>
exc ur
[...]
