#version: 0.2
t h
i n
a n
e r
th e</w>
r e
t i
a r
o n
t e
o u
o r
e n
in g</w>
o n</w>
an d</w>
t o</w>
니 다</w>
a l
o f</w>
e r</w>
i s</w>
i t
r o
i n</w>
e s</w>
e d</w>
s t
o r</w>
a t</w>
i l
a c
e s
i c
o m
a n</w>
a t
T h
e l
a l</w>
a s
i s
v e</w>
o u</w>
e c
ti on</w>
h a
l e</w>
e n</w>
u r
습 니다</w>
o l
u s
a m
a g
l y</w>
r i
y ou</w>
l o
a s</w>
n o
l i
w h
f or</w>
에 서</w>
l e
a b
c h
t s</w>
a y</w>
s i
th at</w>
Th e</w>
d i
u n
en t</w>
i t</w>
r a
ar e</w>
th e
te r</w>
ou r</w>
p ro
it h</w>
e v
o o
te d</w>
a tion</w>
o p
g h
o s
으 로</w>
i r
b e</w>
a d
하 는</w>
w ith</w>
e t</w>
er s</w>
c e</w>
s h
a r</w>
e t
c om
e m
er e</w>
i d
u c
c on
e x
o w
ti on
u l
al l</w>
a p
합 니다</w>
있 습니다</w>
a k
f or
it y</w>
v er
p l
re s
on e</w>
m e</w>
no t</w>
입 니다</w>
ou n
t r
il l</w>
e ar
l d</w>
하 고</w>
b e
w or
q u
ro m</w>
t h</w>
p er
ou t</w>
ha ve</w>
우 리
th is</w>
A n
n e
u t</w>
f f
th er</w>
at e</w>
y our</w>
a y
h o
w as</w>
i m
f rom</w>
c an</w>
gh t</w>
t er
u m
w ill</w>
b y</w>
I n
p e
d e
d s</w>
W h
in g
es s</w>
있 는</w>
i g
or e</w>
u s</w>
ag e</w>
s e</w>
p or
w e</w>
ur e</w>
s e
C h
c o
S t
에 게</w>
당 신
a d</w>
s u
s o</w>
사 람
이 다</w>
t o
in e</w>
i r</w>
하 나
m o
d o
H o
c i
an g
tion s</w>
들 은</w>
u t
w e
o d</w>
s t</w>
ou ld</w>
h e</w>
an t</w>
h i
al ly</w>
s p
v i
ab le</w>
l a
the y</w>
an y</w>
e l</w>
ou r
om e</w>
m ent</w>
모 든</w>
c h</w>
p ar
ic e</w>
n i
들 이</w>
am e</w>
a te
d e</w>
es t</w>
하 여</w>
s a
사 용
i d</w>
d o</w>
b o
h e
m e
g i
v er</w>
d ing</w>
us t</w>
An d</w>
것 은</w>
ak e</w>
te l</w>
no w</w>
I t</w>
적 인</w>
l l</w>
ha s</w>
그 리
m y</w>
st r
m a
k ing</w>
지 만</w>
us e</w>
d uc
i c</w>
것 을</w>
com p
en t
R e
k e</w>
en ts</w>
G od</w>
m ore</w>
e y</w>
ac e</w>
있 다</w>
p p
it e</w>
d ay</w>
W e</w>
Y ou</w>
하 지</w>
ab out</w>
on g</w>
f e
k s</w>
c l
ar d</w>
as t</w>
a v
한 다</w>
ti me</w>
s te
er v
b ut</w>
re c
op le</w>
the ir</w>
ay s</w>
an ce</w>
a m</w>
d er</w>
ag o</w>
oo d</w>
os t</w>
했 다</w>
es e</w>
그 러
en ce</w>
ti c
대 한</w>
h is</w>
a ted</w>
b er</w>
u p</w>
다 른</w>
g e</w>
o ther</w>
te n
th ing</w>
Th is</w>
the m</w>
f e</w>
었 다</w>
m on
ear s</w>
c re
p o
s el
t ing</w>
r ou
m in
t a
g o
하나 님
re e</w>
I n</w>
나 는</w>
re d</w>
es s
w ay</w>
우리 는</w>
i z
ic h</w>
ing s</w>
pe ople</w>
re n
wh at</w>
ar y</w>
o c
d is
as e</w>
u d
ac k</w>
wh o</w>
u e</w>
or y</w>
u m</w>
들 을</w>
그리 고</w>
i es</w>
an d
for m
p h
s o
v id
d er
l s</w>
r e</w>
ti ve</w>
C on
t y</w>
하 게</w>
위 해</w>
y ears</w>
tion al</w>
f i
ou s</w>
라 고</w>
e st
el l</w>
ev er
p r
it s</w>
P ro
에 는</w>
많 은</w>
e p
e w</w>
ec t</w>
th ere</w>
아 니
적 으로</w>
al so</w>
g h</w>
t w
u b
하 기</w>
ow n</w>
또 는</w>
니 까</w>
il e</w>
uc h</w>
t u
ho w</w>
H e</w>
oun d</w>
ac h</w>
f in
n o</w>
b le</w>
w i
f ir
f u
Ho tel</w>
A l
ac h
wh ich</w>
제 공
N o
li ke</w>
ev er</w>
te s</w>
것 이</w>
w ere</w>
a u
e ar</w>
사 이
p a
o g
ol d</w>
다 는</w>
al l
ac c
프 로
ver y</w>
p re
호 텔</w>
위 한</w>
os e</w>
들 의</w>
가 장</w>
por t</w>
e d
i f</w>
데 이
C om
p res
다 고</w>
wh en</w>
i l</w>
on s</w>
것 입니다</w>
었 습니다</w>
서 는</w>
a f
됩 니다</w>
t ra
u p
th an</w>
B ut</w>
k now</w>
il l
b ec
a tions</w>
L i
Wh at</w>
a il
in ter
생 각
u st
M o
I f</w>
v es</w>
si on</w>
w s</w>
E n
f ac
an s
d es
s y
g et</w>
ic al</w>
con t
ha d</w>
o ff
com m
an s</w>
re s</w>
i a</w>
b u
be en</w>
in d
ne w</w>
om e
s erv
b r
하 였
en d</w>
m m</w>
부 터</w>
i al</w>
으 며</w>
hi m</w>
m ar
in k</w>
ti es</w>
U ni
l is
했 습니다</w>
on ly</w>
el i
P ar
내 가</w>
g u
까 지</w>
wor k</w>
g re
fu l</w>
t e</w>
시 오</w>
필 요
p s</w>
S h
것 이다</w>
ti c</w>
oo k</w>
f t</w>
A r
j o
lo c
v ing</w>
M ar
j ust</w>
자 신
as s
n ing</w>
m ost</w>
기 를</w>
P or
E x
g r
m an</w>
w ould</w>
십 시오</w>
m an
t ur
p le</w>
wor ld</w>
fir st</w>
g ra
h el
or s</w>
b i
다 면</w>
m s</w>
그 는</w>
an c
a tional</w>
Th ey</w>
로 운</w>
y p
우 리</w>
그러 나</w>
서 비
i ght</w>
세 요</w>
d on</w>
sa id</w>
al s</w>
lo w
s ter</w>
s ec
y ear</w>
at ing</w>
ate s</w>
하 지만</w>
o re
a in
o m</w>
pro duc
w a
F or</w>
s on</w>
is e</w>
m any</w>
h er</w>
m ay</w>
ri ght</w>
for e</w>
b l
S o</w>
v ed</w>
a in</w>
되 는</w>
a use</w>
또 한</w>
S e
i st
ow er</w>
A m
lo o
B e
in to</w>
같 은</w>
라 이
en c
se e</w>
레 이
c ol
li fe</w>
s ti
r y</w>
H am
W or
P l
th ese</w>
t ri
O n
w ant</w>
wi th
b et
o ver</w>
g o</w>
아 이
d re
ch ang
d ev
s ome
sh i
ti m
m ake</w>
s ome</w>
k ed</w>
co m</w>
것 이
u r</w>
v is
ad e</w>
th en</w>
어 떤</w>
a re
R o
때 문
i on</w>
시 간
st ar
함 께</w>
lo w</w>
com e</w>
당신 은</w>
sel f</w>
어 떻
s c
at a</w>
d ed</w>
가 지
ig h</w>
어 요</w>
tw o</w>
p os
S p
스 트
A c
도 록</w>
무 엇
f a
g ood</w>
us ed</w>
en ti
is t</w>
라 는</w>
ste m</w>
Ho w</w>
oo l</w>
ne ed</w>
sp ec
il y</w>
A d
r u
c oun
Ham ster</w>
en er
o f
di ff
ev en</w>
시 작
하 면</w>
n ed</w>
t le</w>
어떻 게</w>
보 기</w>
대 해</w>
우리 가</w>
m at
as s</w>
으 로
우리 의</w>
ac k
R es
당신 의</w>
그 들은</w>
th ou
por t
v en
그 것은</w>
그 렇
새 로운</w>
per i
좋 은</w>
qu i
ter n
가 능
m il
in a</w>
지 도</w>
p ri
th s</w>
t ure</w>
x Hamster</w>
그 녀
ol og
보 다</w>
M a
T o
in ess</w>
m p
form ation</w>
id e</w>
Th ere</w>
em ent</w>
시 스
거 나</w>
시 간</w>
l and</w>
al ity</w>
pro vid
그 래
동 안</w>
sh ould</w>
f l
d y</w>
h ere</w>
ch il
on g
w ays</w>
e i
S u
ic es</w>
A ll</w>
되 어</w>
th er
D i
in s</w>
te n</w>
t al
당신 이</w>
k m</w>
wh ere</w>
w ell</w>
N o</w>
k e
B o
그 의</w>
sh o
th rou
N ew</w>
el l
ou se</w>
is h</w>
n ess</w>
th ose</w>
만 들
t or</w>
는 데</w>
T r
해 야</w>
들 에게</w>
g e
ac t</w>
in d</w>
Wh en</w>
경 우</w>
f ic
d ec
지 는</w>
a h</w>
t on</w>
l ine</w>
di d</w>
el y</w>
t ly</w>
이 는</w>
at h</w>
s ol
ar i
te ls</w>
하 시
s uch</w>
s ur
f ul
l es</w>
af ter</w>
c er
호 텔
b ack</w>
L o
D e
l ess</w>
L e
C l
사 랑
선 택
방 법
개 의</w>
in cl
a ve</w>
t ake</w>
m is
여 러
하 며</w>
자 가</w>
y ing</w>
th ink</w>
미 국</w>
ver s
f ri
p ol
문 제
해 서</w>
T u
en g
s er
c ould</w>
en d
f ol
U S
k no
일 을</w>
re ad
ic k</w>
u al</w>
ag es</w>
m em
ow s</w>
o b
s k
n er</w>
om s</w>
te c
e p</w>
c ri
B l
M y</w>
가 지</w>
il ity</w>
ti v
be fore</w>
데이 터
정 보
다 시</w>
G u
al e</w>
않 았
ro w
c ar
Th at</w>
en ter</w>
res s</w>
us iness</w>
P r
너 희
m ade</w>
tr y</w>
세 계
st s</w>
께 서</w>
diff er
ig n</w>
c ur
P h
throu gh</w>
or d</w>
an y
b er
in t</w>
on al</w>
ha pp
이 러
er ic
에 서
C ol
m ents</w>
중 요
d ata</w>
ar d
m uch</w>
as ed</w>
mon ths</w>
H e
s ame</w>
sh e</w>
개 월</w>
J o
부 분
at ure</w>
lo ve</w>
r is
c lo
C o
통 해</w>
ever y</w>
si de</w>
ut e</w>
s ay</w>
sh all</w>
ro om</w>
I N
c or
자 는</w>
an ds</w>
f am
sy stem</w>
f r
I s
b est</w>
h ear
Am eric
hel p</w>
in formation</w>
V i
T V</w>
ir e</w>
M an
um ber</w>
기 에</w>
to o</w>
L E
so ci
bec ause</w>
f il
shi p</w>
v en</w>
Q u
gh ts</w>
n ec
el s</w>
하나님 의</w>
스 트</w>
d r
do es</w>
ear ch</w>
e ach</w>
th ings</w>
b eli
d ays</w>
pl ace</w>
않 습니다</w>
In tern
pro c
A u
le ase</w>
리 를</w>
we e
이 나</w>
olog y</w>
ti s
on d</w>
el op
l l
w r
ou s
하 십시오</w>
un der
지 를</w>
T o</w>
o s</w>
프로 그
에 서는</w>
v al
en s</w>
te ch
위 치
매 우</w>
ever y
U n
ex t</w>
사 람</w>
tr ans
습 니까</w>
페 이
res p
스 를</w>
an ts</w>
t re
pro b
p ub
dre n</w>
is h
pl ic
bu il
e as
ow n
n ame</w>
전 에</w>
s ite</w>
처 럼</w>
저 는</w>
b re
ak ing</w>
는 지</w>
D o</w>
b ook</w>
포 함
m ust</w>
되 었
h um
p er</w>
G re
s m
W e
없 습니다</w>
F r
여러 분
un i
id e
go ing</w>
N e
tim es</w>
u b</w>
U S</w>
an t
P re
f ree</w>
Uni ted</w>
s et</w>
fin d</w>
ul t</w>
le t</w>
ust om
h igh</w>
대 로</w>
am es</w>
w ar
된 다</w>
d u
gre at</w>
하 다</w>
없 는</w>
s ure</w>
ma p</w>
i an</w>
S y
M ore</w>
ex p
제 품
st ud
v el</w>
고 객
자신 의</w>
par t
모 두</w>
l ec
I S
f un
si g
M ic
K ore
M on
ic s</w>
ul ar</w>
리 는</w>
되 었습니다</w>
있 었
in ce</w>
이 상
li c</w>
re ally</w>
a st
for m</w>
chang e</w>
v o
w al
kno w
e ff
an n
d ri
이러 한</w>
미 국
ap p
t yp
때문 에</w>
이 용
B i
z e</w>
인 터
ch ar
제공 합니다</w>
s pe
A s</w>
su b
ta in</w>
or t</w>
ou th</w>
에 게
str uc
J es
M us
On e</w>
le ar
do m</w>
an k</w>
sti ll</w>
s ch
En g
ind ows</w>
bo dy</w>
Tu be</w>
기 술
말 씀
P e
서비 스</w>
들 과</w>
ho tel</w>
al ways</w>
d own</w>
O R
M e
ex peri
en tr
ro l</w>
we en</w>
ur ing</w>
ic k
그 들의</w>
su p
g g
F e
loo k</w>
c our
w om
re la
d ge</w>
다 음</w>
ou t
l it
di a</w>
gi ve</w>
이 야
Com p
A b
in v
l ar
사 는</w>
ail able</w>
c ap
그래 서</w>
a way</w>
i m</w>
W ith</w>
Jes us</w>
에 도</w>
be ing</w>
p i
이 고</w>
at or</w>
j ect</w>
아니 라</w>
지 금</w>
는 가</w>
a tive</w>
per s
P er
serv ice</w>
정 보</w>
el ec
의 해</w>
u res</w>
A N
e y
il i
따 라</w>
si ble</w>
이 것은</w>
chil dren</w>
Wh y</w>
te m
성 을</w>
가지 고</w>
p ut</w>
연 구
a th
T E
N or
좋 아
ak es</w>
ro oms</w>
P o
et y</w>
comp le
differ ent</w>
Ch ina</w>
되 었다</w>
li ght</w>
케 이
f er
th ree</w>
a k</w>
e ve</w>
J ap
s ing</w>
a z
S o
자 의</w>
im port
제 가</w>
he et</w>
p ur
a ir
l ong</w>
g y</w>
면 서</w>
번 째</w>
되 지</w>
는 다</w>
incl u
an g</w>
되 고</w>
스 타
C ar
나 의</w>
자 를</w>
있 으며</w>
여 호
다 양
그 들이</w>
W indows</w>
들 어
음 을</w>
i f
까 요</w>
th ers</w>
our s</w>
k et</w>
bet ween</w>
n ever</w>
S te
er y</w>
pl ay
이 런</w>
이 름
No w</w>
some thing</w>
with in</w>
m i
par t</w>
it al</w>
all ed</w>
그 것을</w>
rou p</w>
vi ew</w>
v ir
T ra
tic al</w>
at as
ta in
하였 다</w>
사람 들이</w>
wa ter</w>
ec h
사이 트
C ity</w>
리 아</w>
제 품</w>
p ower</w>
J e
ach ine</w>
an other</w>
y s
d n</w>
av ailable</w>
u tes</w>
ag ain</w>
n umber</w>
그 가</w>
tech n
b ro
read y</w>
us ing</w>
u ro
b usiness</w>
vers ity</w>
s en
a w
자 동
O r
P ol
vid e
atas heet</w>
있 을</w>
Y our</w>
s s</w>
H D</w>
al i
in es</w>
di rec
이 제</w>
est s</w>
h ome</w>
G r
ar ound</w>
L ord</w>
이 며</w>
am ple</w>
A p
O p
이 라고</w>
prob le
pl ay</w>
with out</w>
dev elop
p e</w>
c an
bi g</w>
세 계</w>
m en</w>
s ed</w>
지 역
으 면</w>
A S
년 에</w>
c ustom
돌 아
F or
re g
ow ever</w>
P D
B r
l ast</w>
전 히</w>
k er</w>
f ace</w>
I s</w>
현 재</w>
X X
ol u
A s
D is
ic i
Wor ld</w>
므 로</w>
개 인
확 인
d ro
in st
분 류</w>
G o
없 다</w>
er ing</w>
qu e</w>
가 진</w>
기 는</w>
T e
A R
sho w</w>
lo t</w>
무 료</w>
be g
같 이</w>
하 려
en ds</w>
g l
O ur</w>
많 이</w>
bet ter</w>
under st
to day</w>
c le
S how</w>
g ener
ho tels</w>
높 은</w>
st ra
min utes</w>
나 요</w>
qu es
알 고</w>
s ha
시스 템
iz ed</w>
or der</w>
op er
St ates</w>
최 고
or g
니 라</w>
y s</w>
이 스
import ant</w>
oun t</w>
cont in
사 를</w>
도 움
t ers</w>
O n</w>
세 상
as h
st ory</w>
b ur
호 스
te st</w>
예 수
ex c
없 이</w>
Th en</w>
D atasheet</w>
프로그 램
ad v
다 운
v e
이 렇
지 원
wh ile</w>
ch i
나 타
가 는</w>
f ile</w>
iz e</w>
D es
f ound</w>
H is</w>
fam ily</w>
a ter</w>
uc c
R E
O ff
그 런</w>
ab ility</w>
이 상</w>
de l</w>
c ity</w>
있 었다</w>
er ed</w>
아 버
S he</w>
리 라</w>
we b
사이 트</w>
wh y</w>
it ing</w>
명 의</w>
C or
리 에</w>
st o
라 인</w>
si d
t able</w>
st ing</w>
tic s</w>
po si
바 로</w>
of f</w>
ang e</w>
T i
다양 한</w>
m us
R i
항 상</w>
cur ren
F rom</w>
e f
he al
tr u
시 아</w>
d ic
정 을</w>
드 는</w>
력 을</w>
게 임
사람 이</w>
de p
Intern ational</w>
re et</w>
스 크
LE D</w>
g ame</w>
ang u
comp any</w>
ro w</w>
j ec
rec ei
시 키
inter n
S er
디 자
at ur
H T
디 오</w>
lit tle</w>
H ome</w>
수 도</w>
c ha
h ol
bo th</w>
B u
Re ad</w>
a ther</w>
con s
하 세요</w>
n ext</w>
d en</w>
경 우
ou gh</w>
c alled</w>
일 반
C A
E uro
사 용</w>
있 고</w>
in ing</w>
친 구
아 무
스 테
n s</w>
사람 들은</w>
fi ed</w>
ate ly</w>
am s</w>
얼 마
소 프
작 은</w>
experi ence</w>
a ut
Jo h
m ul
h ouse</w>
at t
re qu
Par k</w>
C O
ep t</w>
S ec
해 야
ten t</w>
S ch
li ve</w>
경 험
일 어
as on</w>
oun g</w>
str y</w>
나 를</w>
화 를</w>
d em
다 음
인 간
이렇 게</w>
produc ts</w>
pro per
lis h</w>
resp on
PD F</w>
st or
대 학
c o</w>
wor d</w>
st ar</w>
정 말</w>
vi e
u fac
게 임</w>
t ro
H ol
사 회
re ad</w>
Com m
너 무</w>
Por n</w>
기 가</w>
el e
개 발
식 을</w>
A f
w it
여 러</w>
op e</w>
의 미
A t</w>
다운 로
ni ght</w>
중요 한</w>
lo ad</w>
M at
a i</w>
A ir
일 이</w>
결 과
le ad
li on</w>
개 인</w>
qu ality</w>
cont rol</w>
Uni versity</w>
s es</w>
P C</w>
c ul
중 국</w>
O S</w>
es si
v ari
S erv
그 것
li m
이 를</w>
un der</w>
이 유
ver n
t t
오 늘
어 야</w>
하 느
pub lic</w>
b oo
하 셨
d et
일 에</w>
I m
F i
m et
E R
un ity</w>
w at
ap pro
A T
tw are</w>
연 결
fe el</w>
컴 퓨
go t</w>
기 능
ac y</w>
일 본
인 가</w>
그렇 게</w>
di tion</w>
em ber</w>
누 구
re qui
주 의</w>
물 을</w>
아 마
보 고</w>
호텔 은</w>
않 는</w>
R ec
M L</w>
lo b
ain st</w>
m en
Pro duc
ur ity</w>
mo d
L a
e ds</w>
ap plic
g le</w>
is m</w>
as k</w>
자 기</w>
to p</w>
Mic ro
D o
in c
W i
an ese</w>
최고 의</w>
b or
C enter</w>
enc y</w>
pos sible</w>
per son</w>
th y</w>
스 는</w>
C an
s ucc
ti l</w>
do c
모 두
in cre
star t</w>
su pp
ent ly</w>
fol low
beli eve</w>
하 거나</w>
c ar</w>
di o</w>
아 주</w>
것 으로</w>
ex ample</w>
m or
l ed</w>
기 도</w>
G oo
bec ome</w>
el d</w>
jo b</w>
수 있는</w>
are a</w>
sm all</w>
ci al</w>
B y</w>
그 분
거 의</w>
들 어</w>
F l
관 련
as h</w>
보 호
gra m</w>
por ts</w>
hi gh
F ac
g ir
마 음
P ri
Por n
tur n</w>
I P</w>
소프 트
C re
랜 드</w>
ag ainst</w>
di st
이 해
사 실
ir d</w>
c r
M in
mon ey</w>
이 미</w>
G er
았 다</w>
Kore a</w>
대 부분
st a
on es</w>
니 스</w>
pro tec
s al
si ve</w>
sup port</w>
c ame</w>
b el
시 트</w>
t al</w>
pl ac
A pp
A P
m ight</w>
hum an</w>
께 서는</w>
ar t</w>
sel ves</w>
o ver
thou gh</w>
위 하여</w>
w ard</w>
얼마 나</w>
Americ an</w>
e um</w>
C ha
f ood</w>
er i
po int</w>
em p
스 토
pro f
b ers</w>
마 지
a il</w>
저 희
주 는</w>
프 랑
존 재
lis h
전 문
Con t
이 르
as ter</w>
그녀 는</w>
귀 하
어 를</w>
회 사
ing le</w>
st ay</w>
ent al</w>
St reet</w>
방 법</w>
그 런
cour se</w>
리 가</w>
T a
시스 템</w>
a ir</w>
따 라
영 향
d ate</w>
ec k</w>
이 라</w>
se e
pl an
y e
m er</w>
소프트 웨
B ri
ac tu
ur y</w>
아 름
하 라</w>
H igh</w>
정보 를</w>
프로 젝
중 국
H ouse</w>
그리 스
No t</w>
그 를</w>
do or</w>
id s</w>
di vid
이 었다</w>
안 전
c ou
안 에</w>
to ge
프 리
c am
ag ement</w>
re al</w>
관 리
d eli
H os
mon th</w>
h ard</w>
or d
파 트
toge ther</w>
지 금
ut ure</w>
ti ce</w>
b lo
ur ch</w>
베 이
jo y</w>
하 나</w>
어 디
k ind</w>
C an</w>
res t</w>
ful ly</w>
여 기
I C
ate g
b ased</w>
P age</w>
us si
관 계
wor king</w>
c ent</w>
le g
설 명
기 업
en ed</w>
on t</w>
보 내
사용 할</w>
con nec
iz ation</w>
at s</w>
et ing</w>
이 었
t ory</w>
typ e</w>
h and</w>
re co
ful l</w>
하나 님</w>
여 행
p ing</w>
al ready</w>
hear t</w>
at ures</w>
d uring</w>
브 라
트 워
국 가
학 생
fun c
fe w</w>
un til</w>
R O
S T
한 국
L et</w>
ul ts</w>
P lease</w>
f ast</w>
Af ter</w>
데이 터</w>
립 니다</w>
Th ese</w>
h ours</w>
F in
성 공
기 술</w>
가능 한</w>
작 업
스 의</w>
ra tion</w>
so f
t or
know n</w>
J u
u ally</w>
P S</w>
bo x</w>
있 도록</w>
H owever</w>
알 려
드 라이
번 호</w>
org an
provid e</w>
리 고</w>
wom en</w>
er ial</w>
않 은</w>
ph one</w>
can not</w>
T H
가 족
시 설
ke ep</w>
알 아
ans w
p age</w>
객 실
성 이</w>
me ans</w>
B ra
S outh</w>
기 계</w>
he ad</w>
네 트워
off ers</w>
vir on
따 르
l ing</w>
te ll</w>
F ree</w>
tr ac
않 을</w>
m er
p le
비 즈
in e
C entr
Y or
u ter</w>
G e
re li
y er</w>
감 사
말 했다</w>
도 시
온 라인</w>
T ech
P i
op en</w>
s ays</w>
하 실</w>
k ey</w>
센 터</w>
S k
입 니까</w>
ch e
angu age</w>
것 도</w>
업 체</w>
준 비
every thing</w>
n a</w>
Eng lish</w>
o thers</w>
B ar
있 다는</w>
ay ing</w>
o k
Goo gle</w>
n et
d ra
ol s</w>
mem ber</w>
vide o</w>
시 아
le ft</w>
후 에</w>
로 부터</w>
발 견
p ho
er e
b as
con si
데이터 시트</w>
et ting</w>
re gi
A re</w>
였 다</w>
h un
b it</w>
트 를</w>
Th e
pers onal</w>
Is ra
N ational</w>
in o</w>
wal k</w>
라 도</w>
자 유
des ig
b ed</w>
c ase</w>
g er</w>
질 문
serv ices</w>
최 대</w>
d one</w>
a ti
이 름</w>
O c
ro ss</w>
s ince</w>
특 별
D ev
an ding</w>
po in
do ing</w>
떨 어
하 는
ou ble</w>
A C
d ress</w>
ec ted</w>
c al
proc ess</w>
어 서</w>
이 라는</w>
up on</w>
enc es</w>
N E
도 를</w>
이 미
내 에</w>
inclu ding</w>
i gh
오 늘</w>
ch es</w>
wor ds</w>
F ir
관 한</w>
wee k</w>
Yor k</w>
자 들은</w>
spec i
사람 은</w>
나 라
상 을</w>
sol u
n or
ar ds</w>
g roup</w>
있 어</w>
관 리</w>
H ub</w>
I I</w>
C D</w>
가 요</w>
당신 을</w>
계 획
Wh o</w>
w in
특 히</w>
결 정
HT ML</w>
y our
C oun
p ass
D a
coun try</w>
te ly</w>
드 를</w>
말 을</w>
C o</w>
c all</w>
lob al</w>
an a</w>
ou l</w>
b ri
보 여
필요 한</w>
com es</w>
실 제
I tal
vern ment</w>
이스 라
파 일</w>
어 느</w>
t ors</w>
In n</w>
사 진
a ff
c ent
f ore
te l
O N</w>
하 도록</w>
다운로 드</w>
지 역</w>
주 의
요 구
중 에</w>
di dn</w>
acc ess</w>
하 이
eas y</w>
C am
리 아
as si
he av
oo k
ous ly</w>
ap er</w>
us es</w>
에 너
Joh n</w>
ear th</w>
일 한</w>
des ign</w>
O f</w>
on om
cri p
그 들을</w>
상 품
produc t</w>
장 을</w>
님 의</w>
전 체</w>
wor ks</w>
in ed</w>
wh e
있 다고</w>
in f
y l
c as
있 습니까</w>
V er
le ast</w>
ear ly</w>
te am</w>
so ft</w>
기 의</w>
le y</w>
sec ond</w>
us er</w>
s it
않 는다</w>
f uture</w>
들 에</w>
c are</w>
크 리
방 문
of ten</w>
하 고
per form
있 을
D ec
예 를</w>
제 공</w>
p op
is su
관 련</w>
받 아
ic a</w>
l y
발 생
E lec
oo se</w>
R ev
D r
아름 다
자 세
h ar
chil d</w>
u ary</w>
d en
여 성
techn ology</w>
ne y</w>
y oung</w>
모 르
시 는</w>
계 속</w>
T w
re e
플 레이
Tech n
b ab
이 루
and ard</w>
않았 다</w>
H ar
해 결
en ough</w>
거 야</w>
wi fe</w>
정 확
sch ool</w>
자 연
underst and</w>
H O
si ze</w>
가 까
정 부
y le</w>
E N
A L
pr ice</w>
au ti
기 억
w ent</w>
활 동
c le</w>
ust ri
테 이
pri v
an ted</w>
아 닙
하 신</w>
con f
마 이
vis ion</w>
I D</w>
S ha
pl es</w>
부 르
여호 와
st ate</w>
A C</w>
An al
ti fic
A si
an ks</w>
dri ve</w>
uc k</w>
대 한
가 르
나 이
ma in</w>
au th
겠 습니다</w>
o le</w>
C ap
web site</w>
쉽 게</w>
n am
own load</w>
str ic
e f</w>
ste ms</w>
g en
R em
크 기</w>
t a</w>
효 과
네 요</w>
변 화
Jap an</w>
i e</w>
tri es</w>
pa ren
M il
m ing</w>
gi ven</w>
atur al</w>
s ci
R ussi
s er</w>
l ic
u n</w>
가 격
Ch r
D on</w>
Mus eum</w>
proper ty</w>
유 지
y et</w>
s cre
사 업
off er</w>
n e</w>
h al
at ter
만 약</w>
기 로</w>
c es</w>
de ath</w>
성 급</w>
actu ally</w>
c a
일 부</w>
t d</w>
인 을</w>
on line</w>
Fir st</w>
회 사</w>
사 실</w>
b en
proble m</w>
gh ter</w>
생 산
L oc
추 가</w>
pr in
sof tware</w>
Porn Hub</w>
그 것이</w>
f our</w>
man ufac
ing dom</w>
Nor th</w>
사 가</w>
T er
i ri
지 에</w>
아 니다</w>
지 의</w>
ill a</w>
oun d
검 색
하나님 은</w>
스 포
an e</w>
내 용
아닙 니다</w>
정 한</w>
tr ue</w>
ateg ory</w>
상 황
기 다
um ents</w>
시간 을</w>
지 난</w>
가 를</w>
ag s</w>
S ome</w>
loc k</w>
tr on
이 탈
on ce</w>
b ra
b ile</w>
b all</w>
보 세요</w>
i ti
상 태
V is
di es</w>
치 는</w>
판 매
eff ec
fri ends</w>
구 성
Be ach</w>
le vel</w>
P ower</w>
x im
h er
Ch ris
영 화</w>
fil es</w>
오 는</w>
g row
c m</w>
f o
환 경
위 험
P al
en ing</w>
D ay</w>
도 로</w>
C op
e e</w>
있 으
an k
건 강
어 머
our ce</w>
vie ws</w>
m achine</w>
p ra
m y
er a</w>
fri end</w>
플 라
e qui
follow ing</w>
no thing</w>
다 이
서비 스를</w>
방 식
사 진</w>
pres s</w>
O N
clo se</w>
f oo
이상 의</w>
인 지</w>
p ow
그런 데</w>
그녀 의</w>
V al
위 에</w>
olu tion</w>
누 가</w>
이 드</w>
per f
in ation</w>
지 요</w>
Isra el</w>
과 학
I T
대 의</w>
네 가</w>
지 가</w>
y e</w>
f ur
m ess
에 요</w>
pro gram</w>
te ach
가 져
m a</w>
S E
O ut
b s</w>
sa fe</w>
치 를</w>
일 은</w>
전 기</w>
행 동
me di
m aking</w>
S a
l ab
Ch ar
tru th</w>
li es</w>
기 회
주 요</w>
pa ti
보 고
았 습니다</w>
en viron
만들 어
인 의</w>
사용 자</w>
B ec
무엇 을</w>
L td</w>
un e</w>
비 디오</w>
서비 스
ili ties</w>
un to</w>
auti ful</w>
di tional</w>
Ro ad</w>
ci p
충 분
some one</w>
L u
따라 서</w>
A g
W at
대부분 의</w>
ar t
de st
M ay</w>
la ter</w>
G i
우리 를</w>
thou ght</w>
cre ate</w>
fac t</w>
수 는</w>
프 레
일 본</w>
ill ed</w>
했 던</w>
i ous</w>
es n</w>
d om
ac tion</w>
loo king</w>
Chris ti
ver sion</w>
S ol
la w</w>
sp ace</w>
있 었습니다</w>
tiv ity</w>
mis sion</w>
D C</w>
점 을</w>
F il
ch o
your self</w>
fi ve</w>
인 이</w>
기 계
지 원</w>
In ter
어 린
Sp ec
적 용
B est</w>
h and
귀하 의</w>
국 제</w>
m akes</w>
lis t</w>
여 행</w>
마 다</w>
아 요</w>
두 려
am ong</w>
w el
M i
언 제
any thing</w>
f er</w>
이 지</w>
교 육
u es</w>
val ue</w>
part ment</w>
Tr ans
comp uter</w>
f ar</w>
ad a</w>
Sy stem</w>
l ong
M achine</w>
o w</w>
A M
관 심
장 소
s ingle</w>
un ic
Jap anese</w>
E ver
S T</w>
h y
lar ge</w>
Americ a</w>
U R
추 가
B usiness</w>
전 화</w>
h os
loc ated</w>
me th
mo ve</w>
in divid
도 의</w>
ne eds</w>
C as
T ur
stud ents</w>
위 치</w>
러 운</w>
사 의</w>
st u
E ar
fa ther</w>
o t</w>
fi eld</w>
모 델
당 신</w>
찾 아
인 은</w>
S t</w>
m ag
comp an
Ti me</w>
ic y</w>
E R</w>
lish ed</w>
et c</w>
Pe ople</w>
coun tries</w>
스 마
비즈 니스</w>
an al
ch ing</w>
w w
li ving</w>
n ers</w>
S up
W ell</w>
자 들이</w>
le v
ess es</w>
com ing</w>
너 는</w>
행 복
te x
p lease</w>
h old</w>
b ut
창 조
wh ole</w>
ate ur</w>
교 회
w on</w>
si ons</w>
있 지만</w>
oc k</w>
명 을</w>
ail s</w>
le dge</w>
im pro
수 가</w>
R oo
p ment</w>
no v
or ding</w>
W il
p ic
do esn</w>
s le
Ab out</w>
g s</w>
예 약
an ti
B re
ap pe
tis h</w>
c y</w>
me an</w>
중 심
n y</w>
tu res</w>
시 리
duc ation</w>
wee ks</w>
ab ly</w>
ab o
the m
par ti
c u
말 하
f f</w>
처 음
si m
스 스
as tic</w>
ww w</w>
기 록
션 을</w>
영향 을</w>
mus ic</w>
l anguage</w>
연 구</w>
in ten
IS O</w>
미 래
tal k</w>
st er
buil ding</w>
예 약</w>
min d</w>
a p</w>
사용 하여</w>
se en</w>
a red</w>
마지 막</w>
br ing</w>
um p</w>
cre ated</w>
여 자</w>
S i
사 무
리 스</w>
업 데이
incl ud
b ility</w>
방법 을</w>
물 론</w>
iri t</w>
영 국</w>
ar k</w>
V ide
provid es</w>
com for
min ute</w>
한 다는</w>
가 운
if ic</w>
O r</w>
anc es</w>
un g</w>
mil lion</w>
책 임
sta ur
in king</w>
겁 니다</w>
연 락
Ch in
bo ard</w>
n al</w>
or ies</w>
무 슨</w>
지 도
sec urity</w>
p ed</w>
M et
뿐 만</w>
노 력
h u
p en
An dro
수 를</w>
c li
표 시
줍 니다</w>
lear n</w>
t old</w>
w anted</w>
이 것이</w>
않 고</w>
여 전히</w>
단 지</w>
사람 을</w>
ener gy</w>
에서 의</w>
spec ial</w>
한 다면</w>
L in
다 가</w>
d am
St ation</w>
r o</w>
sid ent</w>
is ter</w>
에게 는</w>
대한 민
아 직</w>
est er
이 메
sa w</w>
W al
heal th</w>
서 로</w>
v al</w>
ad s</w>
I D
아 래
an im
시 에</w>
w ide</w>
G ra
M ed
b al
있 게</w>
설 치
co de</w>
ti n</w>
M S</w>
le ge</w>
H y
C ategory</w>
G ood</w>
이 라
배 우
제공 하는</w>
ver age</w>
pres ent</w>
일 부
go vernment</w>
우리 에게</w>
Li fe</w>
ther e
하나 의</w>
해 주
wom an</w>
이 동
바 이
목 표
su ff
soci al</w>
P ho
드 립니다</w>
하나님 이</w>
h or
리 지</w>
스 페
ish ed</w>
on y</w>
con tent</w>
ic ial</w>
Micro soft</w>
mo ther</w>
S im
그 냥</w>
B ro
hi story</w>
or i
i ons</w>
t ow
Ph one</w>
기 타</w>
sto p</w>
ver se</w>
j ud
inclu de</w>
th re
Ho tels</w>
종 류
보 는</w>
b ar
어 려
s um
S al
us ers</w>
ou d</w>
C r
해 요</w>
리 의</w>
자 와</w>
학 교
하 늘
d ers</w>
per cent</w>
Y es</w>
h im
s w
로 는</w>
S an</w>
du ce</w>
b and</w>
진 행
ver ed</w>
문 을</w>
훌 륭
mo vi
I N</w>
매 일</w>
R A
pr ac
받 은</w>
t ook</w>
h on
M os
s or
in al</w>
d es</w>
b ath
모 델</w>
ic ally</w>
ex pl
살 아
vi d</w>
결 혼
p ast</w>
실제 로</w>
D ri
완 벽
디 지
z a</w>
essi onal</w>
거 리</w>
ha ving</w>
B ook</w>
en ter
Sch ool</w>
ou l
pr is
B er
der n</w>
완 전히</w>
US B</w>
t i</w>
그러 므로</w>
적 이</w>
영 화
sit u
Air port</w>
h ope</w>
om a
공 항
custom ers</w>
p ec
메 시
레 이</w>
lo ws</w>
L on
e at</w>
I T</w>
Bl ack</w>
것 에</w>
T ex
m om
S un
지 고</w>
더 욱</w>
ever al</w>
stud y</w>
서 를</w>
Je ho
y ed</w>
파 일을</w>
emp lo
qu are</w>
wor k
c enter</w>
원 하는</w>
J ust</w>
is ion</w>
전 자</w>
e qu
ey es</w>
단 계
합 니까</w>
여호 와</w>
치 료
여 기</w>
직 접</w>
gr ound</w>
ic h
가 격</w>
c ard</w>
명 한</w>
ri ghts</w>
at ten
ac com
et h</w>
우 스</w>
사 항
le x
받 을</w>
char ac
M ost</w>
하였 습니다</w>
G l
B C</w>
M ag
ch oose</w>
제 조
공 간
G ener
pro gr
them selves</w>
star ted</w>
loc al</w>
col or</w>
G roup</w>
생 활
A n</w>
r ing</w>
g est</w>
들 도</w>
it ted</w>
ind u
운 영
Kore an</w>
re ly</w>
v ah</w>
타 이
el ing</w>
Vi ew</w>
fe atures</w>
했 고</w>
명 이</w>
ma j
fa ith</w>
beli ev
erv ed</w>
드 리
랍 니다</w>
mar ket</w>
si tes</w>
등 을</w>
en joy</w>
be autiful</w>
vi ous</w>
A t
Ever y
어 도</w>
proble ms</w>
fer ence</w>
역 시</w>
th ird</w>
책 을</w>
수 행
low er</w>
Wh ite</w>
every one</w>
너 희</w>
de fin
di an</w>
Jeho vah</w>
id ence</w>
St u
n atural</w>
ag ing</w>
으 니</w>
기 도
ro r</w>
U p
요 일</w>
웹 사이트</w>
air port</w>
프로그 램</w>
develop ment</w>
ne l</w>
메 이
으로 부터</w>
ques tion</w>
사람 의</w>
ard en</w>
H er
해 서는</w>
대 학</w>
O h</w>
공 급</w>
너희 가</w>
ill ing</w>
수 준
A N</w>
먼 저</w>
미 터</w>
품 질</w>
이 후</w>
ul l</w>
C E
ed ed</w>
지 속
we b</w>
있 다면</w>
Bec ause</w>
il ls</w>
S S</w>
k g</w>
or ig
Andro id</w>
ec h</w>
H ave</w>
려 고</w>
ul ation</w>
p an
di g
Ma c</w>
P C
L OR
I S</w>
ri st
가 서</w>
Lo ve</w>
Serv ice</w>
indu stry</w>
C a
T S</w>
S ur
대 통
디 어</w>
M e</w>
있 어요</w>
어 는</w>
st yle</w>
로 서</w>
en se</w>
me as
di t</w>
c el
yp e</w>
여 성</w>
Chin ese</w>
di e</w>
sh are</w>
시간 이</w>
produc tion</w>
b ar</w>
ist s</w>
Intern et</w>
w are</w>
res earch</w>
c op
m al</w>
영 상</w>
설 정
E m
ec onom
c ra
au ghter</w>
P E
r ange</w>
ren g
H z</w>
bor n</w>
G et</w>
pa in</w>
요 청
s il
t own</w>
부 모
들 이
v ers</w>
ul es</w>
d le</w>
따르 면</w>
ne ar</w>
mul ti
par tic
me et</w>
자신 을</w>
국 제
acc ount</w>
고 객</w>
L O
B un
in te
상 의</w>
F ri
교 육</w>
참 여
w on
pro ject</w>
변 경
파 이
le ave</w>
확 실
ag ed</w>
도 시</w>
e k</w>
F i</w>
ch ed</w>
과 정
랜 드
a h
Wh ere</w>
pe ti
g ed</w>
A fr
fr ont</w>
더 라</w>
N et
학 교</w>
ren ch</w>
w ar</w>
등 이</w>
B oo
선 택</w>
g ames</w>
id enti
A ir</w>
S ci
n on</w>
s aying</w>
ay be</w>
b ad</w>
O E
s ent</w>
h our</w>
as ked</w>
있 지</w>
간 단
ol o
tra vel</w>
Bi ble</w>
한 다고</w>
C H
p ay</w>
정 도</w>
re member</w>
struc tion</w>
am a</w>
re ason</w>
하 면서</w>
N ext</w>
Chr ist</w>
ro ll
anc ed</w>
그러 한</w>
에서 도</w>
bl ack</w>
f lo
In c</w>
산 업
일반 적으로</w>
원 을</w>
자동 차</w>
T em
놀 라
sa ve</w>
ven ue</w>
E v
일 의</w>
dev ice</w>
R ed</w>
왔 다</w>
le t
i k
pho to
am e
Y ou
인 도
ru n</w>
이야 기
니 아</w>
위 를</w>
주 님
he ar</w>
분 야
re as
diff ic
W in
intern ational</w>
an o</w>
f y</w>
Mo del</w>
사용 하는</w>
누 군
ex per
트 는</w>
al th</w>
lo st</w>
R om
S il
인터 넷</w>
ar ri
공 급
포 르
검 색</w>
stric t</w>
Euro pe
US D</w>
하 여
카 드</w>
s everal</w>
문 화
Comp any</w>
S am
U N
happ y</w>
net work</w>
n et</w>
Off ice</w>
I F
acc ording</w>
R a
el se</w>
y a</w>
ak en</w>
S D</w>
it or</w>
hal f</w>
훨 씬</w>
기 간</w>
Roo m</w>
la h</w>
con cer
au l</w>
ph ys
아름다 운</w>
R el
por ted</w>
c k</w>
ha m</w>
위 원
de al</w>
역 사
sy stems</w>
gir l</w>
S C
st ri
도움 이</w>
영 원
gu ests</w>
간 의</w>
applic ation</w>
r ate</w>
d a</w>
비 용
tur ned</w>
D V
보 호</w>
K ing</w>
S earch</w>
혹 은</w>
해 당</w>
그 들</w>
Da vid</w>
S ome
ri ed</w>
G B</w>
i tes</w>
b ir
솔 루
J an
졌 다</w>
r a</w>
us h</w>
o p</w>
t age</w>
H ist
S A
말 로</w>
대한민 국</w>
ei ther</w>
der ed</w>
or ity</w>
C ur
Lon don</w>
mor ning</w>
경 제
c ir
al e
N ame</w>
특 정</w>
I E
ta ins</w>
영 국
자 에게</w>
스 위
rela tion
예 수</w>
장 치</w>
제 조</w>
re al
거 리에</w>
er c
디지 털</w>
se em
시 작</w>
par ty</w>
se x</w>
바 랍니다</w>
nec ess
long er</w>
f el
이 에</w>
per ature</w>
star s</w>
그 룹
compan ies</w>
음 악
res ults</w>
r un
cont act</w>
c y
tri c</w>
st ation</w>
t ou
c are
Ro y
P an
가 족</w>
re r</w>
p ose</w>
하나님 께서</w>
소 유
com b
G o</w>
pp ed</w>
S m
em ents</w>
되 면</w>
ch eck</w>
있 는
pl an</w>
스 가</w>
M any</w>
f oc
st ore</w>
컴퓨 터
al one</w>
abo ve</w>
Se e</w>
op port
으로 써</w>
유 럽</w>
b ack
cl ass</w>
곳 에</w>
te en</w>
결 코</w>
V C</w>
있 는지</w>
ec e</w>
H im</w>
bec ame</w>
perf ect</w>
answ er</w>
이 번</w>
Pri v
dep end
Tex as</w>
데이터 를</w>
개 발</w>
In d
vari ous</w>
curren t</w>
str ong</w>
fl u
pol i
jec ts</w>
wr ong</w>
M y
paren ts</w>
M P</w>
Europe an</w>
sh ort</w>
사람 들을</w>
mat ter</w>
know ledge</w>
tiv ely</w>
스 터</w>
li ves</w>
sim ple</w>
C er
만 드는</w>
아 프리
li k
필요 가</w>
든 지</w>
c entr
ar m
f av
가 능</w>
액 세
Bu il
만 큼</w>
계 속
캐 나
y right</w>
us h
An g
신 뢰
re comm
하나님 을</w>
공 식</w>
recei ve</w>
정 치
영 어</w>
him self</w>
보 면</w>
li ed</w>
re turn</w>
D E
찾 을</w>
li g
대 를</w>
문제 를</w>
est ing</w>
al most</w>
col lec
전 쟁
인 생
ar s</w>
Au str
대 표
gh t
대 답
코 드</w>
플 랫
chang es</w>
ap art
F am
B el
wh ite</w>
지 구
호스 텔</w>
이탈 리아</w>
버 스</w>
Techn ology</w>
실 행
an ing</w>
ess ing</w>
Ch il
I r
Ch urch</w>
o l</w>
B e</w>
J er
c at
Pl ay
레 스</w>
um in
k in
성 장
페이 지</w>
comm on</w>
O ld</w>
cle ar</w>
z h
R F</w>
Euro pe</w>
An y
자 녀
To day</w>
en ding</w>
No v
et er
XX X</w>
주 시
App le</w>
ag er</w>
이 죠</w>
i te
ma in
h om
d in</w>
노 라</w>
fir e</w>
pe ace</w>
uc k
res ult</w>
저 장
전 체
곳 에서</w>
di tions</w>
am ateur</w>
T ri
빠 른</w>
mat erial</w>
크 로
fol low</w>
loc ation</w>
co ver</w>
l in
g ave</w>
comple te</w>
G ol
l er</w>
gi es</w>
Ho t</w>
그 들에게</w>
예수 님
so on</w>
g etting</w>
re p
u k
hear d</w>
동 물
최 근</w>
contin u
d el
도 와
S ite</w>
E l
me dia</w>
h ands</w>
하려 면</w>
W ar</w>
W est</w>
e book</w>
ste ad</w>
것 처럼</w>
s et
거 운</w>
vi a</w>
n um
결 국</w>
I C</w>
산 업</w>
좋아 하는</w>
A Y
P ow
이름 을</w>
소 개</w>
y o</w>
thou s
시 장
W ater</w>
St ate</w>
sa f
b a
b il
est ab
단 순
숙 박</w>
목 적
an i
custom er</w>
게 시
Al lah</w>
c ost</w>
peri od</w>
ide a</w>
K ingdom</w>
mo del</w>
Austr al
man agement</w>
p ack
perform ance</w>
처 리
sc ri
ing ton</w>
N umber</w>
w ood</w>
르 게</w>
ser ies</w>
pl at
LOR D</w>
항 공
L C</w>
디자 인</w>
tur al</w>
Res ort</w>
b ig
m in</w>
C al
ma il</w>
훌륭 한</w>
r ac
T O
M O
Tw o</w>
전 을</w>
Di rec
Ital y</w>
b ly</w>
F ather</w>
D ata</w>
S hi
succ ess
We b
E d
si st
S el
돈 을</w>
ab les</w>
priv ate</w>
tic ally</w>
구 매
di ed</w>
C N
ap p</w>
provid ed</w>
reli gi
it ch
이 야</w>
blo od</w>
C our
t un
is ed</w>
이 벤
Op en</w>
Ar t</w>
ha m
ne ws</w>
v ol
컴퓨 터</w>
st reng
ben ef
bu y</w>
얻 을</w>
머 리</w>
I G
tic le</w>
ne w
do w</w>
B as
par ts</w>
sti t
이 란</w>
조 직
at ment</w>
we ar</w>
모 습
iz z
any one</w>
ni a</w>
기 능</w>
진 실
O ther</w>
포 함</w>
cer tain</w>
m oun
ques tions</w>
G en
도 구
소프트웨 어</w>
posi tion</w>
l ands</w>
con c
위치 하고</w>
A D
Gre at</w>
되 어
했 을</w>
e ase</w>
E ast</w>
S ize</w>
spe ed</w>
P ub
mem bers</w>
ac hi
B ab
받 는</w>
vis it</w>
얼 굴
릅 니다</w>
o v
이미 지</w>
국 가</w>
l u
강 력
표 현
at ors</w>
fil m</w>
ar m</w>
vide os</w>
ex ten
L a</w>
가 슴</w>
h ic
w ish</w>
requi red</w>
공 유
tr a</w>
z ed</w>
응 용</w>
거 래
scre en</w>
staur ant</w>
li er</w>
생 산</w>
fe ar</w>
n ature</w>
전 화
reco g
움 직
c ed</w>
tex t</w>
st e</w>
e g
sti tu
p ages</w>
결 과</w>
fic ation</w>
E ven</w>
보 안</w>
시 험
N O
I M
str uments</w>
클 릭
너 의</w>
D r</w>
i o</w>
문 제</w>
re mo
증 가
것이 라고</w>
등 록
B S</w>
아니 면</w>
ak fast</w>
buil t</w>
c la
func tion</w>
함 을</w>
아 시아</w>
대 하여</w>
이 가</w>
w ise</w>
w ing</w>
ri c</w>
rou ght</w>
이루 어
공 격
st andard</w>
F rench</w>
조 건
b us</w>
처 음</w>
것 과</w>
아 는</w>
해야 합니다</w>
u red</w>
ad dress</w>
al ong</w>
유 럽
t akes</w>
desig ned</w>
Produc t</w>
역 할
es ted</w>
M or
w id
A L</w>
생 각</w>
T im
ge ts</w>
eff ici
운 동
H ere</w>
내 게</w>
t aken</w>
기 업</w>
E very</w>
편 안
K e
태 어
이스라 엘</w>
spe ak</w>
e ts</w>
off ice</w>
너 를</w>
me d
디 스
의 하여</w>
comm unic
소 를</w>
가 고</w>
i ble</w>
lo se</w>
작 동
un d
t ar
특별 한</w>
플라 스
그리스 도
comm unity</w>
en s
예 요</w>
environ ment</w>
Li ght</w>
인 해</w>
ke ts</w>
T ype</w>
te e</w>
Ch rist
pur ch
지 지</w>
가운 데</w>
oun ds</w>
o il</w>
IN G</w>
지 나
트 의</w>
wr it
길 을</w>
업 체
On ly</w>
s end</w>
제 는</w>
beg an</w>
사 랑</w>
M c
효 율
h ost</w>
op ping</w>
we ight</w>
스 티
손 님
Cop yright</w>
W ill</w>
de ad</w>
ne eded</w>
Su pp
H um
스 럽
W E
op tion</w>
로 를</w>
it ary</w>
Ex c
Au g
카 메
enti al</w>
l in</w>
ac ity</w>
내 는</w>
c lim
선 을</w>
To k
ev ent</w>
o id</w>
백 성
buil d</w>
Mar ch</w>
자 주</w>
데 요</w>
발 표
당신 에게</w>
v ic
판 매</w>
Dev elop
en ded</w>
호스 팅</w>
기능 을</w>
aut y</w>
만 이</w>
Ste el</w>
im p
s earch</w>
M al
A K</w>
r an
무엇 입니까</w>
qu ick
을 위한</w>
라 인
de f
공 항</w>
이 었습니다</w>
Ac c
시 다</w>
M an</w>
t aking</w>
Ad v
하시 는</w>
이 전</w>
S M
없 었
pr ise</w>
Col or</w>
S ub
제품 을</w>
accom mod
des cri
o t
Re g
m ental</w>
h ard
하 는데</w>
스 에</w>
약 속
ustri al</w>
카 지
Cl ub</w>
G ames</w>
coun t</w>
글 로
un ch</w>
Fac ebook</w>
typ es</w>
만 나
ho t</w>
형 태
H el
T C</w>
노 동
a verage</w>
ri bu
g lobal</w>
문제 가</w>
Hos tel</w>
스 러운</w>
c anc
se a</w>
um ent</w>
whe ther</w>
투 자
러 시아</w>
G al
o d
ou ght</w>
l ate</w>
때문 이다</w>
Fr ance</w>
mo m</w>
D el
블 로
on a</w>
B a
기 본
b it
직 원
our ces</w>
B al
W om
A ut
S pe
유 형</w>
Jan uary</w>
그 럼</w>
공 장</w>
oc k
리 뷰</w>
ste p</w>
i ally</w>
m id
ch urch</w>
op s</w>
i ted</w>
te le
contin ue</w>
뉴 스</w>
였 습니다</w>
p aper</w>
individ ual</w>
H u
ser ver</w>
si mp
i ve</w>
Anal din</w>
음 식
가 가</w>
력 이</w>
sh e
필 요</w>
k ids</w>
조 금</w>
St ud
rela ted</w>
오 직</w>
ess ed</w>
us ually</w>
stit ute</w>
너희 는</w>
J os
네트워 크</w>
대 에</w>
chang ed</w>
gra ph
ro ad</w>
스포 츠</w>
it self</w>
에너 지</w>
h tt
시 설</w>
느 끼
re f
집 니다</w>
F lo
A pri
ag ue</w>
ven tion</w>
Apri l</w>
S ep
P aul</w>
I L
parti cip
id ed</w>
mom ent</w>
지 어</w>
en ted</w>
수 의</w>
apart ment</w>
id ay</w>
B en
받 고</w>
Y e
어 로</w>
em ale</w>
그 룹</w>
마 사
기 관
k new</w>
Centr al</w>
실 제</w>
그 에게</w>
det er
S tr
ach ed</w>
목 록
Can ada</w>
뉴 욕</w>
바 라
빨 리</w>
잘 못
ul ar
분 석
사이트 를</w>
유 일한</w>
an cial</w>
박 물
mar t</w>
가 치
prof essional</w>
시 고</w>
diffic ult</w>
적 이고</w>
mo dern</w>
하 겠
ac tive</w>
J une</w>
oun ded</w>
소 서</w>
객 실</w>
W i</w>
보 이
그러 면</w>
M r</w>
만 들</w>
w in</w>
st and</w>
h ind</w>
bel ow</w>
같 습니다</w>
bec om
S of
h owever</w>
Ju ly</w>
p ost</w>
c ause</w>
U se</w>
구 조
도 는</w>
않았 습니다</w>
w as
인터 넷
mess age</w>
아 니</w>
j our
최 고</w>
eri als</w>
십 니다</w>
달 러
디 오
O per
만 일</w>
necess ary</w>
Vide o</w>
ec tion</w>
A T</w>
wa it</w>
cho ice</w>
자 에</w>
L ast</w>
ti ts</w>
환 경</w>
L ar
si mil
Ne ws</w>
부 분</w>
r ic
at tle</w>
Oc to
사 항</w>
ri es</w>
S ing
Ger many</w>
물 이</w>
manufac tur
S um
나 무
M ul
엘 리
si x</w>
eng th</w>
속 에</w>
P VC</w>
d at
C E</w>
A S</w>
mat ure</w>
ch all
성 과</w>
프랑 스</w>
때 까지</w>
F C</w>
O b
ni fic
de ed</w>
p ay
소 비
an tly</w>
분 명
그 림
ap poin
out side</w>
주 세요</w>
명 령
in ning</w>
Octo ber</w>
ac ross</w>
센 터
S on</w>
m ic
선 생
M is
금 을</w>
w ants</w>
ell ent</w>
in ner</w>
해 서
tro duc
ent ation</w>
fu n</w>
r up
inv ol
k a</w>
em ail</w>
ste el</w>
다음 과</w>
으 나</w>
ha ir
ren t</w>
is n</w>
Is land</w>
품 질
C O</w>
atter y</w>
tech ni
정 책</w>
b rought</w>
아 직
Bi g</w>
t on
앞 에</w>
P res
음 악</w>
wat ch</w>
z z
그 대
W el
es pec
a u</w>
장 은</w>
sp ir
ook ies</w>
l a</w>
아 파트
마 찬
R et
plac es</w>
Ge or
In st
TH E</w>
eas ily</w>
설 계
stra te
tra in</w>
제 어</w>
re pres
낮 은</w>
war ds</w>
en e</w>
espec ially</w>
F o
b on</w>
롭 게</w>
Ser ver</w>
도 착
D ownload</w>
표 준</w>
기 반
Pr o</w>
ep ing</w>
im age</w>
제 거
b row
P en
루 미
드 의</w>
m l</w>
olog ical</w>
In formation</w>
cl es</w>
활 용
in ary</w>
평 균</w>
사 라
in side</w>
정 의
b us
kno ws</w>
em y</w>
ass es</w>
미국 의</w>
ra p
l d
pop ular</w>
tr ying</w>
Sep tem
하려 고</w>
현 재
gh ting</w>
recog ni
maj or</w>
태 그</w>
Re d
C li
왔 습니다</w>
a x
성 경
ar ti
S c
inv est
Fam ily</w>
최 신</w>
이 것을</w>
am ing</w>
inter est</w>
P N</w>
chi tec
Septem ber</w>
여 기에</w>
spec ific</w>
공 화
이야 기</w>
im medi
아 파
i er</w>
es ti
제 를</w>
OE M</w>
그 게</w>
T XXX</w>
이 들은</w>
작 성
M em
tron ics</w>
있 기</w>
shi ps</w>
no w
T ake</w>
In struments</w>
정 의</w>
re ma
설 정</w>
h us
Bun ker</w>
dest ro
거 리
vi ol
없 었다</w>
f ail
quick ly</w>
w is
전 통
as soci
ac ks</w>
sh ower</w>
테 스트</w>
작 업</w>
시 도
위치 한</w>
ain t</w>
고 통
법 을</w>
당 한</w>
se par
th ou</w>
만 족
마 케
진 짜</w>
인 간</w>
met ers</w>
s oul</w>
사람 들
g ing</w>
Ear th</w>
종류 의</w>
예 술
ic o</w>
때 에</w>
sh ow
십 니까</w>
ing ly</w>
I P
L ear
Rev i
네트워 크
ris k</w>
T M</w>
건 축
ad d</w>
종 종</w>
c um
a tion
recei ved</w>
sk y</w>
기 대
m ine</w>
heav en</w>
Dec ember</w>
D id</w>
ti vi
Ger man</w>
부 족
적 절
사람 들에게</w>
s em
d ol
어머 니
메 인</w>
단 계</w>
비 교
c us
M E</w>
J izz
Mus ic</w>
있 나요</w>
n er
학 생</w>
대통 령
solu tion</w>
아 닌</w>
s mo
감 을</w>
d ue</w>
cent ury</w>
거 짓
되 며</w>
기 본</w>
오 르
어 가</w>
leg al</w>
ha ir</w>
an ish</w>
pp ing</w>
Jizz Bunker</w>
자 동</w>
제 작
샤 워</w>
hel d</w>
ail y</w>
US A</w>
Centr e</w>
G lobal</w>
y n
es sion</w>
아 침</w>
군 요</w>
ere fore</w>
ys is</w>
아 들</w>
장 치
tra v
노 래
my self</w>
ec u
equi pment</w>
pres sure</w>
동 의
언제 나</w>
ad ing</w>
i j
D ig
T ags</w>
사 회</w>
Col lege</w>
메 리
re t
차 를</w>
하 는가</w>
경 쟁
ho sting</w>
내 려
n or</w>
자신 이</w>
때문 입니다</w>
여러분 의</w>
ly mp
g oo
알 루미
es tiv
co ff
북 한</w>
다 니
mo bile</w>
말씀 을</w>
ut ting</w>
P E</w>
파 이</w>
Ac cor
m it</w>
색 깔</w>
Par is</w>
것이 며</w>
A M</w>
d ouble</w>
mar k
수 한</w>
al low
happ ened</w>
숙 박
장 비</w>
달 러</w>
믿 음
tra ining</w>
requi re
As soci
안 정
op tions</w>
wr ite</w>
S pr
li e</w>
만 한</w>
ev il</w>
e ducation</w>
re port</w>
스 터
enti re</w>
른 다</w>
움 을</w>
oc c
tem perature</w>
Al so</w>
in j
gi ves</w>
tr ust</w>
C ar</w>
Gr and</w>
tr act</w>
S O
Asi a</w>
오늘 날</w>
렸 다</w>
부 를</w>
dr ink</w>
안 전</w>
건 강</w>
al ty</w>
g n
Y ear</w>
k en</w>
ou b
하 는지</w>
쉬 운</w>
삶 을</w>
te mp
tre atment</w>
시키 는</w>
지 불
On line</w>
주 장
e ws</w>
ten ti
Wor d</w>
세계 에서</w>
Pre sident</w>
과 의</w>
T P</w>
B ed</w>
E U</w>
es ter</w>
for d</w>
ac king</w>
완 전
Man ufac
전 문</w>
발 전
crip tion</w>
방법 은</w>
e an</w>
스스 로</w>
sen se</w>
il le</w>
동 시에</w>
ear ing</w>
심 을</w>
여러분 이</w>
에 이
er ful</w>
R os
ay a</w>
S ince</w>
pur pose</w>
이메 일</w>
D N
W ar
com peti
ad dition</w>
E mp
아무 도</w>
기술 을</w>
독 일</w>
운 영</w>
문 의</w>
이 기</w>
V ir
Christi an</w>
dev ices</w>
sci enti
크 게</w>
프로 세
ad ded</w>
f as
B O
u g
사람 들의</w>
이 유</w>
t om
가능 합니다</w>
pro of</w>
친 구</w>
L CD</w>
to tal</w>
유 형
사이 에</w>
vo ice</w>
B it
전 략
갖 고</w>
et te</w>
저 희</w>
To p</w>
하 루
느 냐</w>
Des ign</w>
cons um
구 입
제 안
Bl ue</w>
He alth</w>
하 게
만 의</w>
성 은</w>
es h</w>
re v
d res
as es</w>
시리 즈</w>
high er</w>
C A</w>
엄 마
ac tions</w>
국 의</w>
Aug ust</w>
gi ving</w>
간 에</w>
ter m</w>
플라스 틱</w>
O lymp
작 품
Man agement</w>
V ol
M E
P O
x ed</w>
g er
se qu
M ac
s ource</w>
pers on
점 은</w>
relation ship</w>
v ement</w>
le ad</w>
en sive</w>
c s</w>
심 지어</w>
Su ites</w>
Serv ices</w>
도 가</w>
simil ar</w>
wh om</w>
복 구</w>
an nel</w>
K AY
u re
왜 냐
전 자
L ine</w>
B lo
C ustom
이스라 엘
종 교
하 리라</w>
회 원
P a
아 무</w>
났 다</w>
f ig
생각 합니다</w>
올 림
신 을</w>
saf ety</w>
ak er</w>
struc ture</w>
가 로
동 영상</w>
드 로
hi bi
아 마</w>
만 든</w>
m ise</w>
Nov ember</w>
F un
t Porn</w>
G ir
ser ve</w>
대 해서</w>
T R
실 험
am ount</w>
주 고</w>
있 는가</w>
접 근
Gu ests</w>
F ol
bo y</w>
전 혀</w>
지 니
대학 교</w>
도 다</w>
U p</w>
교 회</w>
H D
모 바
Li ke</w>
uni que</w>
ef for
co in</w>
버 전</w>
cl ick</w>
t ty</w>
받 았
E g
플 레이</w>
ate st</w>
d own
KAY AK</w>
ha te
장 에서</w>
인 도</w>
al low</w>
Se x</w>
U K</w>
C le
평 가
적 어도</w>
simp ly</w>
b on
at ory</w>
be hind</w>
자 로</w>
coff ee</w>
prob ably</w>
않 는
E ach</w>
그렇 지</w>
tu al</w>
마찬 가지
와 서</w>
두 고</w>
시 킬</w>
려 면</w>
보 지</w>
o x
으로 는</w>
마 음을</w>
intern et</w>
뮤 니
ic an</w>
mem ory</w>
lead ing</w>
나 에게</w>
for ce</w>
writ ten</w>
하나 는</w>
m as</w>
fur ther</w>
비 슷
성 에</w>
C y
방식 으로</w>
않 다</w>
트 리
브 리
세 기</w>
필요 합니다</w>
ang er</w>
char ge</w>
나 와</w>
S A</w>
위 해서</w>
st on</w>
tivi ties</w>
j ap
applic ations</w>
Ch i
W ester
목 록</w>
에게 서</w>
고 양
stor age</w>
Russi an</w>
cor rec
차 로</w>
입 력
커 뮤니
g es</w>
movi e</w>
con ven
c ore</w>
주 소</w>
구 하고</w>
란 드</w>
진 다</w>
re ach</w>
이 건</w>
qu ite</w>
알 게</w>
P M</w>
for ward</w>
성 급
d ownload</w>
인 정
오 래
놀라 운</w>
d ru
Wh ile</w>
여러분 은</w>
와 이
트 가</w>
경험 을</w>
ag re
bab y</w>
나 은</w>
사 건
hus band</w>
Th ose</w>
P ress</w>
cl us
direc tly</w>
ish ing</w>
하느 님</w>
청 소
lo ss</w>
나 아
소 개
회 의</w>
서 울
incre ase</w>
환 영
boo ks</w>
욕 실
form s</w>
av ing</w>
증 명
m et</w>
sh ows</w>
Gre en</w>
인 증
hate ver</w>
감사 합니다</w>
Hist ory</w>
dig ital</w>
인 트</w>
th inking</w>
Th erefore</w>
ad y</w>
pa ir</w>
Russi a</w>
알루미 늄</w>
같 다</w>
s even</w>
적 합
ra ther</w>
최 초
T or
기회 를</w>
고 요</w>
M ex
일어 나
구 원
comple tely</w>
I ON</w>
M el
u x</w>
er o</w>
di um</w>
ur b
I V
con ver
there fore</w>
안 에서</w>
S ho
We b</w>
ther n</w>
I A</w>
s ons</w>
or ing</w>
l ines</w>
공 개
젊 은</w>
id ent</w>
ac e
ound ation</w>
S we
k i
read ing</w>
어 의</w>
op h
Th ank</w>
O ri
poli tical</w>
f all</w>
A R</w>
pol icy</w>
B A</w>
할 인</w>
가까 운</w>
해 도</w>
m ach
cul ture</w>
ber t</w>
M id
H un
ind ic
happ en</w>
cle an</w>
C ome</w>
t ool</w>
했 으며</w>
Austral ia</w>
B ay</w>
co vered</w>
Sec urity</w>
이 와</w>
H or
acc ep
are as</w>
c ut</w>
cer tain
g ress</w>
Bri tish</w>
을 까</w>
관련 된</w>
sig n</w>
er ous</w>
f al
ant a</w>
평 화
살 고</w>
집 에</w>
m ed</w>
i um</w>
트 에</w>
Fe br
프로그램 을</w>
일 으
그렇 다면</w>
처 리</w>
comfor table</w>
am p</w>
bi an</w>
라 면</w>
n ational</w>
b b
Wester n</w>
아버 지</w>
물 은</w>
ar a</w>
Wi th
id es</w>
플 리
아 침
오 래</w>
V ill
하나님 께</w>
이 트</w>
에 어
일 까</w>
레 스토
tal king</w>
af f</w>
i red</w>
밖 에</w>
남 자</w>
ch em
Mat erial</w>
sig nific
Gener al</w>
동 일한</w>
했 어요</w>
s li
임 을</w>
자세 한</w>
Febr uary</w>
i on
clim ate</w>
con ditions</w>
Accor ding</w>
D oc
ra tes</w>
seem s</w>
some times</w>
확 인</w>
bur g</w>
Do es</w>
as er</w>
C ali
하 니</w>
succ ess</w>
S S
l ation</w>
느 니라</w>
Off icial</w>
P A</w>
자 랑
회 의
모두 가</w>
계 시
수 영
보 장
즐 기
it able</w>
go es</w>
서 의</w>
나 무</w>
p rec
무 료
않 으
광 고</w>
ve hic
D em
op ened</w>
사람 들</w>
제 한
F oo
ha vi
en jo
자 들을</w>
meth od</w>
ent ary</w>
섹 스</w>
sho t</w>
si bility</w>
고 려
row n</w>
자 체
V illa</w>
Pr in
issu es</w>
all ing</w>
cou ple</w>
성 의</w>
f ru
develop ed</w>
허 용
이 게</w>
in iti
S at
콘 텐
grow th</w>
an al</w>
강력 한</w>
In dia</w>
케이 블</w>
Y oung</w>
설 명</w>
play er</w>
결과 를</w>
A part
lear ning</w>
protec tion</w>
Re public</w>
St ra
ri age</w>
생 활</w>
비 밀
w all</w>
리 조
여기 서</w>
on ic</w>
Mo bile</w>
Pro f
DV D</w>
Li ve</w>
지 키
S quare</w>
엄 마</w>
떨어 져</w>
그 건</w>
p tion</w>
B ur
H P</w>
반 응
현 실
마사 지</w>
at us</w>
영 역
G ame</w>
cha in</w>
Cor por
미 디어</w>
So ci
생 성
fac tory</w>
Cont act</w>
T it
f ree
요 소
H ong</w>
나 라</w>
아파 트</w>
V o
싶 은</w>
R ol
eff ect</w>
t ings</w>
M ake</w>
plat form</w>
Asi an</w>
H on
re le
P la
min ist
흥 미
S em
정 말로</w>
멋 진</w>
이유 는</w>
말 할</w>
fi ght</w>
estiv al</w>
U l
beg inning</w>
P L
g en</w>
re ality</w>
경우 에</w>
전 쟁</w>
B et
길 이</w>
A v
Sci ence</w>
재 미
h ur
언 제</w>
in nov
Qu e
sur vi
번 째
되 기</w>
cas es</w>
비 행
하 기
기 준
Ser ies</w>
저 장</w>
에 있는</w>
id den</w>
it ation</w>
과 학</w>
plac ed</w>
dis play</w>
in s
말 하는</w>
인간 의</w>
O ver
o k</w>
물 의</w>
phys ical</w>
됐 다</w>
가 정
Fr anc
버 전
M A</w>
시 험</w>
Ch eck</w>
Produc ts</w>
rou ps</w>
H a
라 우
프로젝 트</w>
러 시아
gener al</w>
업데이 트</w>
아마 츄
이 어
co t
includ es</w>
사 망
실 패
Afr ica</w>
그녀 가</w>
진 정한</w>
저 렴
L ab
b es</w>
itch en</w>
I B
인 쇄</w>
tion ed</w>
wor th</w>
완벽 한</w>
p ool</w>
situ ation</w>
ple as
정 책
aut oma
fe ature</w>
n ect</w>
유 명한</w>
자 들
p u
p un
않 으면</w>
속 에서</w>
클 래
금 속</w>
olo gies</w>
Re gi
med ical</w>
고 는</w>
O k
물 질
d ates</w>
p ass</w>
G arden</w>
effec tive</w>
sk in</w>
gh out</w>
i or</w>
p ital</w>
po tenti
I R
la u
아마츄 어</w>
저 를</w>
Ap plic
s s
fe et</w>
f ish</w>
f ine</w>
받 으
ev ents</w>
g ar
F ind</w>
나 쁜</w>
아 내
복 잡
J ames</w>
회 사는</w>
기 와</w>
Res earch</w>
영 혼
i Phone</w>
집 중
했 지만</w>
or row</w>
명 은</w>
partic ular</w>
Or g
모바 일</w>
bro ther</w>
A partment</w>
re am</w>
관 광
pow erful</w>
일 반</w>
he ad
F ood</w>
플랫 폼
ro le</w>
소 녀</w>
직 업
로 그
al lows</w>
등 의</w>
b ul
말 라</w>
료 를</w>
s ex
Se oul</w>
아 래</w>
dis cus
이 용</w>
k i</w>
sci ence</w>
하 다고</w>
St andard</w>
opport unity</w>
설 립
m ir
Sp irit</w>
sal es</w>
스 와</w>
연 결</w>
현 대
l ink</w>
streng th</w>
희 망
M er
클 럽</w>
나 도</w>
pres sion</w>
uni ties</w>
tim ate</w>
받아 들
보 통</w>
계 약
curren tly</w>
설 치</w>
requ est</w>
무 엇</w>
r ay</w>
C C</w>
g a
음 식</w>
M A
마지 막
세계 의</w>
soci ety</w>
issu e</w>
V PN</w>
Cont rol</w>
만들 어</w>
wr iting</w>
V ia</w>
그 대로</w>
poin ts</w>
신 청
sho p</w>
ent y</w>
B E
캐나 다</w>
깊 은</w>
re t</w>
ular ly</w>
ap e</w>
re ve
멕 시
tel lig
Bra vo
Ne w
정 상
반 드
R u
관 계</w>
B ud
대 신</w>
L it
Uni on</w>
글로 벌</w>
su gg
화 장
jap anese</w>
이 지만</w>
리 한</w>
K ong</w>
r ich</w>
Bravo Tube</w>
on ents</w>
말 씀</w>
n ation</w>
Eg yp
S cre
폴 리
ri gh
En ter
ter ms</w>
하 우스</w>
p m</w>
아이 디
on ds</w>
pre v
gu ar
L is
me eting</w>
L ong</w>
리 포
Pl ay</w>
run ning</w>
m ig
도움 을</w>
드 가</w>
뛰 어
올 라
기 독
t ball</w>
g ree</w>
tru ly</w>
E S</w>
마 치</w>
eng ine
c ast</w>
반드 시</w>
In stitute</w>
pro mis
읍 니다</w>
A ma
anal y
질 문</w>
사랑 하는</w>
defin i
하 루</w>
출 장
수 집
protec t</w>
St ar
S C</w>
정 부</w>
im ag
lik ely</w>
Sof tware</w>
S M</w>
상 자</w>
success ful</w>
떠 나
아 시아
orig inal</w>
휴 대
Te en</w>
E N</w>
pro mise</w>
N i
게임 을</w>
장 비
s in</w>
죽 음
Mos es</w>
드 러
ar ticle</w>
Bo x</w>
bra in</w>
플 러
sp irit</w>
st anding</w>
ac tivities</w>
갔 다</w>
해 보
tu rer</w>
즉 시</w>
det ails</w>
어 떠
독 일
r ace</w>
메 모
자 들의</w>
스트 레
F er
P ic
in flu
듯 이</w>
자 신</w>
근 처
ain less</w>
졌 습니다</w>
in stead</w>
nor mal</w>
바 꾸
혼 자</w>
C ul
Sing ap
con duc
그 것</w>
Priv acy</w>
xim um</w>
T O</w>
Ye ah</w>
Ri ghts</w>
되 어야</w>
예 정
Ap p</w>
sa tis
p ath</w>
fri end
분 이</w>
추 고</w>
fel t</w>
Par ty</w>
P ack
ech an
s a</w>
언 급
참 가
mat erials</w>
지역 에</w>
사실 을</w>
다 만</w>
로 의</w>
아무 것도</w>
ci l</w>
bo t
pro mo
번 호
스테 인
이 의</w>
cont roll
T al
바 다
이야 기를</w>
디자 인
su per
se ts</w>
ain ed</w>
스 웨
al ed</w>
on na</w>
do g</w>
se ason</w>
S H
혁 신
Tok yo</w>
성 서</w>
상품 을</w>
emplo ye
d ly</w>
인 데</w>
progr am
Wom en</w>
야 합니다</w>
우 주
아버 지
ing er</w>
상 이</w>
accommod ation</w>
es ome</w>
U s</w>
괜 찮
M ad
시 티</w>
loo ks</w>
col l
증 거
년 부터</w>
지 혜
S ou
includ ed</w>
C i
말 한다</w>
방 향
겠 다</w>
play ed</w>
fac ilities</w>
is co</w>
t ation</w>
가 기</w>
Pl ace</w>
lar gest</w>
impro ve</w>
ha ps</w>
Stu dio</w>
l ay
지 하
s we
m outh</w>
온 도</w>
아마 도</w>
for get</w>
Th ree</w>
lo ved</w>
Po int</w>
고 를</w>
immedi ately</w>
Associ ation</w>
Dri ve</w>
테 스트
앞 으로</w>
M B</w>
J ud
the e</w>
아프리 카</w>
바 르
시 장</w>
알 지</w>
c ele
U R</w>
아 내</w>
ann oun
re duc
구 성</w>
W ash
Ex p
있 는데</w>
a c</w>
On ce</w>
여러 분</w>
adv ant
T re
be auty</w>
play ing</w>
g one</w>
b an
오 른
위 의</w>
sy n
F A
go al</w>
mar k</w>
때 는</w>
appe ar</w>
A re
여 자
umin um</w>
Hol y</w>
ur ation</w>
Qu ality</w>
gi c</w>
stud ent</w>
low ers</w>
B ou
S en
어 버
F ore
바 른</w>
en sure</w>
sp o
좋 습니다</w>
Ma x</w>
s ong</w>
ver tis
받 지</w>
Cali for
i ed</w>
지 정
태 양
La w</w>
ac ts</w>
말 이</w>
sel ect</w>
리 니</w>
바 이</w>
함 으로써</w>
mic ro
S crip
lab or
al ized</w>
엔 진</w>
serv ed</w>
br ary</w>
시스템 을</w>
st age</w>
c oo
영 광
Roy al</w>
Singap ore</w>
j e
Sup port</w>
물 리
H er</w>
A no
나 머
한 국</w>
F a
언 어</w>
어머 니</w>
두려 워
를 위한</w>
Ama z
Cl oud</w>
be havi
ci ples</w>
am az
작업 을</w>
b a</w>
수 용
고 도</w>
왜냐 하면</w>
dist ance</w>
L im
to ols</w>
le x</w>
스크 린</w>
photo s</w>
웹 사이트
tain ed</w>
섹 시
l es
E r
s ound</w>
일반 적인</w>
dre ds</w>
공 기</w>
heal thy</w>
자 전
b ol
동 물</w>
st and
암 호
은 혜
나 오
b loc
한 테</w>
장 이</w>
j us
공 동
Christ mas</w>
있 어서</w>
flo or</w>
아직 도</w>
인 식
S D
ir t</w>
acc ur
ste ps</w>
tron ic</w>
ac tly</w>
ar k
anim als</w>
tre m
L ist</w>
D ouble</w>
y ond</w>
gre ater</w>
카 이
ep tion</w>
Hol iday</w>
S P
l ess
ust om</w>
oul dn</w>
g in</w>
c ast
dec ision</w>
D an</w>
You Tube</w>
하 기를</w>
e m</w>
A venue</w>
Th us</w>
사 에</w>
ar ies</w>
li ghts</w>
플리 케이
와 의</w>
res erved</w>
어 린</w>
년 간</w>
독 립
너희 에게</w>
exc ellent</w>
ou se
없 음</w>
M aybe</w>
m al
in depend
이 내에</w>
ar chitec
Pe ter</w>
침 대</w>
connec tion</w>
fin ally</w>
sum mer</w>
v ely</w>
그 레이
정 신
enc ed</w>
걱 정
모 니
L ook</w>
L ev
엉 덩
Go tPorn</w>
스타 일</w>
happ ens</w>
fin al</w>
dis ease</w>
포 장</w>
파 일
h a</w>
ar ing</w>
아 메리
atten tion</w>
스 타</w>
appoin ted</w>
er cial</w>
플 로
Califor nia</w>
as y</w>
마케 팅</w>
direc t</w>
추 어</w>
pl ate</w>
d ings</w>
민 주
underst anding</w>
c e
pp er</w>
응 답
님 이</w>
들 로</w>
g row</w>
k ill</w>
M oun
p cs</w>
j i</w>
준 다</w>
D ub
al ing</w>
hi stor
o g</w>
모 세
것 인가</w>
G S</w>
S Q
r ules</w>
D om
pre tty</w>
Pro ject</w>
L T
으로 서</w>
Pro tec
있을 까</w>
dre am</w>
st aff</w>
향 상
윈 도
서 버
마 십시오</w>
L ake</w>
ong s</w>
실 로</w>
전문 가
ti z
is on</w>
d aughter</w>
tr an
mil f</w>
점 에서</w>
s or</w>
In v
레 즈
삶 의</w>
지 식
불 구하고</w>
심 각
수 많은</w>
t op
F O
때 문</w>
c ookies</w>
Chil dren</w>
ess or</w>
시간 에</w>
Dig ital</w>
tem por
Net work</w>
throu ghout</w>
없 을</w>
쿠 키</w>
li ers</w>
서 버</w>
주 문
강 철</w>
The ir</w>
o ds</w>
g roups</w>
sle ep</w>
tific ation</w>
ci es</w>
사 업</w>
전 시
pa in
j a</w>
량 을</w>
d ated</w>
app ly</w>
su n</w>
exp ected</w>
oper ation</w>
r it
P U</w>
원 은</w>
뉴 욕
Ang el
st one</w>
br and</w>
비 아</w>
D u
운 전
저 도</w>
won der
h ous
리 와</w>
righ te
ach ing</w>
s ac
H all</w>
ass age</w>
z y</w>
par k</w>
connec ted</w>
fin ancial</w>
supp ly</w>
힘 을</w>
sur ance</w>
스 에서</w>
f requ
A V
gra de</w>
wit ch</w>
맞 는</w>
m g</w>
컨 트
배 터
pre ci
h ood</w>
g ar</w>
et e</w>
require ments</w>
주 로</w>
규 칙
E con
D eli
특 징
하이 틴</w>
n m</w>
속 도</w>
강 한</w>
k o</w>
po or</w>
Org an
D A</w>
d oub
선 수
form ed</w>
fa ult</w>
re sist
gre en</w>
differ ence</w>
cap acity</w>
ra m</w>
만 을</w>
위 로</w>
V en
아 웃</w>
el ess</w>
S aint</w>
it ors</w>
관계 를</w>
ci ties</w>
am i</w>
것이 라</w>
de x</w>
점 이</w>
lev els</w>
Apart ments</w>
자 들에게</w>
에 만</w>
wa iting</w>
경 찰
D M</w>
산 을</w>
t ree</w>
그 분</w>
v a</w>
ak a</w>
er ve</w>
re less</w>
연락 처</w>
fam ous</w>
ab ase</w>
ac tivity</w>
A I</w>
estab lished</w>
Sat an</w>
권 을</w>
이 전
to il
Al l
추 천
사용 자가</w>
n ice</w>
주 변
foc us</w>
A D</w>
or g</w>
문제 는</w>
f uc
이 에요</w>
ol f</w>
유 용
b o</w>
화 된</w>
손 을</w>
계 를</w>
아 르
있 겠
wor ked</w>
보 다는</w>
s in
fore ver</w>
체 크
통 합
M C</w>
물 자</w>
pos ed</w>
구 나</w>
pub lished</w>
ac le</w>
em o
p at
Ri ver</w>
sel l</w>
CE O</w>
ch ance</w>
bre ak</w>
x es</w>
장 난
Y O
ate ment</w>
beg in</w>
무엇 이</w>
li mi
ra id</w>
d y
도 메인</w>
ten ce</w>
off ering</w>
등 록</w>
당 시</w>
at trac
ha i</w>
an o
셨 습니다</w>
cor por
hun dreds</w>
유 대
Re al</w>
i P
했 다고</w>
ta x</w>
elec tric</w>
인 기</w>
전 달
techni que</w>
레즈 비
거 기
온 라인
ne igh
in troduc
최 소
V ic
F ull</w>
an ity</w>
solu tions</w>
살 펴
assi c</w>
acc ept</w>
인 류
pos es</w>
lis ten</w>
limi ted</w>
오 후</w>
er gy</w>
아 들
찾 고</w>
F ile</w>
죽 은</w>
us e
사이 의</w>
대 가</w>
가 스</w>
성급 의</w>
consi der</w>
gir ls</w>
그분 의</w>
b ase</w>
생각 을</w>
어 렵
min al</w>
소 는</w>
B ack</w>
St ar</w>
de ep
multi ple</w>
techn ical</w>
He av
C ro
G all
rec or
see m</w>
doc tor</w>
세상 을</w>
me dic
al ist</w>
s un
개 선
남 편
카지 노</w>
해 당
U V</w>
s ou
c able</w>
최 적
regi on</w>
conven i
드 에</w>
el low</w>
S P</w>
respon se</w>
Pol icy</w>
년 의</w>
장 에</w>
sy ch
uc le
min im
b our
유 효
의 료</w>
g ment</w>
tra de</w>
vi ously</w>
m ist
P ay
하 자</w>
la test</w>
활 동</w>
i p</w>
progr ams</w>
분 석</w>
셔 서</w>
없 어</w>
er t</w>
하시 고</w>
요 구</w>
rele ased</w>
장 소</w>
체 를</w>
tern al</w>
AP I</w>
있 어야</w>
최 근
oo th</w>
g ate</w>
reas ons</w>
파트 너
패 키
이 번
el op</w>
S ig
사람 에게</w>
it a</w>
점 점</w>
M aster</w>
Pl us</w>
A l</w>
자 기
it ting</w>
아 서</w>
Ano ther</w>
in k
f re
인 가요</w>
거 예요</w>
A G
되었 고</w>
작 용
신 다</w>
il ies</w>
AN D</w>
P at
이 후
지금 은</w>
H ell
L E</w>
de ep</w>
cam era</w>
마 련
충분 히</w>
표 준
ex actly</w>
ad ditional</w>
on de</w>
빠 르게</w>
i ther</w>
올림 픽</w>
치 고</w>
ex am
Lar ge</w>
어 진</w>
in ks</w>
표 시</w>
나 누
sa ved</w>
fe eling</w>
en ge</w>
기 념
li ons</w>
D et
장 애
체 의</w>
for th</w>
g res
wor ld
범 위</w>
T A</w>
ha el</w>
위 대한</w>
rec ord</w>
y ers</w>
외 부</w>
느 낌
주 차
Ver sion</w>
gu ide</w>
변 경</w>
긍 정
C H</w>
Econ om
certain ly</w>
inst all</w>
원 의</w>
구 요</w>
간단 한</w>
대 화
D own
ti t
K o
역할 을</w>
알 고
매 년</w>
터 를</w>
ven ess</w>
었 고</w>
M ary</w>
역 사</w>
로 마</w>
의 사</w>
is tic</w>
인 들은</w>
리 더
n ations</w>
기 간
것 보다</w>
말 합니다</w>
선택 할</w>
지역 의</w>
거 래</w>
보 유
E ducation</w>
o be
개 념
i stry</w>
il s</w>
s ear
y o
이 동</w>
Wil li
P P</w>
S ingle</w>
과 연</w>
인 다</w>
mil itary</w>
th anks</w>
C S</w>
te ll
있 던</w>
저희 는</w>
aw a</w>
Z e
Wh e
and ed</w>
was n</w>
협 력
m ary</w>
적절 한</w>
원 이</w>
Gu ide</w>
pro duce</w>
Geor ge</w>
Pr ice</w>
hi on</w>
Co de</w>
posi tive</w>
g ri
최 소</w>
but ton</w>
econom ic</w>
k illed</w>
x ury</w>
D S</w>
s y</w>
는 이</w>
bl ue</w>
서 도</w>
스 크</w>
만들 기</w>
제 일</w>
제공 됩니다</w>
si ght</w>
see ing</w>
H om
의 견
H app
H al
e th
av es</w>
H igh
능 력
주 십시오</w>
ci ent</w>
play ers</w>
비 치</w>
F re
D ate</w>
외 국
자 료</w>
tri ed</w>
ex erc
하려 는</w>
프 린
R ight</w>
d aily</w>
C at
우 는</w>
M ess
hel ps</w>
중 에서</w>
inter esting</w>
D e</w>
vari ety</w>
현 대</w>
D uring</w>
y es</w>
u als</w>
v in
de tec
sec tion</w>
엄 청
Sp anish</w>
듣 고</w>
D O
M I</w>
im ple
런 던</w>
식 으로</w>
번 역
g as</w>
정 에</w>
치 료</w>
g ation</w>
그 래</w>
rec ent</w>
계 획</w>
시 민
em er
ey e</w>
마 르
f low</w>
찾 아</w>
loo ked</w>
우 린</w>
re staurant</w>
li x</w>
순 간
av oid</w>
deter min
tra ditional</w>
ar ding</w>
전 송
Wash ington</w>
저 의</w>
tu be</w>
ide as</w>
sur face</w>
개 를</w>
no te</w>
Per s
부 정
I V</w>
J av
ous ness</w>
sp ring</w>
equ al</w>
p h</w>
potenti al</w>
전 용</w>
텔 레
무 언
하 드</w>
한 번</w>
하셨 습니다</w>
Cl ick</w>
소 리</w>
zh ou</w>
tou ch</w>
g old</w>
카 테
tele vision</w>
P op
나 가
Im age</w>
spir it
elec tr
So cial</w>
이 요</w>
크 를</w>
UR L</w>
B ul
ell ing</w>
F ur
Su n</w>
나 니</w>
lo ad
확 장
allow ed</w>
h i</w>
찾 기</w>
Buil ding</w>
T ru
아 이</w>
our selves</w>
잖 아</w>
계 산
n it
f illed</w>
tu de</w>
la w
p a</w>
유 지</w>
O ver</w>
인 증</w>
상 상
면 에</w>
Lin ux</w>
vie w
fer red</w>
anc y</w>
mil es</w>
O K</w>
절 대</w>
erv ation</w>
ak ers</w>
rec ently</w>
Y et</w>
a o</w>
앞 에서</w>
k ingdom</w>
n esses</w>
id a</w>
인 치</w>
mo de</w>
Se a</w>
Be fore</w>
deli very</w>
보 십시오</w>
종 이</w>
채 널</w>
이 자</w>
af raid</w>
하느 님
s us
주 를</w>
lo ves</w>
부 의</w>
이 들</w>
주 변</w>
차 량</w>
함 께
tri p</w>
as ing</w>
le ts</w>
짧 은</w>
reg ul
싱 가
de gree</w>
아 일
Ch e
되었 으며</w>
Sup er</w>
Te am</w>
고 자</w>
C T</w>
res h</w>
D on
Par t</w>
레즈비 언</w>
이름 은</w>
exc ept</w>
num bers</w>
Spec i
은 행
식 사</w>
편 집</w>
si t</w>
pl ant</w>
gi ft</w>
마 음</w>
무엇 인가</w>
oper ating</w>
포 트</w>
m aybe</w>
하나 입니다</w>
있 음을</w>
없 고</w>
국 민
고객 의</w>
터 의</w>
inf o</w>
사진 을</w>
Ex press</w>
R ome</w>
그 때</w>
r on
CN C</w>
ex ist</w>
TE L</w>
파 괴
S af
크리 스마
prac tice</w>
ro te</w>
E qui
보 라</w>
be d
K im</w>
Con nec
예 상
받 아</w>
CA S</w>
경 험</w>
T un
F u
im ages</w>
or ite</w>
s quare</w>
학 적</w>
re lease</w>
sp end</w>
이 시
안 드로
르 고</w>
b um</w>
한국 어</w>
x i</w>
드 로</w>
win dow</w>
Me dia</w>
S he
gra du
T own</w>
Au th
P R
dec ided</w>
con fir
비 용</w>
그것 의</w>
pic ture</w>
시 켰
내 의</w>
A z
XX X
비 디오
다 른
por ting</w>
너희 를</w>
즐 길</w>
c old</w>
H S</w>
C L
en a</w>
p ul
도 보</w>
참 조
O s
WE B</w>
주 문</w>
ag ree</w>
s qu
방법 으로</w>
스 코
mar riage</w>
프 라
Ta i
k ers</w>
이 론
브 랜드
conf ig
프로그램 은</w>
er ror</w>
D en
경 제</w>
최초 의</w>
pra yer</w>
Le g
we ather</w>
말 은</w>
백 만</w>
쪽 으로</w>
B ank</w>
Pub lic</w>
dev elop</w>
범 죄
n a
구 를</w>
자 리</w>
organ ization</w>
필요 로</w>
위 협
li ance</w>
확실 히</w>
Di strict</w>
Mic hael</w>
inter ested</w>
더 라도</w>
제 목</w>
집 에서</w>
Lo s</w>
뜨 거운</w>
도 와</w>
Wh ich</w>
Rem o
리 로</w>
C ast
믿 는</w>
out door</w>
ur a</w>
ol es
are n</w>
Mex ico</w>
re views</w>
제품 은</w>
c ro
프랑 스
브라 우
H en
머 물
C ard</w>
M en</w>
Med ical</w>
u gg
S pain</w>
g onna</w>
갖 춰
ti ves</w>
consi dered</w>
pi ece</w>
Pre vious</w>
린 다</w>
th us</w>
지 로</w>
C up</w>
P ra
w il
M P
ra ted</w>
나 중에</w>
저렴 한</w>
i OS</w>
In f
in i</w>
Develop ment</w>
지 구</w>
canc er</w>
변 환
li ved</w>
인 들이</w>
기 록</w>
내 에서</w>
바 람
w rote</w>
te a</w>
원 래</w>
F estival</w>
di tion
ti ll</w>
반 복
pati ent</w>
부 품</w>
장 의</w>
활 성
Ph ili
셨 다</w>
관 을</w>
엔 지니
tain ment</w>
l an
아 의</w>
도 에</w>
이벤 트</w>
전 력</w>
G old</w>
con st
cons ci
des k</w>
bas ic</w>
상 은</w>
Pro gram</w>
어려 운</w>
Fac tory</w>
n ames</w>
or ial</w>
ep h</w>
공 간</w>
n am</w>
맹 세
박물 관</w>
듭 니다</w>
공 부
A h</w>
Sp a</w>
tr ack</w>
받 았다</w>
H and
sy m
to m</w>
브 랜드</w>
sub ject</w>
cre ation</w>
대 부분</w>
능 력을</w>
dr yer</w>
알 았
b low
sec ure</w>
m os
시간 은</w>
M ain</w>
i th
신 앙
잠 재
grow ing</w>
마음 에</w>
신 의</w>
B ang
캘 리포
ho le</w>
lo ts</w>
gl ass</w>
P os
Mar ket</w>
결 합
통 제
proper ties</w>
혜 택
pol ice</w>
ser ious</w>
플 래
하셨 다</w>
엉덩 이</w>
제 거</w>
comm and</w>
Le e</w>
Vi et
공항 에서</w>
년 이</w>
인 과</w>
off ered</w>
다 가
Su per
형 성
L og
어 쩌
er ship</w>
Corpor ation</w>
gener ation</w>
물 에</w>
charac ter</w>
날 짜</w>
op tim
guar an
SQ L</w>
pay ment</w>
그 와</w>
운 동</w>
du le</w>
part ner</w>
형 제
B ed
A B
S E</w>
angu ages</w>
의 사
A P</w>
하나님 께서는</w>
l ength</w>
thous ands</w>
movi es</w>
P ac
ari an</w>
acc oun
들 었
htt p</w>
세상 에</w>
옵 션
ic on
anal ysis</w>
B on
St ore</w>
becom es</w>
거 죠</w>
오래 된</w>
위원 회</w>
설 계</w>
T est</w>
완 료
모 양
대 체</w>
어린 이</w>
gu y</w>
To tal</w>
hu ge</w>
lo y</w>
t an
re view</w>
Sh ould</w>
Al though</w>
d ance</w>
B ack
respon sible</w>
pati ents</w>
터 는</w>
wor ship</w>
만 에</w>
Th anks</w>
제 외
g et
에게 도</w>
화 학</w>
P u
사랑 을</w>
lear ned</w>
스페 인</w>
up date</w>
pa id</w>
문 화</w>
Hum an</w>
인 에게</w>
W all</w>
ick ness</w>
T ower</w>
C lo
nam ed</w>
H ear
W a
ne g
um s</w>
Spec ial</w>
의 를</w>
아 시
high ly</w>
wel come</w>
이 면</w>
fore ign</w>
Jos eph</w>
N u
in deed</w>
해 를</w>
거 룩
F oundation</w>
pa red</w>
인터 페이
s ev
중 앙</w>
s la
가 난
m itted</w>
St a
커 피</w>
P ur
가 입
N T</w>
편안 한</w>
be ach</w>
Su ite</w>
헤 어
S I</w>
mar ried</w>
as ian</w>
Red Tube</w>
y st
프 리</w>
월 에</w>
카테 고
elec tronics</w>
resp ect</w>
번 역</w>
A lex
삭 제
자세 히</w>
ex is
iz ing</w>
상 태</w>
tion ary</w>
y en</w>
할 머
hibi tion</w>
시설 을</w>
C ent
B us</w>
주 님의</w>
부 에</w>
ro ll</w>
ame ter</w>
간 다</w>
Bo ard</w>
in ch</w>
Por no</w>
G PS</w>
s u</w>
y m
bil lion</w>
이라 면</w>
초 기</w>
y r
트 럼
inte gra
ak s</w>
레이 저</w>
Soci ety</w>
연 방</w>
pub lic
il os
축 구</w>
있 어
전 압</w>
싶 습니다</w>
o o</w>
ro p
Are a</w>
benef its</w>
b ath</w>
St or
보 았
여호와 께서</w>
G O
Mar k</w>
w an</w>
벗 어
ch annel</w>
지 켜
정보 는</w>
te ach</w>
N ight</w>
Ind ustrial</w>
d i</w>
Joh n
결 혼</w>
뒤 에</w>
work ers</w>
tow ards</w>
단 을</w>
먹 을</w>
M u
K ar
로 마
B or
편 집
aut om
S anta</w>
처음 으로</w>
us ion</w>
은 행</w>
Pro c
val ues</w>
No te</w>
c lear
점 에</w>
c ell</w>
proc essing</w>
공 유</w>
k y</w>
하 죠</w>
Ital ian</w>
ba g</w>
it tee</w>
어떠 한</w>
Pal ace</w>
l am
기 울
ch ec
U N</w>
st atus</w>
보 이는</w>
지 불</w>
명 확
B ar</w>
것 들을</w>
Lear n</w>
담 당
리조 트</w>
g a</w>
ann y</w>
파 티
분명 히</w>
adv ice</w>
대 중
ru le</w>
제 시
e ding</w>
ff ic</w>
이르 되</w>
측 정
uni verse</w>
off icial</w>
냅 니다</w>
kin ds</w>
trans fer</w>
qu ar
lead ers</w>
사용 합니다</w>
미 니
De partment</w>
pro jects</w>
O F</w>
cl ub</w>
Elec tric</w>
mo ving</w>
c am</w>
C ra
des ire</w>
tom orrow</w>
ad es</w>
망 을</w>
파 크</w>
os s</w>
Th om
쇼 핑</w>
마찬가지 로</w>
삭 제</w>
것이 고</w>
파 티</w>
관심 을</w>
수 정
C ou
가로 되</w>
바 이러
invol ved</w>
하 다는</w>
몇 몇</w>
pass ed</w>
Cas ino</w>
ex change</w>
이 익
thous and</w>
ma st
te ch</w>
분 의</w>
로 드</w>
requ ire</w>
comp ut
옵 션</w>
te sting</w>
s ins</w>
훈 련
Bre akfast</w>
영원 히</w>
gr and
ri f
free dom</w>
lead er</w>
면 을</w>
Sh ang
즐 거
vi l</w>
대 는</w>
effec ts</w>
high est</w>
기 초
pre gn
심 히</w>
E li
세 포
소 셜</w>
b ank</w>
he at</w>
re main</w>
마 을
all ation</w>
웃 음</w>
col lege</w>
입 력</w>
Bl u
r ise</w>
있었 던</w>
트 로
못 한</w>
ist ing</w>
l o</w>
보 시
도 구</w>
sh own</w>
면 에서</w>
운 드</w>
글 을</w>
u ti
세 상</w>
la ws</w>
먼 트</w>
드라이 브
R en
sk ills</w>
ㅋ ㅋ
J ac
st ates</w>
생 명
sh opping</w>
w hatever</w>
G ar
chall eng
ain s</w>
b attery</w>
oc cur
ucle ar</w>
purch ase</w>
f ill</w>
사회 적</w>
w ine</w>
윈도 우</w>
S le
관 해</w>
imp act</w>
ite ms</w>
ten ing</w>
h ath</w>
데 이</w>
공 원</w>
공화 국</w>
ec ts</w>
깨 끗
소 리를</w>
ma ximum</w>
sc ale</w>
원 에</w>
pur poses</w>
아 야</w>
p t</w>
말 고</w>
Sec ond</w>
난 방</w>
적 은</w>
in y</w>
태 양</w>
if y</w>
mi um</w>
ing ing</w>
상품 명</w>
ach es</w>
con struction</w>
d ark</w>
cre dit</w>
브 루
olu me</w>
star ting</w>
J our
ber g</w>
Gu est</w>
비슷 한</w>
A W
teach er</w>
appro ach</w>
un k</w>
recomm end</w>
우 선</w>
o ols</w>
chang ing</w>
너 무
워 드</w>
ord ers</w>
Jer us
for tun
내 부</w>
me aning</w>
지 에서</w>
P ost</w>
co ck</w>
구 매</w>
pho to</w>
파 리</w>
r ang
sig ned</w>
생각 하는</w>
X P</w>
r ound</w>
manufactur ers</w>
조 정
tempor ary</w>
요 한</w>
충 족
En ergy</w>
이 끌
Out look</w>
주 신</w>
베 르
무 게</w>
pr ay</w>
적 을</w>
ol ic</w>
ent ure</w>
ev idence</w>
direc tion</w>
foo t</w>
가까 이</w>
D ol
in sp
mark eting</w>
amaz ing</w>
사 탄
얘 기
U ser</w>
했 는데</w>
H i
F ree
dom ain</w>
I II</w>
생 물
Coun cil</w>
We ight</w>
centr al</w>
k itchen</w>
ij ing</w>
나 이</w>
hear ts</w>
n d</w>
포함 한</w>
ell a</w>
저희 가</w>
Every thing</w>
올 바른</w>
cla im
하였 고</w>
appro pri
호텔 에서</w>
employe es</w>
ribu tion</w>
고 급</w>
Fe der
at temp
mar t
자 격
T om
we ap
스 턴</w>
ci tiz
di v
en g</w>
m echan
Wel come</w>
위 해서는</w>
베 트
네 덜
co sts</w>
있 으면</w>
un it</w>
최 종</w>
S or
as ks</w>
re turned</w>
sha red</w>
우 수한</w>
lo y
E D</w>
n t</w>
Pl at
C P</w>
예 루
sec onds</w>
Wor k</w>
p on
관 광</w>
올 드</w>
갤 러
Ac ad
이 집
Ab ra
ther ap
form er</w>
Ac t</w>
궁 금
att ack</w>
Tim es</w>
가 리
기 사</w>
가 의</w>
더 니</w>
pl ans</w>
사무 실</w>
s old</w>
hi c</w>
es is</w>
수 백</w>
g arden</w>
r i</w>
넓 은</w>
자 연</w>
문 의
m on</w>
L anguage</w>
스 파</w>
Des cription</w>
res ources</w>
기 반</w>
S an
gu n</w>
s ports</w>
Pho to</w>
옵 니다</w>
adv anced</w>
안전 한</w>
S et</w>
E ff
못 할</w>
ti fied</w>
ex ecu
지금 까지</w>
있을 까요</w>
중 년
스 튜
produc ed</w>
스트 리
Wat er
규 모
ab ilities</w>
whe el</w>
W H
경우 에는</w>
말 했습니다</w>
하 겠습니다</w>
중 앙
tur ns</w>
Some times</w>
pop ulation</w>
ale m</w>
N av
하고 자</w>
an ia</w>
stra tion</w>
friend ly</w>
블 랙</w>
xim ately</w>
하 드
납 니다</w>
섬 유</w>
질 병
각 각
tow ard</w>
시 대</w>
하나 를</w>
지 기</w>
Wat ch</w>
rou gh</w>
독 특
만들 고</w>
부 는</w>
관 하여</w>
de b
Bit coin</w>
al ism</w>
구 조</w>
Sel ect</w>
m aster</w>
Be ijing</w>
H ey</w>
hol y</w>
mo di
동 안
애 플리케이
조 회</w>
홍 콩</w>
benef it</w>
다운로 드
bre akfast</w>
wal king</w>
Egyp t</w>
과 거
모 른다</w>
완전 한</w>
b le
스럽 게</w>
comple x</w>
ate ll
ar g
mod els</w>
내용 은</w>
en i
찾 는</w>
con nect</w>
C ir
Manufac tur
re sid
am ent</w>
C ho
발 견</w>
el ev
pe l</w>
e ight</w>
T wit
사항 을</w>
achi ev
Pl an
re ached</w>
제품 의</w>
tu red</w>
R S</w>
머 리
Jerus alem</w>
Revi ew</w>
id ing</w>
ob ject</w>
저 작
물 어
Sum mer</w>
un a</w>
자 지</w>
사용 되는</w>
pl astic</w>
링 크</w>
sto red</w>
구 축
fam ilies</w>
d ang
believ ed</w>
curren cy</w>
blo g</w>
Cha mp
M T</w>
we d
민 족
단 위</w>
방 문</w>
스마 트</w>
l ing
smo king</w>
예루 살
exp ect</w>
J R</w>
L ou
T el</w>
당 연
the ma
In dian</w>
ac ked</w>
ass em
단순 히</w>
W ould</w>
h op
가 에</w>
에 스
sh or
무 선</w>
car ds</w>
wonder ful</w>
cou l
게 도</w>
a e</w>
tific ate</w>
W ay</w>
XXX Dan</w>
is ing</w>
사 전</w>
h ate</w>
sel ected</w>
reco very</w>
Pl astic</w>
주 지</w>
성 령
지 와</w>
cel ls</w>
일 로</w>
강 화
clo sed</w>
Th er
라이 언
f it</w>
예 언
보 로</w>
strate gy</w>
k ept</w>
anc ing</w>
s n
클 리
조 사
마 세요</w>
world wide</w>
알려 진</w>
appe ared</w>
ich es</w>
품 을</w>
An y</w>
enc our
세 트</w>
gu ys</w>
이 든</w>
Vi ews</w>
않 아</w>
상 품</w>
의 심
Man ager</w>
vers al</w>
p al
on ing</w>
f ts</w>
르 는</w>
sh oo
u ght</w>
see k</w>
도 착</w>
자 료
아마 추어</w>
그 저</w>
Ro oms</w>
associ ated</w>
상 으로</w>
wh ose</w>
백 색</w>
비 트</w>
T our
성 능</w>
S cot
냉 장
coul dn</w>
jour ney</w>
분 에</w>
be yond</w>
L M</w>
n es
스테인 리스</w>
Eng land</w>
AP K</w>
겠 습니까</w>
경 기
Abra ham</w>
없 다는</w>
DN A</w>
멀 리</w>
provid ing</w>
W it
Every one</w>
L A</w>
posi t</w>
gg ing</w>
ad ise</w>
p ter</w>
Deli very</w>
작 동</w>
둘 러
소 녀
축 복
핵 심</w>
pr int</w>
가 득</w>
반 대
pres sed</w>
h ouse
트 로</w>
조 용
bri dge</w>
man age</w>
t ab
드라이 브</w>
무 를</w>
키 를</w>
pl us</w>
악 한</w>
단 일</w>
여호와 의</w>
생각 한다</w>
하였 으며</w>
E le
Sm all</w>
pr ices</w>
나 이다</w>
부 드
pre vious</w>
Ok ay</w>
마지막 으로</w>
spirit ual</w>
능 력</w>
communic ation</w>
안 내
의 한</w>
teach ing</w>
val u
시작 했다</w>
그래 도</w>
g ency</w>
ut y</w>
읽 기</w>
집 을</w>
Res erved</w>
평 가</w>
met al</w>
압 력</w>
cra ft</w>
금 고</w>
atell ite</w>
Por t</w>
제 대로</w>
anim al</w>
갖 추고</w>
눈 을</w>
pres ence</w>
str ong
U r
치 지</w>
이 들이</w>
exp lo
M ach
A k
커 피
성 능
올 리
도 전
드 레
조 금
이 전에</w>
th ank</w>
Dis play</w>
자 들</w>
ar i</w>
야 외</w>
혹 시</w>
st reet</w>
s ale</w>
인 쇄
안 을</w>
Sp ace</w>
ent ing</w>
연 합
n early</w>
Pla za</w>
religi on</w>
상 에</w>
ad vertis
회사 의</w>
qu ick</w>
Lit tle</w>
식 이</w>
gre atest</w>
yl on</w>
signific ant</w>
정확 한</w>
D ist
배 를</w>
inter face</w>
ti que</w>
Amaz on</w>
aw are</w>
스페 인
p it
오 히
참 조</w>
Tra vel</w>
렸 습니다</w>
다 르
큰 가슴</w>
ir s</w>
고 용
우 주</w>
Ad d</w>
Angel es</w>
무료 로</w>
bath rooms</w>
사 이</w>
pe dia</w>
타 고</w>
시 즌</w>
I ts</w>
go t
그 들
지 게</w>
Pol y
Tr ump</w>
역 에서</w>
ri d</w>
l ar</w>
collec tion</w>
d red</w>
e ed</w>
버 튼
Bra z
re pe
상 당
W ed
과 는</w>
clo th
all er</w>
pre dic
항 공</w>
라 스</w>
A th
incre ased</w>
L aughter</w>
st ly</w>
re fl
lit er
s m</w>
사 와</w>
y l</w>
T en
iz ations</w>
약 을</w>
st ance</w>
N a
X i
s tic
고객 이</w>
L oo
때 마다</w>
E l</w>
f ic</w>
F A</w>
Eng ine
신 호
mid dle</w>
p he
use ful</w>
V eg
가 이드</w>
re duce</w>
car s</w>
architec ture</w>
났 습니다</w>
ic on</w>
의 미</w>
e b
이 것
stand ards</w>
pos s
par king</w>
가 질</w>
P R</w>
차 지
목 을</w>
el ds</w>
밝 혔
au ght</w>
저 가</w>
저 항
pro ph
wor ry</w>
중요 합니다</w>
체 계</w>
con dition</w>
변 화를</w>
fav orite</w>
오히 려</w>
m assage</w>
경 영
cli ents</w>
넘 는</w>
I M</w>
분 을</w>
과 정을</w>
f at</w>
ex tra</w>
C R
o de</w>
i ans</w>
mo ved</w>
ra in</w>
T F
조 건</w>
tain ing</w>
bir th</w>
in struc
pl ays</w>
하나 가</w>
eng ine</w>
다 루
L IN
M other</w>
S ar
ast er
al d</w>
gl ory</w>
내용 을</w>
어 에</w>
con tains</w>
v ey</w>
continu ed</w>
심 판
i ah</w>
상 대
S mart</w>
B ir
F our</w>
d on
correc t</w>
NE T</w>
드 에서</w>
D ep
lo g
form at</w>
sur pris
sig n
보 자</w>
s ul
out put</w>
거 부
ta ught</w>
hun dred</w>
S U
ti tude</w>
ec es</w>
wee k
그것 에</w>
프 란
cli ent</w>
cl oud</w>
기 준</w>
회 복
car ry</w>
il ing</w>
님 은</w>
ch er</w>
ne ither</w>
o h</w>
c ross</w>
도 달
거 주
func tions</w>
Coun ty</w>
w ind</w>
거 대한</w>
b ia</w>
Bo th</w>
L S</w>
방법 에</w>
ak i</w>
선 한</w>
on to</w>
스 피
Col lec
H E
기독 교
감 독
comfor t</w>
wis dom</w>
re move</w>
di strict</w>
invest ment</w>
날 에</w>
그 걸</w>
지 지
com pl
모 터</w>
ad er</w>
자 유</w>
그녀 를</w>
h idden</w>
care er</w>
v s</w>
포함 하여</w>
카메 라</w>
pre pared</w>
내 용</w>
gh ty</w>
으로 도</w>
dat abase</w>
어 디</w>
판 단
접 근</w>
V R</w>
Fil m</w>
ti tle</w>
Me th
어 와</w>
그분 은</w>
bath room</w>
일 까요</w>
클 라우
키 는</w>
확 신
섹시 한
그 림</w>
법 적</w>
경 을</w>
z er</w>
Web site</w>
있 죠</w>
v ince</w>
비즈 니
em a</w>
E p
ad ap
손 에</w>
적 입니다</w>
h ell</w>
sor ry</w>
H il
되 게</w>
ant i</w>
e ating</w>
Fi re
이 하</w>
공 식
B ol
부 동
갑 니다</w>
religi ous</w>
서 에</w>
기 기</w>
pre sident</w>
비 를</w>
통 합</w>
Que en</w>
시키 고</w>
거 기에</w>
in tellig
적 용</w>
Equi pment</w>
ill er</w>
ha ven</w>
대 단
자 리
M M</w>
하나 요</w>
보 드</w>
때 로</w>
as sion</w>
눈 에</w>
형 을</w>
F ire</w>
big gest</w>
k et
Por tu
활동 을</w>
ap est</w>
Applic ation</w>
게 이
ag on</w>
ali ve</w>
prev ent</w>
doub t</w>
행 동</w>
ti le</w>
기 쁨
G A</w>
텔레 비
분 명</w>
하 지는</w>
위치 를</w>
hum ans</w>
섹시한 중년
af ter
exper im
p are</w>
곳 은</w>
문제 에</w>
Shang hai</w>
l ap
d ele
Par t
안 내</w>
을 까요</w>
Ke ep</w>
여행 을</w>
사 우
c a</w>
ac es</w>
측 정</w>
ester day</w>
스 카
날 짜
T H</w>
이탈 리아
Pho to
Hel p</w>
Christi ans</w>
follow ed</w>
감 소
따 뜻
im ming</w>
st ock</w>
규 모</w>
al ization</w>
사용 됩니다</w>
fe e</w>
k ra
H ill</w>
ad op
가 정</w>
vehic le</w>
개 가</w>
하 려</w>
사용 하고</w>
아 브라
S R</w>
deli ver</w>
A A</w>
moun tain</w>
협 회</w>
l anguages</w>
있었 고</w>
dra w
v ation</w>
수 익
fru it</w>
en h
미 디
투 자</w>
보 냈
나머 지</w>
requi res</w>
V in
Ch ic
건강 한</w>
기 원
s ort</w>
bal ance</w>
I R</w>
lo ads</w>
ph ere</w>
진 화
금 융</w>
출 판
sig ns</w>
술 을</w>
오 랫
땅 에</w>
나타 나
액세 스</w>
희 생
섹시한중년 여성</w>
워 싱
년 대</w>
Acc ess</w>
인 기
p es</w>
reg ular</w>
an i</w>
못 하는</w>
ang le</w>
U s
받 았습니다</w>
함 이</w>
S uch</w>
meth ods</w>
지 방
통 신</w>
Rem ember</w>
하 던</w>
f aster</w>
cre ating</w>
or a</w>
fin ished</w>
k es</w>
h it</w>
K ey
f emale</w>
jo in</w>
Go vernment</w>
Tra de</w>
AL L</w>
hair dryer</w>
comple ted</w>
Re staurant</w>
주 기</w>
T ou
z ech</w>
변 호
K en
in ated</w>
Ad am</w>
식 품</w>
With out</w>
C anc
배 달</w>
G B
advant age</w>
sp ent</w>
goo ds</w>
qu es</w>
t our
fl ic
갑 자기</w>
A U
코 어</w>
f lex
dri ving</w>
싶 어
별 로</w>
웨 어</w>
까 지는</w>
b lock</w>
Pac ific</w>
th ro
사 건</w>
등 장
관심 이</w>
clear ly</w>
쪽 에</w>
뭔 가</w>
지 옥
출 력</w>
Sy stems</w>
sec ret</w>
respon sibility</w>
rac ial</w>
실 을</w>
계획 을</w>
dam age</w>
appropri ate</w>
D ra
V A</w>
개인 정보</w>
기 차
st ered</w>
웨 이</w>
app ears</w>
achi eve</w>
바 닥
쇼 핑
Un der
sup ported</w>
Ch ang
마 시
Lo w</w>
web sites</w>
정 이</w>
유 리</w>
브 로
약 간</w>
Comm unity</w>
크 라이
실 시
아 닌
R ic
근처 에</w>
automa tically</w>
jo bs</w>
F E
p rou
e duc
ish ment</w>
Met al</w>
Vill age</w>
ol a</w>
제 한</w>
콘텐 츠
s etting</w>
ver ing</w>
ind ustrial</w>
Ma p</w>
H an
일 단</w>
기 뻐
ag e
마 침
as m</w>
북 한
년 을</w>
v ill
Twit ter</w>
dri ver</w>
oma tic</w>
Cour t</w>
V ery</w>
m i</w>
재 생
st ances</w>
su d
s ung</w>
Mul ti
Gi ve</w>
fe at
그 에</w>
ent ually</w>
준 비</w>
C M</w>
g ent
bro thers</w>
eng er</w>
보 니</w>
effici ent</w>
bo t</w>
있 음</w>
분 말</w>
C ath
옵 션을</w>
선 지
M ir
아프리 카
eas ier</w>
관 은</w>
다 시
ra ph
번 에</w>
시스템 은</w>
bl onde</w>
consi der
gener ally</w>
임 스</w>
정 도
Sh em
모습 을</w>
하 이</w>
ren ce</w>
wed ding</w>
다 섯</w>
이 니라</w>
건 설
and a</w>
j ust
인 종
str ugg
al t</w>
잘못 된</w>
inst alled</w>
온 다</w>
stu dies</w>
St art</w>
같 아요</w>
dem and</w>
어쩌 면</w>
Ar chi
할 까</w>
Cont in
dis h</w>
pic tures</w>
proc ed
머 무
방 송
Afr ican</w>
멕시 코</w>
v ille</w>
in stitu
ul a</w>
b ute</w>
resist ance</w>
ta ste</w>
x ing</w>
조 각
fac es</w>
미국 에서</w>
먹 고</w>
메모 리</w>
the ory</w>
al bum</w>
바 다</w>
더 블</w>
펌 프</w>
HO ME</w>
o red</w>
z es</w>
네 이
로 스
통 한</w>
thou ghts</w>
N O</w>
불 어</w>
g y
eri e</w>
cir cum
블 록
때 가</w>
빌 라</w>
음 식을</w>
친 절
cal ls</w>
Wor king</w>
Le ague</w>
In du
누구 나</w>
es cap
men u</w>
첫 째</w>
도 서
spe aking</w>
여 름</w>
문 자</w>
op in
x x
모니 터
ilos oph
소 스</w>
partic ularly</w>
ex trem
min i
하느 님의</w>
싶 어</w>
mach ines</w>
f our
fa ir</w>
널 리</w>
K ey</w>
부 여
여 름
각 각</w>
Aut om
S ports</w>
자동 차
Sun day</w>
K a
이 어</w>
이 사
Spr ing</w>
추 천</w>
S ource</w>
v ac
입 을</w>
애 니
매 력
특 별</w>
Mo m</w>
sch ed
보 관
b ud
PC B</w>
아 기</w>
An im
Can a
neg ative</w>
연 합</w>
Ch ange</w>
자 리를</w>
Mo vi
t ons</w>
내 고</w>
수 있다</w>
종 교</w>
없 다고</w>
D P</w>
oc r
오랫 동안</w>
시리 즈
선 물</w>
i ously</w>
중 한</w>
통 신
ch ers</w>
기 관</w>
M ol
W r
변 화</w>
킬 로
P RO
te s
l and
깨 닫
크 로</w>
싶 다</w>
gu id
Americ ans</w>
미 술
ol der</w>
말 하고</w>
Indu stry</w>
출 시
비 록</w>
차 량
스 키</w>
oles ale</w>
대 신
유 니
ati ves</w>
실 내</w>
got ten</w>
ra di
ig n
Sy n
answ ered</w>
m o</w>
pan el</w>
res ear
지 배
icon duc
S ave</w>
et ers</w>
과 정</w>
cy cle</w>
중 의</w>
이 제는</w>
pa ign</w>
az ine</w>
T ab
Fri day</w>
th r
comm ercial</w>
실 행</w>
오 디오</w>
체 계
인 한</w>
검 사</w>
ail ed</w>
jud gment</w>
Coun try</w>
happ iness</w>
무 시
이유 로</w>
la un
색 상</w>
걸 쳐</w>
Gu ang
Con ference</w>
영원 한</w>
on es
n ur
b its</w>
S N</w>
숙 한</w>
ag no
te sts</w>
개 별</w>
미 리</w>
건 물</w>
신 속
O ut</w>
is es</w>
만 듭니다</w>
조 언
수 행</w>
배터 리</w>
m ur
소 형</w>
S atur
녹 색</w>
가 치</w>
mer cy</w>
fi f
위 험</w>
Gol den</w>
현 지</w>
os en</w>
les bian</w>
스위 트</w>
근 처</w>
S ex
마 법
확인 함</w>
태 국</w>
전문 가</w>
곳 을</w>
뿐 이다</w>
성 인</w>
D E</w>
ther wise</w>
St ainless</w>
종 류</w>
라이 브</w>
Qu es
업 을</w>
권 한
appro ximately</w>
포 르</w>
D I
K i
오 류
Con vention</w>
ac he</w>
bus in
싶 지</w>
수준 의</w>
나 서</w>
defini tely</w>
is tics</w>
제 어
s ister</w>
Gall ery</w>
l at
R F
f light</w>
re d
mo vement</w>
투 표
z ing</w>
없 었습니다</w>
o es</w>
스 러
an der</w>
마음 이</w>
전 송</w>
po st
사용 자의</w>
넘 어
하 기로</w>
P aper</w>
Ex peri
책 은</w>
거 든
ok ay</w>
su it</w>
individ uals</w>
cal cul
C able</w>
옷 을</w>
파 라
핸 드
광 범
뛰어 난</w>
comp il
카테고 리</w>
비 롯
사 고</w>
채 널
종 의</w>
U L</w>
fl at</w>
g ain</w>
마 리
A qu
m it
descri bed</w>
a head</w>
용 품</w>
Bri dge</w>
cr yp
ver si
포함 되어</w>
C ri
techn ologies</w>
킵 니다</w>
증 인</w>
plan et</w>
프레 스</w>
전 환
근 데</w>
자 손
k chain</w>
co w</w>
솔루 션</w>
엄청 난</w>
없 어요</w>
용 서
그리스 도</w>
분 리
Con ver
ann a</w>
i res</w>
심 리
충분 한</w>
Scre en</w>
방법 이</w>
시설 이</w>
cast ing</w>
어 리
exerc ise</w>
죄 를</w>
제공 하고</w>
보 다
데 려
ak e
카 운
팀 은</w>
de dic
유 명
brow ser</w>
I sa
오 랜</w>
behavi or</w>
dru g</w>
일 치
풍 부
통 해서</w>
거든 요</w>
지 방</w>
it er
S w
L e</w>
pl ants</w>
사람 들과</w>
mis s</w>
u le</w>
느 껴
마침 내</w>
조 사</w>
위 에서</w>
ear lier</w>
n one</w>
하시 기</w>
전통 적인</w>
그 럼
bas is</w>
in surance</w>
드 라
환영 합니다</w>
experi enced</w>
가 게</w>
hel ped</w>
s en</w>
포 기
시 각
Eng ine</w>
봅 니다</w>
크리스마 스</w>
dis h
wa ve</w>
성 경</w>
Ro bert</w>
고 기</w>
Chic ago</w>
전 원</w>
H T</w>
es tic</w>
AS TM</w>
주 식</w>
Ch em
N on</w>
sha pe</w>
만 드
식 은</w>
O il</w>
reg arding</w>
님 께서</w>
보 여</w>
f ly</w>
도 보로</w>
f la
effici ency</w>
Boo king</w>
흑 인</w>
bl ing</w>
프 라이
D ays</w>
su itable</w>
가능 성이</w>
주 에</w>
opport unities</w>
separ ate</w>
차 이
s mart</w>
effor t</w>
금 지
fig ure</w>
Ste p</w>
선 의</w>
Shem ale
En viron
직 원</w>
ash ing</w>
갖 춘</w>
Ar ab
순 간</w>
ook ie</w>
빛 을</w>
저 녁</w>
완 전</w>
Char les</w>
Pro vid
Pe ace</w>
St ri
귀 여
app lied</w>
알 렉
노 트
컬 렉
air s</w>
D or
위 는</w>
col ors</w>
inv esti
S ter
coll ect</w>
enter ed</w>
정부 는</w>
교 통</w>
Pan el</w>
am m
tra ding</w>
N ic
마 크</w>
E X
CO N
star ts</w>
pi e</w>
국 은</w>
어 떤
통 과
일본 의</w>
위 성</w>
fal se</w>
pol y
선택 한</w>
조 직</w>
난 다</w>
영 적</w>
원 에서</w>
대 회</w>
war m</w>
인 구
Gir l</w>
시 켜</w>
스 키
전 투
들 고</w>
그리스도 인</w>
비용 을</w>
announ ced</w>
Comm ittee</w>
보 인다</w>
Mo tor</w>
be ar</w>
호 주</w>
달 성
주 민
회 는</w>
테이 블
si mul
part ners</w>
아 티
Je ws</w>
equi pped</w>
려 는</w>
F L</w>
ap preci
al tern
Ar ts</w>
manufactur ing</w>
찾 으
rema ins</w>
hos pital</w>
Franc isco</w>
e x</w>
클 로
열 기</w>
정치 적</w>
m ol
심각 한</w>
T our</w>
per form</w>
굉 장
했 어</w>
su rely</w>
광 고
s ample</w>
sel ection</w>
cop y</w>
도 쿄</w>
expl ain</w>
스타 킹</w>
bro ad
필 리
Gre ek</w>
세 부</w>
헤어 드라이
예 측
통 하여</w>
메시 지를</w>
Tu ber</w>
conc ept</w>
pack age</w>
하시 면</w>
stor ies</w>
experi ences</w>
s l
f lowers</w>
상 업
Bed room</w>
ic ked</w>
g ery</w>
은 이</w>
let ter</w>
밤 에</w>
솔루 션
fic ations</w>
사 도</w>
가 치를</w>
화 면</w>
g ro
트 에서</w>
기반 으로</w>
load ed</w>
깨 달
M en
가치 가</w>
필 수
ol ing</w>
물 로</w>
수 정</w>
문 서</w>
c at</w>
남 아</w>
의미 합니다</w>
d or
편 의</w>
전 시</w>
나 게</w>
Med ic
독특 한</w>
캠 페
ri er</w>
엔 터
Ber lin</w>
p il
win ter</w>
으 므로</w>
De f
minist ration</w>
suff ering</w>
sur r
Op en
ap ps</w>
cour t</w>
체 가</w>
D A
L en
Willi am</w>
K W</w>
물 건
안 마</w>
개 월
N ever</w>
An al</w>
전 환</w>
og raph
w ri
el ements</w>
tw ice</w>
Spe ed</w>
안드로 이드</w>
부 탁
카메 라
가 이
on ed</w>
an cient</w>
조 합
i tion</w>
Ca fe</w>
Wor k
객실 에는</w>
Al uminum</w>
어 두
오 고</w>
I L</w>
j i
세계 를</w>
싱가 포르</w>
었 던</w>
g al
할 까요</w>
먹 는</w>
Gol f</w>
chall enge</w>
C all</w>
남 은</w>
토 론
년 까지</w>
di ence</w>
p ite</w>
As k</w>
Re port</w>
d ry</w>
wat ching</w>
열 심히</w>
그 랬
소 리
as king</w>
들 면</w>
R ou
Ph il
자전 거</w>
오 전</w>
이용 할</w>
베 이</w>
ess ential</w>
Thom as</w>
시 를</w>
금 발</w>
밖 으로</w>
R ock</w>
N atural</w>
D im
로 다</w>
보 험
tar get</w>
분야 에서</w>
상 호</w>
L L</w>
첫 번째</w>
w est</w>
D ani
a tic</w>
sup ports</w>
li fe
comp onents</w>
ard ens</w>
코 스</w>
때 때로</w>
E C
um n</w>
inst allation</w>
B ut
분 위
wi reless</w>
charac ter
dec is
올 해</w>
우리 와</w>
대 기</w>
th ir
at re</w>
그리 스</w>
페 티
니 까요</w>
O x
T om</w>
나 오는</w>
체 험
나이 든
fa ith
J ack
스포 츠
F al
exp ensive</w>
IF A</w>
도 움</w>
L uc
bro ken</w>
Z illa</w>
any where</w>
리 스트</w>
Mo dern</w>
ca used</w>
로 열
E A</w>
B I</w>
T ell</w>
올 해
inst ance</w>
no tice</w>
U kra
비 가</w>
manufac turer</w>
정 은</w>
independ ent</w>
기 구</w>
남 성</w>
Ex change</w>
학 습
un ette</w>
re ported</w>
s atellite</w>
men tioned</w>
ex ternal</w>
완 성
봉 사
잖 아요</w>
p sych
질문 에</w>
He ad</w>
em ic</w>
mag ic</w>
알 아</w>
스테 이
P T</w>
is land</w>
특 징</w>
W oo
de posit</w>
su e</w>
ock ings</w>
아이 들이</w>
d ney</w>
화 이트</w>
Prof essional</w>
sol ar</w>
강 조
h es
for ces</w>
Micro electronics</w>
pi eces</w>
보 았다</w>
in ts</w>
탄 소</w>
m ass</w>
트 와</w>
가운 데
k is
못 하고</w>
제 리</w>
auth ority</w>
질문 을</w>
er ce</w>
oun ding</w>
화 학
ann els</w>
Val ley</w>
reve aled</w>
En d</w>
상 관
por n</w>
boo king</w>
일부 는</w>
알려 져</w>
거 에요</w>
spo ke</w>
사용 자는</w>
O w
협 력</w>
모르 겠
사용 하면</w>
메 뉴
V e
el ed</w>
recomm ended</w>
ici ous</w>
했 죠</w>
J P
부 가</w>
Ori g
리 스
대통 령</w>
sch ools</w>
다 윗
유 사
당신 과</w>
무 역</w>
질 을</w>
Tem ple</w>
ex isting</w>
된 다는</w>
f resh</w>
arri ved</w>
jec tion</w>
공 동</w>
n uclear</w>
B R
p ly</w>
dang erous</w>
모 든
S K</w>
상 적인</w>
생각 해</w>
ar ms</w>
dis covered</w>
ap ers</w>
로 가</w>
S ale</w>
ch osen</w>
col labor
ub ber</w>
Ad dress</w>
참 고
베이 스</w>
A ward</w>
stu ff</w>
J i
구 하는</w>
re ports</w>
set tings</w>
prou d</w>
bab e</w>
g am
e k
chem ical</w>
ord inary</w>
어디 에</w>
viol ence</w>
가 면</w>
나이든 여자</w>
드 와</w>
구 체
ist an</w>
X o
ustri es</w>
s port</w>
우 고</w>
중 단
sub scri
dra w</w>
C ould</w>
exp ec
Y ah
중국 의</w>
Res idence</w>
양 의</w>
일 과</w>
자 체</w>
f ab
보 이지</w>
neigh b
깊 이</w>
형 제</w>
기 름</w>
B attery</w>
성 장</w>
and ro
qu ali
부 엌</w>
투 어</w>
sp a
blow job</w>
t y
F ab
생 명</w>
공간 을</w>
인 하여</w>
S and
sol ve</w>
피 곤
고 대</w>
p ick</w>
노 래</w>
b ing</w>
사람 과</w>
말 이죠</w>
u el</w>
TE R</w>
말 에</w>
ph ones</w>
롤 러</w>
Pow er
C ab
U sing</w>
A ra
각각 의</w>
레스토 랑
IB M</w>
doc ument</w>
레스토 랑</w>
통 제</w>
mast urb
이름 이</w>
st able</w>
생 명을</w>
heav y</w>
j u
라 스
L am
becom ing</w>
결 정</w>
거 기</w>
show ed</w>
로 그</w>
지원 을</w>
SC P</w>
인 에</w>
extrem ely</w>
배 울</w>
qu e
세계 에</w>
거 든</w>
믿 을</w>
m el
생각 이</w>
실 의</w>
잊 지</w>
프로 그래
Xo Zilla</w>
os ed</w>
c utting</w>
destro y</w>
보 너
보 게</w>
정 으로</w>
li t</w>
Au to</w>
cele br
d ark
제공 할</w>
혜택 을</w>
ow ner</w>
ut ri
St ory</w>
이 기도</w>
ail and</w>
w ire</w>
방 송</w>
doc uments</w>
in ate</w>
국 내</w>
모 릅니다</w>
ST Microelectronics</w>
c os
real ize</w>
ur o</w>
hur t</w>
fortun ately</w>
해 변
go vern
교 통
ur rec
wor se</w>
세상 의</w>
업 무</w>
dem on
hous es</w>
foo tball</w>
Br it
엔 진
트 랜
main tain</w>
아 프
John son</w>
감 사</w>
소프트웨 어를</w>
a b</w>
den ly</w>
남 자
프 트</w>
오 지</w>
plan ning</w>
Cl ass</w>
구 현
Th rough</w>
h an</w>
제 도</w>
전 지</w>
력 은</w>
수 수
mo on</w>
promis ed</w>
했 다는</w>
gr ace</w>
화 가</w>
se l</w>
W as</w>
mat ch</w>
대 체
만들어 진</w>
니 아
름 을</w>
믿 지</w>
an ch</w>
크 의</w>
중 요</w>
시 의</w>
tre es</w>
S wit
제 출
Wor d
ap o
ear ance</w>
증 을</w>
lar s</w>
복잡 한</w>
em ies</w>
u d</w>
prin ting</w>
패 널</w>
M ature</w>
흥미 로운</w>
이 니</w>
Viet nam</w>
시작 할</w>
vers ation</w>
때 로는</w>
Mon ey</w>
학생 들은</w>
tra ffic</w>
do ors</w>
vic ti
히 는</w>
t ask</w>
ear by</w>
uck y</w>
econom y</w>
지역 에서</w>
신 청</w>
사 고
스테 로
R am
p on</w>
못 했다</w>
비 율
플레이 어</w>
친구 가</w>
Mon day</w>
Th ings</w>
li f
jud ge</w>
B an
고 있다</w>
L D</w>
ev ening</w>
달 라
장난 감</w>
n is</w>
하 심
Lim ited</w>
u ation</w>
유 한</w>
합 금</w>
고 있는</w>
바 뀌
살 아</w>
피 스</w>
참 으로</w>
sk i</w>
끝 나
Roy alty</w>
Cli ps</w>
cap ital</w>
L ust</w>
coo per
he ating</w>
객실 을</w>
욕 실</w>
실 리
Ap pro
야 만</w>
W ire</w>
mess ages</w>
Mid dle</w>
de fault</w>
br ings</w>
전 부</w>
체 인</w>
Mo on</w>
up s</w>
취 급
pro to
htt ps</w>
서 가</w>
의 료
플랫 폼</w>
any more</w>
ri a</w>
ap s</w>
Ch oose</w>
대 해서는</w>
sh aring</w>
sp ot</w>
랐 다</w>
이유 가</w>
런 던
Vide os</w>
c aught</w>
influ ence</w>
cor rup
F as
수 로</w>
말하 기를</w>
원 칙
m ent
Priv ate</w>
stra ight</w>
r ul
defin ed</w>
Fr ank
피 해
on e
복 음</w>
페이 스
답 변
priv acy</w>
골 프</w>
mil lions</w>
E S
s am
cu it</w>
신 이</w>
값 을</w>
off ici
손 상
No thing</w>
al and</w>
sol o</w>
cl ud
가 득
oper ations</w>
캐나 다
외 에</w>
am in</w>
meas ure</w>
comp ared</w>
시설 은</w>
st a</w>
국 에</w>
방 을</w>
주 문을</w>
블로 그</w>
오늘 날
정 치</w>
도움 이
부 활
S ER
이 해</w>
로열 티</w>
니 가</w>
Mat the
중 인</w>
달 리</w>
hand le</w>
요 금
sit ting</w>
Protec tion</w>
식 의</w>
g od</w>
공 연
조 심
즐 겨
t ally</w>
퍼 센
Custom er</w>
pro gress</w>
s i</w>
G a
Fi ve</w>
H ard
Sy dney</w>
per haps</w>
che ap</w>
effor ts</w>
destro yed</w>
up dated</w>
Mar k
행동 을</w>
이 슬
port ation</w>
pre pare</w>
won der</w>
p ha
deli vered</w>
리 뷰
ad ults</w>
au dio</w>
An n
정 기
tre at</w>
도시 의</w>
F IFA</w>
그 라
정 신</w>
E C</w>
밝혔 다</w>
Olymp ic</w>
St op</w>
K B</w>
하 늘</w>
r on</w>
charac ters</w>
수 신
we h</w>
아일 랜드</w>
앤 젤
mul ti</w>
프 는</w>
C D
하 십니까</w>
Am ateur</w>
gi veness</w>
인 접
것 들이</w>
프 로</w>
centr e</w>
ra ised</w>
ri ble</w>
ak ed</w>
st op
D H
왕 이</w>
노 르
pers ons</w>
시 즌
바 탕
develop ing</w>
Sam sung</w>
꿈 을</w>
Di ff
eter nal</w>
th ly</w>
구 멍</w>
st atement</w>
Moun tain</w>
st ers</w>
B us
sp read</w>
누구 도</w>
m es</w>
Yah weh</w>
건 축</w>
accep ted</w>
호스 텔
테이 블</w>
c ool</w>
cloth es</w>
보 입니다</w>
선 수</w>
변 환</w>
않 게</w>
ir on</w>
pro file</w>
Un der</w>
기 까지</w>
아 빠
A do
클 럽
할 지</w>
제 로</w>
De ath</w>
참 석
유형 의</w>
F iches</w>
er al</w>
lar ger</w>
Pers onal</w>
아버 지의</w>
웠 다</w>
Th ailand</w>
S n
en emy</w>
Z h
J ack</w>
정보 가</w>
M ur
ch i</w>
간 호
man kind</w>
t our</w>
목표 를</w>
무 서
확 장</w>
리 게</w>
u de</w>
fail ed</w>
개 최
티 지</w>
Bou tique</w>
공 개</w>
Ch ro
고 등
내 일</w>
동 료
aster n</w>
효과 적인</w>
ut ch</w>
e w
c ustom</w>
준비 가</w>
대 응
귀여 운</w>
스위 스</w>
그리 하여</w>
elec tion</w>
저 에게</w>
ci ple</w>
갖춰 진</w>
유 연
ke eping</w>
잘 못</w>
ham ster</w>
atter n</w>
E dition</w>
오 사
v il
본 다</w>
대 략</w>
Th ink</w>
캐 릭
기다 리고</w>
Comm unic
Pr ince</w>
기 존</w>
Bl ack
정확 히</w>
ay ed</w>
법 률</w>
아 몬
TE D</w>
T E</w>
serv ing</w>
요 리</w>
받 게</w>
클 라이언
qu id</w>
Saf ety</w>
Pow der</w>
답 니다</w>
w ouldn</w>
pro ve</w>
리 그</w>
왕 국</w>
도 매</w>
브 러
believ ers</w>
K now</w>
아이 들은</w>
An dre
우 크라이
배 치
dro p</w>
결과 는</w>
cul tural</w>
t ren
어 링</w>
Fl or
헤어드라이 기</w>
Rom an</w>
싫 어
밝 은</w>
h d</w>
Bab y</w>
타 운</w>
리 어</w>
부 모</w>
Acad emy</w>
l ity</w>
분 은</w>
tr ouble</w>
사용 을</w>
제 의</w>
su st
mil k</w>
사용 하지</w>
하 지
tu b</w>
sig nal</w>
St ay</w>
금 액
이 웃
너희 의</w>
te sti
S ide</w>
dra u
예약 하세요</w>
되 거나</w>
Play er</w>
미래 를</w>
bo at</w>
Happ y</w>
시키 기</w>
ep s</w>
z er
st ress</w>
트 레
물 과</w>
튜 브</w>
l friend</w>
ran ty</w>
이 라도</w>
Bar cel
pol ic
크 레
com par
speci ally</w>
캘리포 니아</w>
Or der</w>
시스템 의</w>
하 기도</w>
단 단
G O</w>
tu ally</w>
In te
go als</w>
냉장 고</w>
r y
bb w</w>
wa ste</w>
ame work</w>
t at
se y</w>
선 언
에서 만</w>
tur ning</w>
좋 아</w>
디자 이
Ret ur
situ ated</w>
k top</w>
regi stered</w>
이 여</w>
기 고</w>
el ings</w>
bre ad</w>
웹 캠</w>
s wear</w>
트 레이
im possible</w>
uni versity</w>
vis ible</w>
Hos tels</w>
S ay</w>
beg ins</w>
결 정을</w>
ad o</w>
요 청</w>
코 드를</w>
actu al</w>
intern al</w>
크리 스
pro te
as p
입 은</w>
ti s</w>
스 로</w>
n av
in der</w>
resp ond</w>
ri de</w>
off ic
vis itors</w>
Li ber
서비스 에</w>
잠 시</w>
워 크
시 계</w>
ag ram</w>
b attle</w>
행 하는</w>
Br and</w>
하나님 과</w>
수 상
보 장</w>
t ol
Loc ation</w>
D ar
drau lic</w>
un c
Ado be</w>
법 률
ide al</w>
재 생</w>
o v</w>
it age</w>
ab led</w>
마 라</w>
Oc ean</w>
E asy</w>
jus tice</w>
staur ants</w>
프리 미
li ft</w>
수 록</w>
Dr Tuber</w>
comm itted</w>
생 존
agre ement</w>
리 기</w>
페이 지를</w>
Adv anced</w>
mon y</w>
메 뉴</w>
cla im</w>
thou se</w>
가난 한</w>
cont ro
Hist or
드 릴</w>
Ar my</w>
시스템 에</w>
잃 어버
reli able</w>
fe tish</w>
높 이</w>
t s
감 염
imag ine</w>
소 유</w>
exis tence</w>
Matthe w</w>
C u
것이 었다</w>
털 이</w>
페티 쉬</w>
B M
지 면</w>
Th ird</w>
더 불어</w>
Pro gr
co l</w>
학 자</w>
크 림
돌아 가
챔 피
sho es</w>
대 형</w>
약 한</w>
re h
이름 으로</w>
레 지
믿 고</w>
bo dies</w>
환경 을</w>
그럼 에도</w>
체 는</w>
c ement</w>
곳 으로</w>
le aving</w>
알 려</w>
쓰 는</w>
주 가</w>
L as</w>
f uck</w>
v el
근 거
T ro
su its</w>
베 를
읽 고</w>
검 사
Out door</w>
병 원</w>
레 드</w>
tic ket</w>
T L</w>
말 한</w>
주 어
진 리를</w>
참 고</w>
solu tely</w>
하 기에</w>
mis sing</w>
supp liers</w>
자 면</w>
n ine</w>
않 도록</w>
세계 적으로</w>
auth or</w>
새 로</w>
ac qu
호 르
dec ide</w>
수 집</w>
아무 런</w>
세상 에서</w>
자 본
C off
생각 하고</w>
low ing</w>
uc ks</w>
주 었다</w>
fi elds</w>
m as
photo graph
A ri
th day</w>
u an</w>
관 찰
gu ess</w>
사 례
Rec o
M un
comp ati
ven ant</w>
fi x</w>
O R</w>
i i</w>
ma x</w>
am ond</w>
n on
M ount</w>
Li brary</w>
엄 격
fri ger
미 터
Par ts</w>
W ant</w>
Ar ound</w>
국 제공
F M</w>
l ying</w>
In stead</w>
sal vation</w>
dre ams</w>
B il
minim um</w>
j u</w>
m ale</w>
CA D</w>
Heav en</w>
국가 의</w>
부분 을</w>
d inner</w>
ow ned</w>
떨어 진</w>
bl ed</w>
가 상</w>
ec tive</w>
ris is</w>
busin esses</w>
목 적으로</w>
집 단</w>
동 일
b an</w>
c in
오늘 의</w>
Sem iconduc
O D</w>
Sh opping</w>
조 각</w>
f ounded</w>
op ening</w>
의 존
essi on
mi ghty</w>
Qu ick</w>
더 블
ite m</w>
연 락</w>
K S</w>
R y
오늘 은</w>
u g</w>
olu tions</w>
M Hz</w>
시 켜
M ay
없 으며</w>
프로젝 트를</w>
단 의</w>
organ izations</w>
si tion</w>
mp t
Braz il</w>
경 기</w>
의 학</w>
lin ks</w>
on able</w>
제 목
mem ber
T ar
시작 했습니다</w>
ti an</w>
N ature</w>
wit ness</w>
relation ships</w>
않 으며</w>
허 락
Min i</w>
inte gr
lay er</w>
조 명</w>
Enter prise</w>
f le
em e</w>
ev al
sc en
en emies</w>
prac tic
ch annels</w>
in put</w>
게 요</w>
업데이 트
쓰 기</w>
spec ies</w>
RF ID</w>
아이 가</w>
s ession</w>
si tive</w>
protec ted</w>
Win ter</w>
발 을</w>
불 러
않 지만</w>
지 식을</w>
곳 이</w>
id ity</w>
lo g</w>
겠 죠</w>
교 환
앉 아</w>
보고 서</w>
대부분 은</w>
이 러</w>
호텔 을</w>
방 지
몸 을</w>
네 게</w>
am p
Os aka</w>
en able</w>
관리 자</w>
V E</w>
자동 으로</w>
같 은
contin ues</w>
sp ok
불 행
x i
근 육</w>
배 송</w>
D B</w>
단 백
절 대
Dub ai</w>
L aser</w>
IC O</w>
cre ative</w>
fil ter</w>
그 럴</w>
아래 에</w>
불 가
모 형</w>
니 다
C os
예 술</w>
서비 스는</w>
k ok</w>
Hear t</w>
Par adise</w>
스 탠
방 수</w>
간 주
l ay</w>
서 울</w>
di men
happ ening</w>
는 데요</w>
p re</w>
바 로
보다 도</w>
Sol ar</w>
년 에는</w>
eas es</w>
ac tiv
책임 을</w>
처 를</w>
관 에</w>
메 일</w>
P ass
ur ies</w>
U T</w>
십 자
아침 에</w>
E UR</w>
b i</w>
conveni ent</w>
일 하는</w>
S lo
fr ame</w>
ta il</w>
시 카
대 상</w>
me an
자 녀</w>
b ought</w>
느 낄</w>
카 드를</w>
대 리
하 우
dis count</w>
Tr ue</w>
자 들과</w>
든 다</w>
er o
ic ity</w>
ke y
o ts</w>
wid ely</w>
디스 플레이</w>
솔루 션을</w>
F lix</w>
솔 직
un its</w>
Sel f</w>
man ager</w>
남 편</w>
N ag
인기 있는</w>
ri ver</w>
comp reh
게 다가</w>
par ties</w>
con tr
카지 노
ul ty</w>
부동 산</w>
Reco very</w>
월 드
뉴 질
a sts</w>
c ash</w>
qu o
포 인트</w>
리 스트
선 거
scienti sts</w>
accur ate</w>
똑 같은</w>
answ ers</w>
나 온</w>
gh tly</w>
Wal k</w>
Ma j
여기 에서</w>
얼 굴</w>
사랑 의</w>
지 어
Per form
메시 지</w>
F S</w>
고 품질</w>
고 마
어 제</w>
ell ed</w>
C C
competi tion</w>
Gl ass</w>
Mo d
Ze aland</w>
Lu xury</w>
색 깔
운 전</w>
Barcel ona</w>
Pop ular</w>
제 임스</w>
con versation</w>
지 난
옆 에</w>
핵 심
끊 임
to ys</w>
상당 히</w>
집 으로</w>
갤러 리</w>
z en</w>
iP ad</w>
약 간의</w>
C ore</w>
scienti fic</w>
일 러
신 경
기 에서</w>
밝 혀
너 와</w>
man ner</w>
계속 해서</w>
L and</w>
b ass
도 덕
hel ping</w>
U E
상황 을</w>
카 르
il er</w>
p ure</w>
손 실</w>
S et
ob jects</w>
fe elings</w>
훈 련</w>
피 부</w>
수영 장</w>
가격 이</w>
Ar ti
no on</w>
Hil ton</w>
e o</w>
포 도
decis ions</w>
격 을</w>
빨 간
st y
Is lands</w>
전 략</w>
덕 분에</w>
Pro per
Experi ence</w>
K ids</w>
지원 합니다</w>
적 이
Comp uter</w>
시 드
방 지</w>
pun ishment</w>
therap y</w>
Pr inc
목표 는</w>
aff ect</w>
둘 째</w>
paren t</w>
방 해
cho ices</w>
Fin ally</w>
E s
Bo dy</w>
F F</w>
fa il</w>
sc ape</w>
사업 을</w>
w illing</w>
us ual</w>
예수 께서</w>
쳤 다</w>
리 눅
되 도록</w>
C oo
b y
ev entually</w>
경 고
z e
스 턴
cons ul
포 인
Y ears</w>
n ar
것 일까</w>
car ried</w>
큰 엉덩이</w>
땅 을</w>
rela tions</w>
cle aning</w>
C T
상 징
손님 께서는</w>
뜻 을</w>
For ce</w>
미 래</w>
re lev
c ute</w>
시 기</w>
다이 아몬
oc ra
Sh en
ga ther
l ack</w>
전 반
클라우 드</w>
E mer
도 울</w>
모두 를</w>
학 습</w>
ateg ories</w>
T ry</w>
st ockings</w>
con tract</w>
Manufactur ers</w>
모 양</w>
이 제
지속 적으로</w>
k w</w>
adv ance</w>
cons is
합 리
ar my</w>
애니 메이
조 차</w>
us ted</w>
Mos cow</w>
cl asses</w>
블 루</w>
suff ici
con flic
Ex ten
gu est
이 것</w>
각 종</w>
fail ure</w>
정부 가</w>
mpt oms</w>
accom pl
ri but
다 리
Cas a</w>
F ar
되었 을</w>
am pie</w>
개 는</w>
r d</w>
b es
pre par
Bu y</w>
업 그레이
Jav a</w>
At l
C zech</w>
스웨 덴</w>
fe ed</w>
mo tion</w>
현대 적인</w>
b ration</w>
시작 합니다</w>
다 운</w>
안 녕
상 에서</w>
clus ive</w>
번 의</w>
r or
Dani el</w>
무엇 인지</w>
이 민
Vic tor
호텔 의</w>
bour ne</w>
크 는</w>
P ages</w>
모 스크
B ath
직 접
Con tro
증 가</w>
방 식을</w>
저 녁
Sor ry</w>
gh ters</w>
군 의</w>
lic ense</w>
F lower</w>
적합 한</w>
righte ous</w>
me at</w>
remo ved</w>
우 울
비 해</w>
V ac
v an
기 억</w>
상 표</w>
mo tor</w>
인간 은</w>
know ing</w>
gg er</w>
sel ling</w>
필요 하다</w>
임 신
fin ish</w>
C M
번째 로</w>
오 프
제품 에</w>
Satur day</w>
exper ts</w>
Tr an
봅 시다</w>
하 니라</w>
A ge</w>
introduc ed</w>
계 정</w>
fe els</w>
돌 아</w>
D at
ad ly</w>
날 이</w>
생각 하지</w>
해 결</w>
관 이</w>
Elec tronic</w>
방 에</w>
베 스트</w>
Cast le</w>
등 급</w>
장 치를</w>
Anal y
트 럭</w>
c k
공 공</w>
도구 를</w>
In deed</w>
슈 퍼
셀 로
일 주
li ber
n earby</w>
추 적
te ams</w>
in ations</w>
Com mission</w>
주 었
포르 투
dru gs</w>
위험 을</w>
ir a</w>
B ill</w>
pass word</w>
seem ed</w>
재 료</w>
st re
plan e</w>
B D</w>
씨 는</w>
Gre ece</w>
ma thema
권 리를</w>
숨 겨
ish es</w>
p et</w>
커 플</w>
and y</w>
I te
it oring</w>
G E
Mar tin</w>
G ro
do gs</w>
Ara b</w>
Stor age</w>
You Porn</w>
향 해</w>
B rown</w>
LT D</w>
받 습니다</w>
Ter ms</w>
A ff
ac tion
S po
Ag ain</w>
se at</w>
wor st</w>
재 산
기술 은</w>
재 판
전 의</w>
모르 는</w>
sac rif
Res pon
in ery</w>
기 여
자 리에</w>
he ight</w>
대 화</w>
미래 의</w>
정 도로</w>
요 금</w>
Word Press</w>
car bon</w>
Pl an</w>
말 이다</w>
L G</w>
브라 질</w>
말 입니다</w>
tel ls</w>
축 하
F P</w>
궁 극
v olume</w>
목 적</w>
Tru th</w>
기원 전</w>
ax y</w>
다 는
min i</w>
행복 한</w>
w a</w>
et ings</w>
recor ds</w>
상 기</w>
블 록</w>
t os
C are</w>
디 렉
gi a</w>
An ti</w>
다 행
L ink</w>
or ation</w>
ro ck</w>
귀하 가</w>
Ric hard</w>
얻 는</w>
ph ase</w>
오 브</w>
S li
소 가</w>
Engine ering</w>
bot tom</w>
I F</w>
d able</w>
pos si
전 세계</w>
jec ted</w>
ter ed</w>
nit ure</w>
ac ter
왕 의</w>
Bang kok</w>
x e</w>
이용 하실</w>
Emp ire</w>
auth or
r s</w>
못 한다</w>
Olymp ics</w>
ti red</w>
weap ons</w>
bl es</w>
오르 가
i p
검 토
국 립</w>
상 세
c alling</w>
팩 스</w>
Ne ed</w>
Veg as</w>
un t</w>
할머 니</w>
채 택
적 이다</w>
당 사
sel y</w>
완 료</w>
사랑 은</w>
me ant</w>
출 시</w>
ic ks</w>
r an</w>
고 속
제 사
일 이다</w>
ta tions</w>
la sting</w>
Hos pital</w>
w oo
A G</w>
안전 하게</w>
Chil d</w>
멈 추
fer ences</w>
qui et</w>
그 랜드</w>
책 임</w>
프란 시스
차 원</w>
일 부터</w>
손 가
moun tains</w>
tell ing</w>
아 가
현재 의</w>
et ries</w>
언 젠
guest rooms</w>
사이트 에</w>
li brary</w>
라이 트</w>
나라 의</w>
dol lars</w>
D re
보 험</w>
아름 답
Elec tronics</w>
타 임</w>
on ia</w>
Coff ee</w>
dark ness</w>
드 릴
mat ters</w>
sear ches</w>
시 킵니다</w>
자 인</w>
ex press</w>
ten ts</w>
손 으로</w>
serv ants</w>
잡 고</w>
val id</w>
Mo tel</w>
fi ghting</w>
ra dio</w>
gu est</w>
고객 에게</w>
일 입니다</w>
pow der</w>
버 트</w>
hel p
Tai wan</w>
이 거</w>
미 니</w>
o z</w>
내 지</w>
engine ering</w>
te ful</w>
물 질</w>
월 드</w>
에 겐</w>
대 량</w>
Jour nal</w>
중심 에</w>
Sh er
sex ual</w>
P ool</w>
게임 은</w>
Li ving</w>
o b</w>
b et</w>
해 석
Sh are</w>
지속 적인</w>
부르 크</w>
sol di
Loc al</w>
v it
ed y</w>
지 라</w>
Phili pp
Collec tion</w>
음악 을</w>
for giveness</w>
perform ed</w>
게 이</w>
발 표</w>
탱 크</w>
바르 셀로
촬 영
c up</w>
이르 시
tri al</w>
environ mental</w>
버튼 을</w>
w indows</w>
ho p</w>
엘리 베이
as c
신뢰 할</w>
소 의</w>
법 은</w>
욕 조</w>
Un it</w>
ac t
것이 라는</w>
gu il
구 역</w>
봉 사</w>
Loc ated</w>
di ble</w>
teach ers</w>
겨 울
스마 트
법 에</w>
deter mine</w>
Sk y
란 다</w>
end ar</w>
re land</w>
포르 노</w>
og a</w>
apo st
p ack</w>
재 료
포함 합니다</w>
라 틴</w>
tes ted</w>
K R
세 부
shi pping</w>
팬 티</w>
masturb ation</w>
guaran tee</w>
인 디
검색 하여</w>
영 역</w>
ir ing</w>
정 책을</w>
Lev el</w>
bre ak
뮬 레이
en try</w>
선생 님</w>
vi et</w>
p us</w>
간 격</w>
주 께서</w>
체 코</w>
오 리
br unette</w>
T able</w>
man aged</w>
문 은</w>
ten ed</w>
bus y</w>
N ap
최근 에</w>
on ent</w>
Fe atures</w>
elec tronic</w>
안 의</w>
윌 리
세 금</w>
K O
한 가</w>
Sm ith</w>
ess ories</w>
func tion
아이 를</w>
fas hion</w>
L ic
comput ers</w>
pleas ure</w>
Pol i
cha ir</w>
b om
얼 마</w>
피 아
Ind ones
ph ilosoph
x hamster</w>
수 음</w>
함 과</w>
력 의</w>
버 리
순 종
따 른</w>
소 리가</w>
Ph ar
알아 야</w>
C ross</w>
fir m</w>
선 호
계 약</w>
b un
et ooth</w>
peri or</w>
su ite</w>
위치 에</w>
상 담
so le</w>
cri tical</w>
ang els</w>
영국 의</w>
sc ene</w>
숨 을</w>
T R</w>
Flo or</w>
determin ed</w>
s ongs</w>
A li
J am
블 랙
f ell</w>
innov ation</w>
반 대로</w>
dedic ated</w>
al though</w>
Cl in
Hen ry</w>
Wi ki
Cul ture</w>
on d
te en
Aut omatic</w>
D am
fe der
출 발
s low</w>
제 에</w>
l aser</w>
Av ailable</w>
pri or</w>
s ick</w>
디스 크</w>
speci fied</w>
음 료</w>
하 십니다</w>
proc esses</w>
고 정
세 를</w>
정부 의</w>
웨 이
mig ration</w>
차 단
텍 스트</w>
ten d</w>
lim entary</w>
olu tionary</w>
inter racial</w>
얼굴 을</w>
cl assic</w>
세 의</w>
분 노
그 들과</w>
for ced</w>
sid es</w>
개인 적인</w>
다음 에</w>
St yle</w>
H Z</w>
관 심</w>
상 황</w>
tain er</w>
기 지</w>
블 루
m ally</w>
plac ement</w>
보여 줍니다</w>
Cam era</w>
is s
Fl ash</w>
예수님 은</w>
fuc king</w>
k r</w>
sw imming</w>
마이 크로
기 쁘
연구 에</w>
사용 하기</w>
R ail
Tem perature</w>
fl esh</w>
re pair</w>
ir y</w>
속 의</w>
역 사를</w>
가 있는</w>
주차 장</w>
건 물
Sil ver</w>
T ech</w>
al es</w>
주 차</w>
dr inking</w>
즐 거운</w>
ac ting</w>
출 을</w>
오 픈</w>
Per haps</w>
스 프
compil ation</w>
식 사를</w>
천 사
럭 셔
y ment</w>
v ey
H air</w>
무 게
hair y</w>
pris on</w>
주 인
z one</w>
벌 어
모 션</w>
유용 한</w>
Ra dio</w>
org asm</w>
th i
신 가요</w>
it ness</w>
로 봇
ver sions</w>
U I</w>
om i</w>
spec tive</w>
an ch
밀 도</w>
tre me</w>
swe et</w>
qu anti
필 터</w>
t ags</w>
받아 서</w>
복 음
hear ing</w>
비 타
tt a</w>
너무 나</w>
e u
hard ware</w>
k u</w>
Any Sex</w>
fic ally</w>
효 과</w>
오 신</w>
롭 고</w>
아니 고</w>
제 작</w>
k ind
fun ny</w>
acc ord
go ds</w>
동 영
스트레 일
Ta g</w>
ca uses</w>
pra ise</w>
양 을</w>
최 선을</w>
view ed</w>
stop ped</w>
오 스트레일
r ating</w>
아 라
eng ers</w>
C lose</w>
No tice</w>
f an</w>
없 지만</w>
Bo t
필 수</w>
challeng es</w>
라 디오</w>
마 을</w>
app earance</w>
가 시
없 다면</w>
스 캐
H as</w>
ure ment</w>
per man
보 낼</w>
Ar ticle</w>
K y
set t
Cana dian</w>
So viet</w>
F uture</w>
들 으
G E</w>
As sem
d il
자 입니다</w>
il ed</w>
clo ser</w>
반 면</w>
T NT</w>
아 빠</w>
프로 토
To ols</w>
아메리 카</w>
바 지</w>
vol tage</w>
cas ino</w>
관련 하여</w>
cam paign</w>
occ ur</w>
데 스크
영 화를</w>
Direc tor</w>
부분 은</w>
u um</w>
한 편</w>
emp ty</w>
그러 니</w>
파트 너</w>
J us
Revi ews</w>
일 러</w>
S TE
ra ise</w>
고객 을</w>
스 팅</w>
EN T</w>
di agno
An ti
평 화</w>
회 원</w>
존 중
pro per</w>
o ids</w>
E st
Vol tage</w>
buil dings</w>
키 스
Se ason</w>
ex ci
Stud ent</w>
c lock</w>
vehic les</w>
b ird</w>
maj ority</w>
occ up
과정 에서</w>
cra zy</w>
트 위
yst al</w>
면 서도</w>
toil etries</w>
Tou ch</w>
medic ine</w>
P il
recogni ze</w>
import ance</w>
pri mary</w>
여성 의</w>
citiz ens</w>
c ry</w>
y oun
on er</w>
졸 업
nam ic</w>
모 듈
받 기</w>
택 시</w>
wat er
ocra tic</w>
zh en</w>
Cre ate</w>
고 민
스트 립</w>
읽 어
위 가</w>
Jo b</w>
Por no
B B
단순 한</w>
업 계
Stud ents</w>
f ans</w>
chi p</w>
wid th</w>
치 게</w>
Stra te
아 카
back ground</w>
똑 똑
쓰 고</w>
gir lfriend</w>
움 이</w>
G or
압 축
el ement</w>
comb ination</w>
the me</w>
bo ys</w>
C PU</w>
oc cas
os pel</w>
렀 다</w>
d ur</w>
im a</w>
W id
소 재
Des ig
Ex hibition</w>
am ed</w>
말씀 이</w>
ke ys</w>
En joy</w>
f are</w>
사이 에서</w>
출 처</w>
c row
I reland</w>
In di
L ed</w>
조 회
S N
et ary</w>
m p</w>
용 량</w>
마 리아
ma inten
정확 하게</w>
The atre</w>
we alth</w>
Cur rent</w>
어 찌
as su
철 학
de par
가 죽</w>
coun ts</w>
그러 니까</w>
Be ing</w>
가 공</w>
달 려</w>
오 스트
vir tual</w>
효과 를</w>
H i</w>
im m
b right</w>
이해 할</w>
스 케
Mel bourne</w>
것이 요</w>
she et</w>
기업 의</w>
체 에</w>
국 을</w>
gr y</w>
relev ant</w>
N ations</w>
언 어
Mar ia</w>
이 들의</w>
티 브</w>
않 아요</w>
Al ways</w>
gre at
serv ers</w>
악 의</w>
U P</w>
Cur ren
수 천</w>
comp res
선택 합니다</w>
상태 로</w>
conf idence</w>
승 리
타 임
res ol
거기 서</w>
every body</w>
남 성
남 아
f ant
P G</w>
Be auty</w>
k ings</w>
a f</w>
g ori
ho l</w>
접 촉
Plat form</w>
al ize</w>
조 지</w>
pregn ant</w>
로스 앤젤
sur prise</w>
Cap acity</w>
와이 파이</w>
al ists</w>
밀 한</w>
ques ted</w>
S till</w>
사 까
ar ily</w>
ch at</w>
댄 스</w>
serv ant</w>
속 한</w>
r yp
여 관</w>
Ex ecu
YO U</w>
ㅡ ㅡ
거룩 한</w>
지원 하는</w>
인간 이</w>
Fe at
에너 지를</w>
량 의</w>
세 인트</w>
U PS</w>
d am</w>
이 들을</w>
으 리라</w>
B all</w>
W OR
거 유</w>
직 경</w>
d ad</w>
o tive</w>
익 스
하여 금</w>
mainten ance</w>
ori ties</w>
성공 적으로</w>
spe ech</w>
놓 고</w>
F our
겼 다</w>
ag ged</w>
D R</w>
s witch</w>
LIN E</w>
무 역
방 식</w>
죽 을</w>
lis ted</w>
olo gi
RE E</w>
숙 소</w>
시간 의</w>
to tally</w>
Mul ti</w>
청소 년</w>
침 을</w>
en ly</w>
t ter</w>
B I
수 에</w>
실 현
행 사</w>
L y
당연 히</w>
프로그램 의</w>
fi er</w>
g in
con struc
em ade</w>
느 꼈
아 줌
었 어요</w>
sp on
부 끄
오 류</w>
일 곱</w>
Pres sure</w>
L ength</w>
개인 정보
B ased</w>
el im
Ev ent</w>
분 야</w>
성 취
Uni versal</w>
하 므로</w>
re min
화장 실</w>
리 오
의 무
per c
lo ving</w>
Exp lo
완벽 하게</w>
나 일
y esterday</w>
S ign</w>
Fin ancial</w>
기회 가</w>
w ake</w>
오른 쪽</w>
K u
Vis it</w>
이 있는</w>
Cath olic</w>
s ounds</w>
애 널</w>
시 청
bo w</w>
사용 될</w>
r ors</w>
보 증
fu el</w>
cri me</w>
언 론
sc an
urrec tion</w>
v an</w>
신 호</w>
주 택</w>
big ger</w>
미국 은</w>
나 가</w>
삶 에</w>
선 정
success fully</w>
제공 되는</w>
식 물</w>
dis cover</w>
g al</w>
예루살 렘
들 아</w>
ra structure</w>
Y o
B loc
학생 들이</w>
T ren
ic ian</w>
요 셉
끔 찍
콘텐 츠</w>
빈 티지</w>
C ustom</w>
하 의</w>
Elec tr
정 원</w>
sy mptoms</w>
cl ing</w>
m akers</w>
Gr an
아 웃
가 져</w>
기계 를</w>
ed ge</w>
소 식</w>
행 사
lap top</w>
p ump</w>
Tra ining</w>
E ther
circum stances</w>
hy dro
성 한</w>
객실 은</w>
달 라고</w>
로 스</w>
ve get
프 를</w>
p et
p attern</w>
모델 링
세 대</w>
B ook
K G</w>
f lower</w>
hos tels</w>
ist a</w>
가 슴
RA M</w>
b in
저 우</w>
g all
워싱 턴</w>
슈 퍼</w>
ain ing</w>
ab solutely</w>
ing u
창 의
Tal k</w>
박 사</w>
suff er</w>
action host</w>
번호 를</w>
A m</w>
란 제리</w>
lim it</w>
T am
cap able</w>
con tain</w>
이 중</w>
량 이</w>
st ream</w>
f itted</w>
bi o
치 가</w>
하 라고</w>
a str
표 를</w>
구 리</w>
주 었습니다</w>
sud denly</w>
목 표</w>
sa ving</w>
in come</w>
righte ousness</w>
descri bes</w>
tre ated</w>
histor ical</w>
국 에서</w>
fin ding</w>
r ying</w>
고 무</w>
해 보세요</w>
al a</w>
박 스</w>
con sequ
O DM</w>
성 과
O ff</w>
as ons</w>
리 얼</w>
어디 서
풍부 한</w>
St one</w>
dis k</w>
계 신</w>
해 외</w>
성공 적인</w>
일 찍</w>
M ain
이 걸</w>
T est
우 유</w>
concer ning</w>
가 야</w>
게 시</w>
h o</w>
accoun ts</w>
ad ult</w>
underst ood</w>
주 님</w>
분 류
B L
me al</w>
recogni zed</w>
싶 다면</w>
Con gress</w>
ret ary</w>
four th</w>
IC E</w>
결 론
sec u
P O</w>
R C</w>
NO T</w>
로그 인</w>
en ever</w>
믿 음을</w>
f ar
cat ch</w>
위 키
f ec
ag ers</w>
P LC</w>
이 로</w>
적용 됩니다</w>
Hell o</w>
fi ber</w>
가 라
on ate</w>
og ue</w>
guid ance</w>
문 이</w>
확인 할</w>
escap e</w>
el ation</w>
영 웅
l or
r ine</w>
re ward</w>
후 기</w>
저희 에게</w>
foo t
S us
ocr acy</w>
rev olution</w>
I o
resear chers</w>
굉장 히</w>
댓 글</w>
be l</w>
IS T</w>
f em
oc ks</w>
Comp le
be ings</w>
stri p</w>
ub by</w>
축 제</w>
국 이</w>
위험 한</w>
초 대
란 드
ang el</w>
근 본
Pol ice</w>
B attle</w>
냉 각</w>
유 전
ribu ted</w>
now ledge</w>
단 은</w>
수 업
휴대 용</w>
ick en</w>
P y
옵 소서</w>
integra ted</w>
사까 시</w>
C in
R ad
Guang zhou</w>
bath tub</w>
Re ally</w>
der ing</w>
포함 됩니다</w>
수 도
comm ents</w>
pres ented</w>
at ch</w>
얻 기</w>
In troduc
모두 는</w>
P et
수 하
H ope</w>
자유 롭게</w>
교 환</w>
데이 비
우 승
dec ades</w>
sm aller</w>
dep ends</w>
Hun g
jo ined</w>
prof it</w>
오 토
경 향
국제공 항</w>
Cha pter</w>
Ir on</w>
건 가요</w>
샌 프란시스
추 출
데 도</w>
fi xed</w>
아니 었다</w>
S mo
모 듈</w>
recor ded</w>
열 린</w>
광범 위한</w>
미래 에</w>
I ra
In nov
되 는
dis co
품질 의</w>
beli ef</w>
chi ef</w>
y cle</w>
g sm</w>
ex pression</w>
저 항</w>
유 로</w>
L P</w>
A B</w>
P T
te x</w>
att acks</w>
진 행</w>
every where</w>
C it
모 드</w>
a im
조 선
금 융
n ity</w>
ex ists</w>
력 에</w>
cl ass
H ard</w>
포 장
dist ribution</w>
res olution</w>
custom ized</w>
r is</w>
ric ul
is ation</w>
앞 서</w>
세 탁
ad dres
Je wish</w>
tem ple</w>
감 정
이미 지를</w>
하루 에</w>
ris es</w>
테 르
Pr ac
net works</w>
Up date</w>
g ay</w>
노 력을</w>
지 라도</w>
컬 러</w>
ob jec
trans lation</w>
vill age</w>
죽 음</w>
당 사의</w>
아파트 는</w>
취 소</w>
in her
Foo tball</w>
Stud y</w>
상 승
싶 으
로 드
mo dule</w>
s ity</w>
태 평
고 통</w>
주 식
ad vis
낸 다</w>
충 전
Fol low</w>
heav ens</w>
말 하지</w>
자 극
기본 적으로</w>
A wards</w>
교육 을</w>
건 조
vo te</w>
X box</w>
doc um
검 은</w>
조 절
Blu etooth</w>
gori th
거 라고</w>
어디 서</w>
P ap
fo x</w>
mar kets</w>
essi ons</w>
연구 를</w>
G am
spok en</w>
매 니
Bro ad
Au to
PE G</w>
it an</w>
ph en
오르가 즘</w>
M s</w>
다 리</w>
R un
경제 적</w>
I ON
Jac ob</w>
심 으로</w>
Sal es</w>
opin ion</w>
사실 은</w>
혁신 적인</w>
옥 외</w>
Rem o</w>
automa tic</w>
도 입
생각 할</w>
A tt
up dates</w>
그러 자</w>
업 무
e ing</w>
에서 부터</w>
어 쨌
영 어
C la
fol lows</w>
B en</w>
Rev olution</w>
P ST</w>
comp limentary</w>
복 사
corpor ate</w>
ac ad
아 담
외 에도</w>
신 은</w>
ev ol
차 별
Cr yp
show ing</w>
요 리
보유 하고</w>
커뮤니 티
mon itor</w>
al co
ser iously</w>
편 리
hom es</w>
f ying</w>
냉 각
제 발</w>
당 사는</w>
S wis
ate n</w>
경 찰</w>
cl in
빌 딩</w>
wh ere
S ucc
년 은</w>
id er</w>
y ellow</w>
polic ies</w>
Lu ke</w>
m entation</w>
M as
가 벼
uti li
prin ciples</w>
P sal
직 업</w>
li ghting</w>
앱 을</w>
기본 적인</w>
s is</w>
션 은</w>
N A</w>
액세 스
Shemale Tube</w>
lead s</w>
h ide</w>
베트 남</w>
들 었다</w>
위 해서
A ShemaleTube</w>
유 료</w>
특별 히</w>
해주 세요</w>
당 사</w>
목적 을</w>
U T
Mag ic</w>
연 주
hol ding</w>
K E
at mos
기 후</w>
누군 가가</w>
an th
R IG
말 해</w>
laun ched</w>
go ti
Fi ber</w>
그렇 지만</w>
고통 을</w>
제 안</w>
아버 지가</w>
le ment</w>
에 디
ar rang
연 습
겠 어요</w>
가 끔</w>
wor thy</w>
유 압</w>
도와 드립니다</w>
f ing
al og</w>
패키 지</w>
Sho p</w>
그래 픽</w>
advertis ing</w>
ud i</w>
en ses</w>
전 화를</w>
M X</w>
보 았습니다</w>
아 랍
innov ative</w>
Col um
특 가</w>
싶 어요</w>
Doc tor</w>
속 으로</w>
리눅 스</w>
Austral ian</w>
dish es</w>
M in</w>
I ll
dis ciples</w>
Sta dium</w>
선 물
마이 크로</w>
re place</w>
패 션</w>
앨 범
소 에</w>
Ac tion</w>
H ell</w>
il a</w>
prof ession
ph er
이스라엘 의</w>
o therwise</w>
D utch</w>
y ours</w>
n i</w>
존재 하지</w>
이 기
말 했
인도 네
dep ending</w>
이르시 되</w>
arri val</w>
HT TP</w>
zer land</w>
co venant</w>
ste in</w>
F DA</w>
gl asses</w>
지하 철
바탕 으로</w>
Con tent</w>
Lear ning</w>
sh emale</w>
부 품
ul ations</w>
tic a</w>
gre es</w>
ro ot</w>
men ted</w>
항 목</w>
Det ails</w>
d enti
회 에</w>
트 래
아버 지는</w>
repres ent
proper ly</w>
지 능
re store</w>
상황 에</w>
안 으로</w>
클 릭</w>
구 글</w>
잉 글
주 셨
web cam</w>
위치 해</w>
멤 버
low ly</w>
부 에서</w>
동 의</w>
프로그램 에</w>
개발 자</w>
Inv est
회사 가</w>
ri ding</w>
hol iday</w>
Vis ual</w>
com plic
om a</w>
Mi ami</w>
ch ester</w>
화 물</w>
th o
w icked</w>
thre esome</w>
t ank</w>
Cl assic</w>
ber ry</w>
FA Q</w>
와 인</w>
가격 을</w>
고양 이</w>
Lo dge</w>
lis tening</w>
help ful</w>
세 포</w>
re n</w>
킨 다</w>
킬로 미터</w>
준 수
마련 되어</w>
instruc tions</w>
아 라</w>
활성 화
수 없는</w>
F ast</w>
cour ses</w>
bl ind</w>
Flo rence</w>
ling erie</w>
시 면</w>
M D</w>
me ter</w>
단 에</w>
nor th</w>
석 은</w>
유 익
교 수
ti ps</w>
un g
dele ted</w>
증 거</w>
공 학</w>
p ate
자 비
fun dam
방 향</w>
챔피 언
V ari
경험 이</w>
그 날</w>
신 경</w>
hos tel</w>
언 어를</w>
remo te</w>
못 했습니다</w>
dr al</w>
서 서</w>
vis iting</w>
Swit zerland</w>
셔 틀</w>
sto res</w>
누군 가</w>
대 전</w>
Pos ted</w>
로 써</w>
생활 을</w>
s per
Whe ther</w>
const antly</w>
직 면
eni ties</w>
멘 트</w>
우 드</w>
bot tle</w>
st an
hol ds</w>
Shen zhen</w>
하 신다</w>
ro b
향 한</w>
k in</w>
않는 다면</w>
L IV
중국 에서</w>
fun d</w>
Manufac turer</w>
영 업
arti cles</w>
항 목
게임 의</w>
valu able</w>
통 치
Mil an</w>
Mus li
Bet ter</w>
er ies</w>
의 식
면 의</w>
a id</w>
Y ellow</w>
P as
dom in
re ference</w>
대 해서
이익 을</w>
스 위치</w>
표 면</w>
패 턴
불 가능
mor al</w>
Ph ys
war ning</w>
가 톨
욕실 이</w>
상태 를</w>
c ab
보 안
맞 은</w>
re fu
appro ved</w>
일어 난</w>
concer ned</w>
있 습
sur gery</w>
su per</w>
or i</w>
C ase</w>
빨 간</w>
en cies</w>
s outh</w>
N AS
en ni
중 간</w>
하 신
모델 을</w>
m ut
공 격</w>
st ands</w>
달러 를</w>
비 트
o ven</w>
SM D</w>
b ang</w>
om on</w>
보 존
divid ed</w>
por tion</w>
동 기</w>
었 을</w>
Ch annel</w>
L es
aff ected</w>
아이 들을</w>
비 교</w>
over all</w>
identi fy</w>
m ad</w>
P ass</w>
사 망</w>
feat uring</w>
s ad</w>
ail ability</w>
Tit le</w>
설 립</w>
L ady</w>
d a
d est</w>
thre at</w>
inter pre
s burg</w>
cre ampie</w>
C at</w>
Ex per
R ele
enjo yed</w>
덧 붙
에어 컨</w>
스타 일의</w>
함 에</w>
믿 음</w>
지 식</w>
D ream</w>
se as</w>
ci a</w>
Ap pl
Enter tainment</w>
at tri
th or
노 출
했 기</w>
sen s
am ic</w>
도 망
foc used</w>
In tel</w>
lo ading</w>
대 표</w>
inter view</w>
사 로</w>
n ings</w>
ash i</w>
cle an
care fully</w>
이 런
le aves</w>
읽 을</w>
않 기</w>
con ference</w>
적 응
벌 을</w>
갖 게</w>
dat os</w>
ur ches</w>
E M
나일 론</w>
Ho ja</w>
좋 다</w>
바이러 스</w>
fac tors</w>
조 정</w>
XX XX
Movi e</w>
비 밀</w>
스테로 이드</w>
e g</w>
H C</w>
L ost</w>
vir us</w>
Produc tion</w>
Diff er
레 벨
이었 고</w>
명 시
식 별
앨 범</w>
N ik
키 스</w>
toil et</w>
거 절
Fr ont</w>
iz es</w>
고 속</w>
땅 에서</w>
동 생
t ac
gra ph</w>
res erv
실 에</w>
d uty</w>
in ser
배 송
Orig inal</w>
생 성</w>
입 고</w>
원 격</w>
빠 르고</w>
al uminum</w>
care ful</w>
clud ed</w>
un less</w>
방법 입니다</w>
back up</w>
il e
Gre en
h as
스튜 디오</w>
추 적</w>
fam ili
마 의</w>
그 린</w>
내 리
불 평
S K
gra teful</w>
최 대한</w>
주 셔서</w>
터 키</w>
pre viously</w>
예약 하실</w>
ha bit
is ode</w>
못 합니다</w>
Mo re
Bas ic</w>
str ing</w>
단 어</w>
Gra de</w>
faith ful</w>
했 는지</w>
G ate</w>
fa thers</w>
진 보
네덜 란드</w>
Chro me</w>
l unch</w>
purch ased</w>
tw enty</w>
a wa
아 들을</w>
바 꿀</w>
얻 은</w>
지 상</w>
힘 든</w>
s ources</w>
팀 이</w>
터 가</w>
이용 하여</w>
절 반
und ry</w>
pec ts</w>
셔 야</w>
survi ve</w>
sel s</w>
몰 랐
D y
C R</w>
IE C</w>
i x</w>
te c</w>
num erous</w>
적 이며</w>
행 복</w>
평 균
Lou is</w>
램 프</w>
fac ial</w>
미 소녀</w>
힘 이</w>
pleas ant</w>
ur s</w>
보 낸</w>
di r
하나 로</w>
ER Y</w>
st ro
oc ket</w>
v ul
discus s</w>
Har b
ir o</w>
테 인
y outh</w>
영 향</w>
own s</w>
X Hamster</w>
Ath ens</w>
니 스
일 까지</w>
통 화</w>
A ustri
suffici ent</w>
tim ately</w>
회 를</w>
particip ants</w>
hon est</w>
v es
건 설</w>
He al
회 사를</w>
trans la
폴 란드</w>
res ervation</w>
파 악
대 와</w>
Tu es
달 에</w>
지 적
베 이스
ri x</w>
Fun c
있으 니</w>
방향 으로</w>
ad dy</w>
on a
se es</w>
reco ver</w>
no tic
직 물</w>
우 선
심 장</w>
mus eum</w>
ne tic</w>
acc ident</w>
La tin</w>
ub s</w>
대학 교
Un fortunately</w>
ari o</w>
h ose</w>
re staurants</w>
아니 야</w>
A H</w>
D F</w>
prac tical</w>
대 화를</w>
mig r
슬 로
많 다</w>
혁 명
atur ally</w>
ad ding</w>
st ainless</w>
소프 트</w>
bl essed</w>
ar ch
W hatever</w>
ton ight</w>
stitu tion</w>
기능 이</w>
t ment</w>
H it
거 지</w>
늘 어
최 상의</w>
Cap ital</w>
h oo
아니 지만</w>
initi al</w>
bir ds</w>
P HP</w>
D ur
Ho t
el ine</w>
wal ls</w>
dec la
ot t</w>
요 한
d ust</w>
perf ec
er as</w>
구 는</w>
쿠 폰</w>
en na</w>
b ound</w>
장 과</w>
mis sed</w>
겠 다고</w>
유 리
구 가</w>
ti se</w>
ur al</w>
a x</w>
bud get</w>
티 켓</w>
l ad
t une</w>
직업 적인</w>
hu a</w>
지 정</w>
d ating</w>
flex ible</w>
차 가</w>
Tur k
보 증</w>
air y</w>
환 자</w>
Supp liers</w>
I X</w>
하 되</w>
만들 었습니다</w>
산 의</w>
재 미</w>
hum anity</w>
wri ter</w>
c risis</w>
보내 는</w>
시 뮬레이
in ny</w>
auth en
갖 는</w>
레이 아웃</w>
레이 크</w>
He bre
JP Y</w>
ON E</w>
grow n</w>
Pic ture</w>
pi pe</w>
비디오 를</w>
E mail</w>
z o</w>
성 숙한</w>
약 관</w>
쓰 리</w>
수 상</w>
아이디 어를</w>
유효 한</w>
노 니</w>
see king</w>
En ter</w>
면 이</w>
TE R
너 에게</w>
pen et
시간 과</w>
Wi Fi</w>
배우 고</w>
po v</w>
particip ate</w>
de fe
좋 은
크 라
저 자</w>
ell er</w>
량 은</w>
오스트레일 리아</w>
비 아
ag ent</w>
일어 날</w>
altern ative</w>
아 키
Y our
박 수</w>
us age</w>
압 축</w>
fac tor</w>
부드 럽
제공 하기</w>
수 출
pos ite</w>
D IN</w>
배 포
L ay
D ance</w>
up id</w>
s ake</w>
Victor ia</w>
Wit nesses</w>
본 인에게</w>
냈 다</w>
dist inc
oper ate</w>
평 범
vis ions</w>
전 투</w>
멕시 코
T y
D aily</w>
혼 란
assi stance</w>
or dered</w>
돌 려
Mo tor
el ve</w>
N et</w>
등 에</w>
Tr ust</w>
들어 가
자 고</w>
trans port</w>
Tu be
controll ed</w>
li a</w>
소 에서</w>
no ise</w>
브랜드 명</w>
la unch</w>
Down town</w>
identi ty</w>
논 쟁
티 켓
ac id</w>
시작 하는</w>
정상 적인</w>
qui red</w>
명령 을</w>
sh oul
국 립
고객 님께서</w>
전 망
Th ur
Tur key</w>
sle eping</w>
Scrip t</w>
E V
Champ ion
Ear ly</w>
W ho
arti st</w>
놀 랍
음 이</w>
Ne ther
dest ination</w>
죄 송
own ers</w>
u k</w>
인 식</w>
cri min
세 우
끊임 없이</w>
T op
app lies</w>
포함 된</w>
sus p
bur n</w>
S av
심 한</w>
좋아 합니다</w>
P ul
Cre ator</w>
F ort</w>
ef s</w>
자 원
L at
is ine</w>
CO M</w>
real ized</w>
s h</w>
주 목
sil ver</w>
um p
아줌 마</w>
접 속
인 사
무언 가를</w>
in o
gg ed</w>
발생 할</w>
n g</w>
do t</w>
for give</w>
it ment</w>
모두 에게</w>
Tra in</w>
M aking</w>
Perform ance</w>
s mart
ner ship</w>
T ak
태어 난</w>
loc ations</w>
만 큼
sh ine</w>
수 학
he ads</w>
지 시
ace u
행 위</w>
B BC</w>
이상 이</w>
str ange</w>
ni e</w>
iz er</w>
다음 은</w>
x y</w>
Econom ic</w>
ac ted</w>
호 환
공 산
타 워</w>
n utri
frequ ently</w>
ob tain</w>
compati ble</w>
ho sts</w>
중요 하다</w>
consum ption</w>
bi e</w>
Be autiful</w>
de als</w>
App s</w>
백 성</w>
영광 을</w>
배 경</w>
fo rest</w>
약 에</w>
con y</w>
교회 의</w>
per or</w>
호텔 입니다</w>
유 의</w>
다 수의</w>
u xe</w>
요 소</w>
cour age</w>
re ci
pre me</w>
k er
기술 의</w>
Feder al</w>
비 판
노 예
돈 이</w>
expl ore</w>
애 플</w>
the dral</w>
결과 가</w>
be er</w>
A K
저작 권</w>
ad just
밀 라
inten ded</w>
emer gency</w>
묘 사</w>
B R</w>
meas ures</w>
K ing
str ate</w>
Air wheel</w>
Ukra ine</w>
Ex pl
엔터 테인
미 안
고객 은</w>
젊 은
관련 이</w>
맞 춤
rou te</w>
run s</w>
안녕 하세요</w>
책 이</w>
의미 를</w>
시 대의</w>
시 행
권 리</w>
데이터 베이스</w>
후 장</w>
inter ests</w>
그리스 도의</w>
가 운</w>
mis sions</w>
serv es</w>
언제 든지</w>
scri p
T B</w>
C ru
트 랙
for t</w>
ste n</w>
관 의</w>
I O
A sh
Bo ston</w>
ter min
드 래
provid er</w>
드 디어</w>
ad or</w>
군 은</w>
나라 를</w>
ben e
마 무
기 차</w>
exc iting</w>
E specially</w>
competi tive</w>
플래 시</w>
week end</w>
cum shot</w>
C ookies</w>
ar on</w>
fil ms</w>
F air</w>
구성 되어</w>
까 지의</w>
숙 소는</w>
철 사</w>
G N
불 을</w>
문 서
노 력</w>
in vi
고 한</w>
대 에서</w>
R ap
cer tificate</w>
불 과
ari um</w>
G as</w>
lead ership</w>
ul ous</w>
b ilities</w>
W on
명 백
Chr is</w>
F OR
fol der</w>
어 찌</w>
수 준</w>
답 을</w>
날 을</w>
하고 있다</w>
효과 가</w>
원 하지</w>
실 에서</w>
S olutions</w>
Au dio</w>
H Clips</w>
P D</w>
기다 리
R P</w>
at s
no tes</w>
노트 북</w>
ㅎ ㅎ</w>
reas onable</w>
ang ry</w>
V id</w>
특 성</w>
bi ke</w>
버 전을</w>
th row</w>
혼 합
케이 블
er ia</w>
승 인</w>
poli tics</w>
t te</w>
주시 기</w>
H op
Pre mium</w>
분 들이</w>
커뮤니 티</w>
With in</w>
가 로</w>
스 쿠
In tellig
Swis s</w>
gi fts</w>
hon or</w>
In cre
냐 고</w>
레 벨</w>
ly wood</w>
dition ally</w>
외 의</w>
we ak</w>
ut ter</w>
드리 겠습니다</w>
구 멍
애니메이 션</w>
in dex</w>
의 회</w>
너 가</w>
법 이</w>
An ton
Portu gu
om et
di c</w>
자 기의</w>
ro c
ic ide</w>
incre asing</w>
assem bly</w>
B ase</w>
날 씨
일반 인</w>
V ista</w>
t ar</w>
t ower</w>
L atest</w>
B os
m ac
mus cle</w>
부족 하지</w>
AT A</w>
Vill as</w>
C F
Dim en
내 셔
O l
si a</w>
와 는</w>
자세 히
S ony</w>
싱 글</w>
Tues day</w>
Gu ar
Io T</w>
y u</w>
thro at</w>
한 글</w>
d ness</w>
센 트
데 리고</w>
Th ickness</w>
k id</w>
p in</w>
Supp ly</w>
prin ciple</w>
리 에서</w>
ali ties</w>
과정 은</w>
게 스트
le gi
자 라
캠 퍼
따뜻 한</w>
vol un
p al</w>
제 국</w>
방 사
ch ron
Sou thern</w>
Techn ical</w>
st ated</w>
홀 리
교 훈
카 페
리 모델링
ren tal</w>
회 전
시 절
임 신</w>
가족 을</w>
머 리를</w>
신 선한</w>
your selves</w>
만 화</w>
필 드</w>
함 은</w>
per mission</w>
인 민
겠 지만</w>
말 해
연구 소</w>
성공 을</w>
W est
돌아 오
뿐 입니다</w>
ici ans</w>
lo sing</w>
L Y</w>
갔 습니다</w>
re friger
진실 로</w>
comb ined</w>
lu xury</w>
s at</w>
S even</w>
Do or</w>
dev o
스 미
sh el
주 파
dri ves</w>
무 한
Jo e</w>
expl ained</w>
G ri
변경 할</w>
in ity</w>
주의 를</w>
st ood</w>
비 난
환경 에서</w>
흡 연</w>
막 을</w>
타 는</w>
cryp to
코 팅</w>
고 전
N ar
더 군요</w>
B eli
이 란
Mark eting</w>
T yp
dom estic</w>
c ue</w>
커 다
크림 파이</w>
친구 를</w>
Ve hic
력 과</w>
Mo dule</w>
자신 에게</w>
자연 산</w>
검 토</w>
qu est</w>
션 에</w>
마 운
퍼 런
Techn ologies</w>
환 영</w>
분야 의</w>
un ion</w>
사회 의</w>
된 다면</w>
re quested</w>
Mon t
링 크를</w>
규 칙</w>
enc ing</w>
oper ated</w>
b order</w>
H ou
Assem bly</w>
포함 하는</w>
게시 물을</w>
To o</w>
즐 겁
투 쟁
공 포
Medic ine</w>
원 합니다</w>
발 생</w>
만 날</w>
테 러
W S</w>
재 앙
차 는</w>
o ever</w>
arm aceu
D ark</w>
i bility</w>
이 때</w>
Pol and</w>
공항 에</w>
버 려
N az
의 하면</w>
가격 은</w>
Di vision</w>
controll er</w>
목 욕</w>
종 료</w>
일어 나는</w>
명 령</w>
E L</w>
s word</w>
Bab e</w>
담 배</w>
T el
ei gh
recei ving</w>
멸 망
or ts</w>
V IP</w>
끌 어
gre gation</w>
감 각
comp onent</w>
attemp t</w>
gu ard</w>
B T</w>
R ose</w>
supp lier</w>
Some thing</w>
Sk y</w>
온라인 으로</w>
J an</w>
ong ue</w>
수 입
로 봇</w>
M erc
Organ ization</w>
자세히 보기</w>
체크 인</w>
물 고
장 으로</w>
재미 있는</w>
versi ties</w>
종 료
c ategory</w>
regi ons</w>
의견 을</w>
도 쿄
페 르
존재 하는</w>
크 고</w>
war ded</w>
F requ
b is
논 의
드 레스</w>
세계 적인</w>
t ary</w>
회 전</w>
부분 이</w>
K el
after noon</w>
Wiki pedia</w>
이 스</w>
프 의</w>
AT ION</w>
I E</w>
분 수</w>
gl ad</w>
comm and
변화 가</w>
된 다고</w>
bir thday</w>
u l</w>
Nor thern</w>
가 장
d ong</w>
cha mp
tal ked</w>
인터 뷰
D ou
내 기</w>
승 인
장소 를</w>
없 어
절 약
Fi eld</w>
K no
pu ts</w>
Y outh</w>
연구 는</w>
pri est</w>
셨 나요</w>
vis ited</w>
Pr ague</w>
sacrif ice</w>
용 접</w>
id o</w>
D R
de grees</w>
L au
무 기</w>
I ce</w>
선택 을</w>
stic k</w>
알고 리
요 가</w>
the tic</w>
사용 한</w>
Nether lands</w>
vic tory</w>
T og
강 도</w>
절 대로</w>
기능 은</w>
ag u
어 트</w>
F T</w>
des cription</w>
지금 도</w>
e on</w>
실 시간</w>
토 마
en ables</w>
effec tively</w>
가르 치
air craft</w>
형태 로</w>
a vi
ro se</w>
c ru
tre as
dr inks</w>
Sh ort</w>
커뮤니 케이
W ine</w>
악 을</w>
Bo y</w>
ch oo
P I</w>
V M
진 지
ub a</w>
new sp
Contro ll
program ming</w>
mar ks</w>
ev a</w>
con trac
Execu tive</w>
le d
oc ean</w>
del ete</w>
Loo king</w>
mist ake</w>
주 어진</w>
d in
이상 한</w>
enti rely</w>
가 졌
ig ation</w>
평 면</w>
techni ques</w>
아 테
G ardens</w>
감 독</w>
Le ave</w>
ack er</w>
새 롭게</w>
b in</w>
불 안
Pi pe</w>
DH L</w>
취 소
enter prise</w>
K am
We ek</w>
T ele
dol lar</w>
하시 며</w>
응 답</w>
R ound</w>
라 의</w>
권 장
였 던</w>
St atement</w>
regi stration</w>
오 픈
strugg le</w>
Ter minal</w>
lish ing</w>
동 작
Y u
G P</w>
샘 플
em br
Brit ain</w>
특 허
T T</w>
형태 의</w>
sh ops</w>
S F</w>
마 리아</w>
어쨌 든</w>
e go</w>
솔 로
천 천
감 시
좋아 요</w>
proced ure</w>
ch ose</w>
Sol omon</w>
res ul
구 할</w>
그 리</w>
시스템 이</w>
G Hz</w>
foo ds</w>
Fil ter</w>
감 옥
대 답</w>
depend ent</w>
여 자가</w>
se ed</w>
영 업</w>
lau gh
config uration</w>
겨 울</w>
famili ar</w>
가 입</w>
달 려
페이 스</w>
M R
Min istry</w>
가벼 운</w>
이유 를</w>
보 였다</w>
하 더라</w>
S ab
에 선</w>
T ree</w>
컨 설
탄 생
구 의</w>
ro pol
복 을</w>
스크 립
목록 을</w>
at y</w>
ma ted</w>
방 금</w>
가 공
으 십시오</w>
Prin ting</w>
t asks</w>
p hic</w>
we ak
al gorith
pre fer</w>
tic kets</w>
확 보
re di
N Y</w>
ear n</w>
의 지
C old</w>
si ghts</w>
로 에</w>
아 들이</w>
AR T</w>
reg ister</w>
const ant</w>
사랑 이</w>
R un</w>
삶 은</w>
포 트
인터페이 스</w>
th ank
작 품</w>
벌 써</w>
C ookie</w>
sol id</w>
자신 들의</w>
pos ted</w>
하 리
repres ents</w>
V it
자유 를</w>
for gotten</w>
frequ ency</w>
가 게
div or
C isco</w>
Bo b</w>
G ang
마 스터</w>
B row
듣 는</w>
el er
igh t
계 정을</w>
단계 를</w>
tis tics</w>
T h</w>
Gal axy</w>
great ly</w>
발 전</w>
H ours</w>
원 으로</w>
스스 로를</w>
피 를</w>
ster one</w>
홈 페이지</w>
L ong
동 성
문 자
그분 을</w>
some where</w>
S MS</w>
빛 이</w>
Jud ah</w>
N C</w>
ani um</w>
바 닥</w>
c ing</w>
실리 콘</w>
상황 에서</w>
Gir ls</w>
it ate</w>
연 관
인생 을</w>
감 이</w>
P eter
re st
요 일에</w>
한 지</w>
com mon
v ements</w>
Wor ks</w>
ograph y</w>
atmos phere</w>
proph et</w>
경우 가</w>
sc ore</w>
강 아
ann ual</w>
As s
AT E</w>
반 영
선 거</w>
링 크
가 와</w>
쓰 레
ter rit
산 에</w>
m b
dis p
ter rible</w>
sen sor</w>
fel low</w>
검 정</w>
her self</w>
win ning</w>
비 는</w>
medi um</w>
어 울
비 행</w>
bo l</w>
수 술
토 리
우 아
Su rely</w>
gre w</w>
d atasheet</w>
불 리는</w>
dis played</w>
D O</w>
ne goti
참 여</w>
st ery</w>
D own</w>
C are
K in
W ER</w>
트 리</w>
수 리</w>
않 아
락 을</w>
reduc ed</w>
Flor ida</w>
e tic</w>
ab sor
cam p</w>
과 거</w>
accord ance</w>
소 년</w>
po p</w>
v inc
ter ror
요구 에</w>
D ad</w>
bu ying</w>
Mem ory</w>
s day</w>
S L</w>
전 망을</w>
B TC</w>
D I</w>
claim s</w>
발 코
I mp
Cour se</w>
com ment</w>
에게 로</w>
gi an</w>
ac i
All actionhost</w>
러 스</w>
m m
드라이 버</w>
g olf</w>
br inging</w>
만들 었
xx x</w>
범 죄</w>
존 의</w>
도 록
K an
플러 그
in et</w>
인 들의</w>
Te a</w>
소 요
스 틸</w>
들 이다</w>
dis eases</w>
있으 므로</w>
일 하고</w>
선생 님
di os</w>
pe ace
반 환
미 치는</w>
복 용
하 리니</w>
p us
M all</w>
F lex
form ing</w>
되 리라</w>
BM W</w>
vers ary</w>
혼 자
걸 릴</w>
참조 하십시오</w>
id ly</w>
본 을</w>
요 즘</w>
obe y</w>
h t
이메 일을</w>
L aw
유 부
나 고</w>
main ly</w>
문 서를</w>
철 도</w>
정 상</w>
그 레
싸 우
보너 스</w>
신 용
j o</w>
Res ervation</w>
bloc kchain</w>
가 깝
k il
Appl ause</w>
S am</w>
그리 고
부 담
C L</w>
R d</w>
arti sts</w>
거 짓</w>
x el</w>
me als</w>
ci pl
걸 어
satis fied</w>
특 수</w>
노래 를</w>
금 은</w>
질 의</w>
하 에</w>
회 가</w>
Con sul
Ma il</w>
폴 리</w>
Pre mi
버 그</w>
D an
bo ts</w>
Dri ver</w>
전 기
프레 임</w>
소 통
sen sitive</w>
남 을</w>
R ange</w>
같 아</w>
ti ght</w>
re ferred</w>
He ad
P ink</w>
Ir an</w>
인 으로</w>
ac ious</w>
surpris ed</w>
Inte gra
Oper ating</w>
동 기
re nov
존 재</w>
agre ed</w>
진 짜
S ong</w>
명 소</w>
es sible</w>
s wal
Mil itary</w>
f oundation</w>
comm unities</w>
그분 이</w>
부르 는</w>
천천 히</w>
bre a
any way</w>
H and</w>
수 술</w>
성 공</w>
일 정</w>
회 로</w>
A Y</w>
tr as
아시아 의</w>
텔레비 전</w>
비타 민</w>
만 은</w>
믿 습니다</w>
많 습니다</w>
S witch</w>
be at</w>
어두 운</w>
흔 히</w>
성 적</w>
some body</w>
역 을</w>
해 외
사실 상</w>
텍 사
뚱 녀</w>
있 다
G y
정보 에</w>
A gre
특 정한</w>
enc ryp
exam ples</w>
ris ks</w>
tan e
백 성이</w>
ing redi
F REE</w>
cre te</w>
H im
편 에</w>
였 고</w>
Mar i
균 형</w>
팅 을</w>
긍정 적</w>
G row
골 드</w>
필리 핀</w>
Az ure</w>
rema ining</w>
약 속</w>
intellig ence</w>
k k
Exc ellent</w>
한 번
ac ing</w>
N ice</w>
장 식
typ ically</w>
Comp onents</w>
Ar gent
P att
lik es</w>
가 방</w>
단단 한</w>
Ste ve</w>
S end</w>
형 식</w>
Semiconduc tor</w>
오 스
For m</w>
char ged</w>
소 중한</w>
어 른
la m</w>
ut ation</w>
mon itoring</w>
ac les</w>
서 로를</w>
션 의</w>
니 와</w>
속 도를</w>
ar ia</w>
모 텔</w>
Do g</w>
Fo rest</w>
정 도의</w>
컴퓨터 에</w>
가격 으로</w>
exten sion</w>
p ush</w>
elec ted</w>
디 아</w>
Bud d
pro phe
un able</w>
여 부</w>
단 체
여러분 을</w>
눈 이</w>
D U
ex act</w>
피 아</w>
필요 는</w>
Retur n</w>
관계 가</w>
자 이
환경 에</w>
보 일</w>
부 다
pl enty</w>
el a</w>
strong er</w>
Stu dies</w>
아 아
mon ster</w>
ec ting</w>
Sur face</w>
sh it</w>
자 원</w>
사이트 에서</w>
vin tage</w>
곳 의</w>
적 당한</w>
연 료</w>
serv ation</w>
HO TEL</w>
웠 습니다</w>
Tw in</w>
말 미
두려 움
impro ved</w>
Sci enti
가족 이</w>
백 과</w>
p assion</w>
하 러</w>
어 느
cor ner</w>
G M</w>
자 기가</w>
상 위</w>
det ailed</w>
Al pha
실 망
세상 은</w>
다시 피</w>
라이 센
enc oun
평 화를</w>
선택 하십시오</w>
speci fically</w>
X O</w>
li gh
가 실</w>
ri bute</w>
시장 에</w>
sa v
Z one</w>
ox y
P it
라 운
그렇 습니다</w>
관련 검색
Dev ice</w>
현 실</w>
B E</w>
기 름
doc tors</w>
그대 는</w>
bo xes</w>
왼 쪽</w>
situ ations</w>
arri ve</w>
val ent</w>
S in
브 랜
배우 는</w>
커다 란</w>
못 하게</w>
실 천
카 탈
E astern</w>
주 실</w>
엘리베이 터</w>
커 넥
br ands</w>
ple ased</w>
휴 대</w>
Se attle</w>
정 당
app ing</w>
동 료</w>
법 의</w>
gh ly</w>
실 은</w>
Boo ks</w>
사랑 에</w>
피곤 와</w>
sec re
개인 의</w>
tern s</w>
d ur
ren a</w>
ust y</w>
하 소서</w>
de struction</w>
f ishing</w>
서 류
전 에는</w>
D ong
월드 컵</w>
사이트 의</w>
Par ti
Per f
O ne
tele phone</w>
Comm on</w>
W E</w>
느 뇨</w>
g ol
ni ghts</w>
죽 음을</w>
plan ned</w>
않는 다는</w>
P H</w>
D un
세상 이</w>
Te ach
K yo
좋 지</w>
편 리한</w>
바 울</w>
들 에서</w>
코 인</w>
상 당한</w>
접 촉</w>
De ad</w>
S port</w>
스 톤</w>
for ma
문 에</w>
적 극
cr uc
살 았
이상 을</w>
fac ts</w>
direc tor</w>
제공 하며</w>
g or
ye ah</w>
z ero</w>
결혼 식</w>
로 우
Fl at</w>
당 장</w>
develop ers</w>
U E</w>
것 들</w>
Hell Porno</w>
A V</w>
ut tle</w>
L et
하 더라도</w>
lab or</w>
신 용</w>
수 십</w>
J O
서울 특별
가지 는</w>
삼 키
감 소</w>
회 색</w>
Don ald</w>
필요 로
확실 한</w>
가능 성을</w>
누 구</w>
ra k
기술 이</w>
지 적</w>
rema ined</w>
mo stly</w>
초 점을</w>
re present</w>
이집 트</w>
능 력이</w>
경 고</w>
Pack age</w>
액 체</w>
사 냥
p utting</w>
conduc t</w>
정 직
케이 스</w>
ree ts</w>
초 콜
d u</w>
극 복
Wom an</w>
Par king</w>
Fore ign</w>
끝 에</w>
id ays</w>
as pects</w>
Mi ke</w>
컨트 롤
사 도
orig in
K or
ra w</w>
구 글
설 정을</w>
g un
Hol lywood</w>
is ol
지 속</w>
겠 지</w>
백 업</w>
Cul tural</w>
re jo
묘 사
아이 들</w>
Pro vince</w>
연 방
Val ue</w>
하 노라</w>
말씀 하시
li ked</w>
cor respon
Com ments</w>
m id</w>
de partment</w>
무 너
Inst agram</w>
i us</w>
Con nect</w>
ex pres
nor mally</w>
regul ations</w>
수 출</w>
l ds</w>
W in</w>
st ayed</w>
ag a</w>
or al</w>
목적 은</w>
La b</w>
충 전</w>
형 태</w>
모두 의</w>
저 지
바 울
길 로</w>
er ever</w>
발 행
태 블
sugg est</w>
Ed itor</w>
백 성을</w>
Comp an
supp osed</w>
인 물</w>
대 상으로</w>
au ghters</w>
터 키
ev olution</w>
la id</w>
di et</w>
나타 내는</w>
R is
학교 에</w>
유 를</w>
아 랍</w>
He at</w>
컨 텐
국가 에서</w>
비 율</w>
내 내</w>
남 자가</w>
실 린
단 이</w>
M M
Tun es</w>
graph y</w>
st ations</w>
토 록</w>
효과 적으로</w>
M eas
도 그</w>
처음 에는</w>
KR W</w>
부 티
거 리를</w>
시드 니</w>
단 체</w>
리 티</w>
ic king</w>
um a</w>
절 단</w>
규 정</w>
판 지</w>
Ac tive</w>
요 리를</w>
여 겨
be ds</w>
그룹 의</w>
부 산
L AN</w>
기독 교</w>
개 별
서비스 와</w>
Mem orial</w>
ev ed</w>
식 품
Fr amework</w>
Rel ated</w>
나타 냅니다</w>
be hold</w>
ab eth</w>
p apers</w>
re l
B ow
렌 즈</w>
자 도</w>
f ont</w>
Rol l</w>
C F</w>
객실 에</w>
in spec
안 다</w>
requ ests</w>
공 정
Ar chitec
영 양
Fas hion</w>
Blo od</w>
붉 은</w>
발생 하는</w>
조회 수</w>
구 입</w>
은혜 를</w>
서비 스의</w>
줄 을</w>
av ailability</w>
ti fy</w>
가 동</w>
알 레
collec ted</w>
등 급
건강 을</w>
십 대</w>
G R
Gen esis</w>
M ade</w>
S ev
가족 과</w>
T ool</w>
일어 나</w>
R GB</w>
e ball</w>
conflic t</w>
su res</w>
Ite m</w>
hi a</w>
유지 하는</w>
ec tor</w>
ic als</w>
최소 한</w>
fa ir
브루 넷</w>
Princ ess</w>
perfec tly</w>
일 요일</w>
l or</w>
차 이가</w>
부 속
제 기
ok a</w>
I CA
새 가</w>
W ol
모 험
Supp lier</w>
men tion</w>
bal cony</w>
C B</w>
ti e</w>
더 를</w>
Cer tificate</w>
확 률
B es
영 감을</w>
E th
fl at
e dit</w>
tis m</w>
로 도</w>
합 시다</w>
것 들은</w>
inter ior</w>
ab ol
뉴질 랜드</w>
많 은
fe es</w>
플러 스</w>
d ining</w>
아니 요</w>
급 료</w>
ra tive</w>
st ret
할 수</w>
필요 할</w>
N an
ag o
ro of</w>
E x</w>
H aving</w>
re stric
eval u
Met ro</w>
시 계
fi re
institu tions</w>
Rail way</w>
만 든다</w>
긍정 적인</w>
e ast</w>
나 지</w>
soldi ers</w>
생 겼
di ameter</w>
마 크
H IV</w>
Po k
ri an</w>
의 도
ain able</w>
사이 즈</w>
팀 을</w>
것 인지</w>
산 화
n ation
주님 께서</w>
마 일</w>
해야 만</w>
연 간</w>
캐 스팅</w>
s lowly</w>
암호 화
tr uck</w>
heal th
sec tor</w>
기술 적</w>
진 공</w>
b by</w>
대 규모</w>
P rec
H F</w>
그렇 다고</w>
Ste ph
per spective</w>
말미 암
a im</w>
sp r
대학 의</w>
su gar</w>
물리 적</w>
a ths</w>
Thur sday</w>
것 의</w>
의미 한다</w>
pos sibility</w>
Le ad
mini str
ush ing</w>
가 구</w>
H ow
Th ai</w>
해 진</w>
그 만큼</w>
Si x</w>
I O</w>
보 며</w>
tific ial</w>
Wi reless</w>
ta xi</w>
r ice</w>
F lowers</w>
Xi a
Sy m
해 에</w>
권 의</w>
des ired</w>
효율 적인</w>
W all
보여 주는</w>
민 감
Develop er</w>
생각 했다</w>
Ch at</w>
Hy draulic</w>
치료 를</w>
회사 에</w>
l i</w>
획 득
취 한</w>
Dev ices</w>
베이 징</w>
사 관</w>
오 기</w>
acc essible</w>
예 배
P ack</w>
in er</w>
e z
A ve</w>
룸 을</w>
성능 을</w>
S O</w>
원 제</w>
인종 간</w>
exper t</w>
Swe dish</w>
ele g
돕 는</w>
Po st
아르 헨
미 리
부 대</w>
har m</w>
E X</w>
N Y
크 루
p ace</w>
inf rastructure</w>
회 에서</w>
ess ings</w>
IT Y</w>
귀 를</w>
존 경
입 증
규모 의</w>
기 초</w>
vie wing</w>
occur s</w>
T ow
타 입</w>
v o</w>
Blo g</w>
oun ge</w>
구 원을</w>
wh olesale</w>
fl ash</w>
설 교
quar ters</w>
bur y</w>
ci vil
gl or
T esting</w>
re action</w>
em is
그 만</w>
후 의</w>
K itchen</w>
알렉 산
consi sts</w>
나 왔
제조 업체</w>
터 미
다이아몬 드</w>
stu dio</w>
sur vey</w>
놀 이</w>
아르헨 티
본 질
판 을</w>
표시 됩니다</w>
Har ry</w>
Di amond</w>
reg ard</w>
S ul
애 완</w>
il legal</w>
insp ired</w>
ind ustries</w>
Th ough</w>
시장 에서</w>
찬 양
fun ds</w>
고 맙
우크라이 나</w>
t ongue</w>
read s</w>
or able</w>
vul ner
버 렸
Cre dit</w>
P L</w>
fac ility</w>
듣 지</w>
되 기를</w>
ma tic</w>
og rap
세 이
중 독
지 휘
인생 의</w>
이 후에</w>
세 가</w>
cer tification</w>
i Tunes</w>
근 무
뒤 로</w>
person ally</w>
밴 드</w>
Oper ation</w>
Comm ercial</w>
ex port</w>
Inst ant</w>
desig n
G H</w>
금 연</w>
열 쇠
reg ularly</w>
Gu es
질 환
ap art</w>
로 맨
invest ors</w>
림 을</w>
cre ates</w>
Wed nes
시 내</w>
그 곳에</w>
부 근
o ved</w>
occur red</w>
어디 로</w>
자유 로운</w>
크 기의</w>
fac tion</w>
B ad</w>
교회 는</w>
심 이</w>
sou ls</w>
P ay</w>
분 출</w>
iP od</w>
Swe den</w>
초 음
J ones</w>
comp are</w>
si x
bu ff
confir med</w>
고 전</w>
거 라</w>
Some one</w>
as sets</w>
해 질</w>
it al
확인 하십시오</w>
결과 에</w>
비용 이</w>
미 인</w>
플 랜
쿠 키를</w>
다 르게</w>
g ers</w>
allow ing</w>
Con sum
nur se</w>
sh alt</w>
n ic
pre ne
비 자</w>
as is</w>
P ak
사용 자에게</w>
over come</w>
ph a</w>
prote in</w>
re turns</w>
mo tiv
More over</w>
educ ational</w>
Kyo to</w>
Con cer
D av
Fa ith</w>
A lo
FO R</w>
emplo yment</w>
O O
트럼 프</w>
F ul
Res id
c d</w>
L LC</w>
Fri end
깁 니다</w>
로 컬</w>
ke eps</w>
E T
philosoph y</w>
Con si
D s</w>
trans portation</w>
conver t</w>
fa sts</w>
promis es</w>
gr anny</w>
NE W</w>
읽 는</w>
f ro
마이 클</w>
A BS</w>
Lis ten</w>
세 탁</w>
신 체
De ep</w>
호텔 에</w>
뉴 스
Fr an
F X</w>
Explo rer</w>
li p</w>
Mar ine</w>
N on
man ual</w>
열 매
재 능
럭셔 리</w>
electr ical</w>
겠 어</w>
trav el
G ab
무엇 이
따르 는</w>
흑 단</w>
장비 를</w>
T ol
enter tainment</w>
sol ute</w>
am bi
련 의</w>
Be hold</w>
상 과</w>
acc eler
폰 을</w>
differ ences</w>
공 통
Un til</w>
봐 요</w>
at i</w>
liter ally</w>
클래 스</w>
쉽 고</w>
미국 에</w>
센 서</w>
jour n
guaran te
하기 위한</w>
H at</w>
concer n</w>
Fl u
Mar ina</w>
발 명
S ir</w>
det ail</w>
아 비
Li ghts</w>
L and
샘 플</w>
profession als</w>
아래 의</w>
특 허</w>
감 정을</w>
에 피
냉 난방</w>
이었 던</w>
기 회</w>
M it
으 신</w>
데 스크</w>
F ace</w>
In iti
C ell</w>
a j
것이 죠</w>
Her itage</w>
si zes</w>
여 섯</w>
시 대에</w>
소 재</w>
eb ony</w>
비 싼</w>
b ags</w>
인 구</w>
hor se</w>
홀리 데이</w>
성 장을</w>
드 리는</w>
머무 실</w>
Ag ency</w>
개 혁
이 사</w>
tra dition</w>
힘 들
금 요일</w>
조 지
g aming</w>
Fil es</w>
J ord
ni versary</w>
국 내
Psal m</w>
i di
데이터 가</w>
수하 물</w>
화 려
s wi
lev ard</w>
어 라</w>
흰 색</w>
느끼 는</w>
불 편
preci ous</w>
Or ange</w>
Chem ical</w>
continu ing</w>
문 신</w>
D ro
Oper a</w>
cl assi
G etting</w>
str a</w>
결 제</w>
해 상
Gr and
예수 님의</w>
stud ying</w>
C I</w>
워 요</w>
여러분 에게</w>
Mar ri
p c</w>
도 대체</w>
SER V
pl ying</w>
w et</w>
여 야</w>
des c
Inf o</w>
S GS</w>
Fire fox</w>
K er
si on
데이터 는</w>
생 물</w>
Fri ends</w>
our ite</w>
부 인</w>
성 전환</w>
파이 프</w>
S W
a rest</w>
can di
li ps</w>
mist akes</w>
하나 이다</w>
De fin
파 일이</w>
피 렌
sh ar
emo tional</w>
dres sing</w>
heal ing</w>
issu ed</w>
전 도
Cha m
Sa fe</w>
날 씨</w>
로 에게</w>
S W</w>
R ock
로 고</w>
con text</w>
밑 에</w>
Out put</w>
세 라
clo thing</w>
c on</w>
칩 니다</w>
s anc
P sych
qu iry</w>
가지 를</w>
텍 스트
건 전지</w>
ed back</w>
F ig
업 로드</w>
sm ile</w>
S ens
개 선</w>
P un
하였 으나</w>
다 시는</w>
yl inder</w>
Co ast</w>
gg s</w>
w earing</w>
오 일</w>
op les</w>
노 스</w>
누 르
K is
작 성</w>
침 묵
쉽 습니다</w>
단 어를</w>
구성 된</w>
b ow
B lock</w>
다 릅니다</w>
대통령 은</w>
까 지도</w>
그림 을</w>
Sim ple</w>
bl essing</w>
res urrection</w>
H o</w>
g u</w>
B at
니 는</w>
r am
세 미
카 페</w>
l ucky</w>
기 꺼
저 기</w>
chil d
pri ests</w>
ei ved</w>
al i</w>
cooper ation</w>
estab lish</w>
야 곱
b ps</w>
C lim
m A</w>
Dis ney</w>
약속 을</w>
S ound</w>
A gr
아니 에요</w>
Mat erials</w>
최 악의</w>
섭 취
불 신
코 스
남 겨
들 입니다</w>
기 에는</w>
ful ness</w>
독 립</w>
person ality</w>
로스앤젤 레스</w>
서 부</w>
R us
Introduc tion</w>
열 을</w>
베를 린</w>
prec ision</w>
의 학
학교 에서</w>
promo te</w>
B is
딸 이</w>
F arm</w>
건 의</w>
파 일의</w>
소 식을</w>
f i</w>
하였 으니</w>
관리 하는</w>
E P</w>
div ine</w>
N ear</w>
Cat al
유사 한</w>
적 으로는</w>
mag azine</w>
되 나요</w>
oun der</w>
즈 는</w>
j in</w>
tol er
No ah</w>
에 르
개 장
에 이</w>
오 염
K on
금 이</w>
알아 보기</w>
N G</w>
전쟁 을</w>
t ub
다 들</w>
아니 었
s and
Patt aya</w>
콘 서
프리미 엄</w>
li ant</w>
sev ere</w>
경우 는</w>
victi ms</w>
ul timate</w>
유 명</w>
achiev ed</w>
때 부터</w>
주 시는</w>
는 지를</w>
반 응</w>
오사 카</w>
동 을</w>
도 에서</w>
li quid</w>
op posite</w>
선 은</w>
청 소</w>
처음 부터</w>
매력 적인</w>
ic ing</w>
부정 적인</w>
exci ted</w>
하늘 의</w>
떠 나</w>
빅 토
Anal ysis</w>
b anks</w>
사람 도</w>
lo go</w>
no body</w>
AN G
U B</w>
en der</w>
ash ed</w>
했 다면</w>
스크 린
스 퀘
정기 적으로</w>
유럽 의</w>
St an
실 험</w>
폭 발
것 인
der i
더 는</w>
선택 하고</w>
호 스트</w>
My Lust</w>
b acter
H av
져 야</w>
trav eling</w>
U M</w>
세 면</w>
식 물
is ted</w>
주 머
표 현</w>
lin ked</w>
ab and
ir oning</w>
프로 모션</w>
어떻 게
그녀 에게</w>
d anger</w>
작 가
르 트</w>
평 생</w>
하여 야</w>
am eters</w>
communic ate</w>
의미 가</w>
For um</w>
con dition
해 라</w>
Agre ement</w>
OR E</w>
e ther</w>
ush ed</w>
혁 명</w>
유부 녀</w>
as ingly</w>
Bud apest</w>
ch urches</w>
Bi o
규 정
Vi p
Mis s</w>
res ource</w>
마 태</w>
피 트</w>
하 다면</w>
sched ule</w>
D og
지역 을</w>
님 을</w>
후 에는</w>
죽 었
A vi
행 을</w>
S B</w>
밀 리</w>
Eli z
리 적</w>
극 장</w>
진 단</w>
시작 한</w>
Tr uck</w>
E E</w>
시켰 다</w>
행 운
zz le</w>
이후 로</w>
마음 의</w>
Lo g</w>
ni ght
deep ly</w>
체 크</w>
상 표
Fo x</w>
g lo
즐겨 찾
Res ist
Progr am
exten sive</w>
아니 라는</w>
언 급</w>
군 사</w>
있었 는데</w>
ta g</w>
Wa it</w>
작 가</w>
다른 인종간</w>
SS L</w>
let ters</w>
리 오</w>
Y a
Vis ion</w>
decla red</w>
Pack aging</w>
익 숙
조 치를</w>
종 일</w>
창 출
w er
해 가</w>
네트워크 를</w>
작 용</w>
화 의</w>
주 위에</w>
가지 의</w>
wat ers</w>
al loy</w>
컨 퍼런
N am
ar ray</w>
applic able</w>
wil d</w>
경 쟁</w>
유 혹</w>
au to</w>
명 으로</w>
sk a</w>
Fr ank</w>
다 를</w>
thre ate
Di v
ast y</w>
보호 를</w>
필요 하지</w>
hom emade</w>
Cre ative</w>
경 계
RO M</w>
유 기
역 은</w>
pack aging</w>
모스크 바</w>
태평 양</w>
사용 에</w>
Res ults</w>
Sh ow
는 게</w>
el le</w>
po t</w>
Min ister</w>
ver ty</w>
착 용
compreh ensive</w>
묻 는</w>
Wednes day</w>
솔직 히</w>
K it</w>
진 리</w>
진 정으로</w>
ant y
인 류</w>
Ca thedral</w>
선택 하는</w>
cir cuit</w>
meas urement</w>
조건 을</w>
소프트웨 어는</w>
받아 야</w>
식 에</w>
AW S</w>
d aughters</w>
팀 의</w>
땅 의</w>
So ft</w>
백 만
ch in
su b</w>
개 방
날 은</w>
아 우
방 콕</w>
Fore x</w>
h ub</w>
br a</w>
말 하면</w>
통 계</w>
ex ec
중 에는</w>
gradu ate</w>
ni c</w>
ye ong
alco hol</w>
좋 았
자 네
au dience</w>
상 호
as ide</w>
머리 카
Ira q</w>
dr unk</w>
fri dge</w>
DN S</w>
스웨 덴
desig ns</w>
Bou levard</w>
좋아 한다</w>
th ickness</w>
우리 도</w>
Vis a</w>
수 백만</w>
일 도</w>
Tur n</w>
vo id</w>
없 기</w>
대 상
바 퀴</w>
될 까요</w>
전 망</w>
ex ual</w>
F oc
노력 하고</w>
I K
에 드
상황 이</w>
장 식</w>
교 수</w>
D L</w>
ti o</w>
프로그래 밍</w>
충 돌
F air
ab e
ll a</w>
Mic ro</w>
HD MI</w>
Rel ig
S SD</w>
아이 폰</w>
어린 이
she ets</w>
Ch all
ep ts</w>
가족 의</w>
Mat t</w>
ul ated</w>
행 위
col le
hand job</w>
R og
lo vely</w>
No body</w>
l on
N one</w>
이해 하는</w>
도 우
ag ricul
중국 어</w>
Free dom</w>
Des pite</w>
영혼 을</w>
있 나</w>
om m
exp an
똑 같이</w>
서울특별 시</w>
개 요</w>
cons ent</w>
la undry</w>
program me</w>
re new
fur niture</w>
어찌 하여</w>
ti a</w>
cap it
dep th</w>
공간 이</w>
따 로</w>
신 발</w>
l ady</w>
uni form</w>
명 세</w>
미 워
Mo de</w>
아래 로</w>
허 용</w>
ag ues</w>
ob vious</w>
dra wing</w>
cre atures</w>
월 요일</w>
전 통</w>
ght ness</w>
comm anded</w>
tion ally</w>
Pri me</w>
mom ents</w>
sh ut</w>
목 욕
나 쁘
자격 이</w>
Fin al</w>
am big
F ro
sam ples</w>
일부 를</w>
lab el</w>
패 널
S tic
jo int</w>
시 나
n ative</w>
통 통</w>
g ang
Jack son</w>
생 명의</w>
armaceu tical</w>
practic es</w>
op tional</w>
k id
탁 월
Vir tual</w>
esti mated</w>
페 리</w>
Ac tually</w>
예정 입니다</w>
가능 하게</w>
답 변</w>
공 정</w>
ou red</w>
비 키
accur acy</w>
파 워</w>
bed room</w>
베 네
ath le
conduc ted</w>
련 된</w>
군 사
tra ined</w>
che apest</w>
spe aks</w>
분 들은</w>
S ap
계 좌
곳 입니다</w>
있 거나</w>
In ch</w>
H R</w>
ap ti
j er
succ eed</w>
on ym
Direc t</w>
주 여</w>
유 혹
신속 하게</w>
무엇 인
su perior</w>
추 구
제조 업체
항 문</w>
Ch er
Scot t</w>
A lex</w>
f lix</w>
cap abilities</w>
좋아 하지</w>
n u
삶 이</w>
AR E</w>
f illing</w>
Any one</w>
자전 거
Perf ect</w>
R ay</w>
L ess
식 당</w>
기꺼 이</w>
n ylon</w>
produc ing</w>
합 법
순 수한</w>
함 으로</w>
M ember</w>
clus ion</w>
mon d</w>
F av
첨 단</w>
identi fied</w>
s p</w>
SA P</w>
vis ual</w>
일으 키
plat forms</w>
M ar</w>
incre ases</w>
Q C</w>
여 성이</w>
해 주는</w>
활 용</w>
권한 을</w>
있었 어요</w>
시 도</w>
S Y
feder al</w>
Tour ism</w>
an king</w>
sc ope</w>
끔찍 한</w>
po c
P ump</w>
rap idly</w>
o ol
주님 을</w>
사용 해</w>
나타 내
임 시</w>
S heet</w>
화 는</w>
C el
전 달</w>
간호 사</w>
Mal ay
부티 크</w>
to on</w>
수 학</w>
혁 신</w>
s wit
perman ent</w>
되 지만</w>
프로 필</w>
연결 을</w>
주 소를</w>
O LED</w>
rec ording</w>
오 렌
Th ou</w>
Tem plate</w>
페이 지에</w>
메이 커</w>
맞 게</w>
스 파이</w>
t v</w>
Pay ment</w>
때 에는</w>
손 이</w>
sti mul
빼 앗
원 한다</w>
A aron</w>
해결 할</w>
부드 러운</w>
호스 팅
Pol ish</w>
클 라
싶 은
ster n</w>
to x
드 리고</w>
exc ep
것이 니</w>
fin ite</w>
require ment</w>
하늘 에</w>
electr icity</w>
보 수
w ash</w>
wal ked</w>
le ather</w>
do gging</w>
mir ror</w>
s k</w>
스 파
organ ized</w>
Th re
ac tor</w>
Am ong</w>
fac ing</w>
선 포
func tional</w>
val ve</w>
하드 웨어</w>
Jo in</w>
top ic</w>
k it</w>
peti tion</w>
언 어로</w>
더 라
져 서</w>
K ur
An sw
않 을
Ev ents</w>
histor ic</w>
관 점에서</w>
서비스 가</w>
te dly</w>
모니터 링</w>
Ac ts</w>
나타 납니다</w>
Por table</w>
예 방
연결 된</w>
예수님 을</w>
매 주</w>
dis cipl
Marri ott</w>
z i
소 와</w>
액세 서
sp ending</w>
제품 이</w>
Nu Vid</w>
슨 은</w>
거 다</w>
d d
어 둠
mechan ical</w>
테스트 를</w>
숨겨 진</w>
sen ding</w>
해 지
향 후</w>
경 영</w>
임 무
l ake</w>
Ra di
희 망</w>
전 이</w>
가 라</w>
Isa iah</w>
색 을</w>
대표 적인</w>
Ac count</w>
n aturally</w>
짐 승
영화 는</w>
ic ed</w>
노 를</w>
connec tions</w>
음 성</w>
Or acle</w>
bel ongs</w>
비 엔
개인 적으로</w>
치 의</w>
ach i</w>
인 들을</w>
co vers</w>
ob tained</w>
이 뤄
P ut</w>
Wed ding</w>
사진 은</w>
Sim on</w>
c ell
appreci ate</w>
카 라
포 드</w>
F L
애플리케이 션</w>
맥 주</w>
내셔 널</w>
Le ft</w>
구 축</w>
er rors</w>
배 경
의 의</w>
life time</w>
교 사</w>
ass um
이해 하고</w>
adop ted</w>
숫 자</w>
결 합</w>
T an
cap ture</w>
세 워
quanti ty</w>
들 여
di ted</w>
F uk
P ear
무 거운</w>
알 맞은</w>
등 과</w>
Play ed</w>
만 으로</w>
ard less</w>
M om
웨 스트</w>
at t</w>
방 어
시카 고</w>
Af gh
사이 드</w>
Ad ap
s an</w>
po sts</w>
auth orities</w>
코 르
안 경</w>
J im</w>
as ion</w>
일본 어</w>
Indones ia</w>
룸 은</w>
멀 티
Hou ston</w>
프로그램 이</w>
여 자는</w>
마 리</w>
보 도</w>
클 레
ord in
el and</w>
re l</w>
Mess age</w>
선 이</w>
Ad ministration</w>
Ad ded</w>
t ut
콘텐츠 를</w>
게 됩니다</w>
al le
장 착
역 할</w>
Sh rine</w>
Vip Tube</w>
P AR
화 하는</w>
S qu
sh irt</w>
prin ted</w>
마 는</w>
저 와</w>
부분 에</w>
E L
자 료를</w>
dic tion</w>
운동 을</w>
F la
일 종의</w>
Con struction</w>
ab road</w>
ei ve</w>
tr ou
war ranty</w>
TO P</w>
제 이
책 의</w>
의 자</w>
마음 은</w>
R ate</w>
생각 은</w>
Col or
M O</w>
홍 콩
행 한</w>
posi tions</w>
호르 몬</w>
min ds</w>
우 수</w>
character istics</w>
invi ted</w>
Me eting</w>
자 살
건 너
그 만
att an</w>
Leg al</w>
T ank</w>
어디 에서</w>
con cent
평범 한</w>
Alex ander</w>
O thers</w>
신 문</w>
discus sion</w>
mem ories</w>
tran spa
리아 의</w>
리 셉
v in</w>
Mis sion</w>
comp rises</w>
AG E</w>
gen u
벨 트</w>
m ic</w>
advant ages</w>
거래 를</w>
면 은</w>
가 든</w>
Turk ish</w>
증명 서</w>
컴퓨터 를</w>
d B</w>
잃어버 린</w>
g sten</w>
도시 를</w>
하 사</w>
이 곳에</w>
하 계</w>
D rop
F LO
봐 야</w>
외국 인</w>
B M</w>
건강 에</w>
차 에</w>
direc ted</w>
두 번째</w>
소 설</w>
ch o</w>
dri vers</w>
신 체</w>
con tainer</w>
옳 은</w>
통 계
ob lig
D J</w>
명 에</w>
반 대</w>
스 캔
Dr agon</w>
인 생</w>
W olf</w>
버 리고</w>
슬 라이
Wh olesale</w>
S L
incre asingly</w>
con tents</w>
텅 스
기 도를</w>
재 를</w>
살 인
역사 적인</w>
시 대
까 지
안전 하고</w>
르 기</w>
아이 는</w>
접 착
F if
뭔 가를</w>
at titude</w>
시 티
랜드 의</w>
박 람
추 정
youn ger</w>
있었 지만</w>
u a</w>
길 은</w>
향 상</w>
지하 철</w>
리 다</w>
포 괄
Remo te</w>
me etings</w>
ven ted</w>
로 지</w>
Sci ences</w>
Be eg</w>
m ask</w>
contro ls</w>
Im ag
N um
Rele ase</w>
실 용
예 외
P ER
pro ved</w>
기 사
res ted</w>
채 워
i ration</w>
im pres
Al loy</w>
des erve</w>
gather ed</w>
l uck</w>
이 혼
Maj or</w>
특징 으로</w>
K h
ex plan
p g</w>
트 니스</w>
정 류
trans mission</w>
근 무</w>
bro ke</w>
hun gry</w>
st ability</w>
at on</w>
ol ate</w>
사 례</w>
The ater</w>
생각 해
pro mp
G C</w>
식 당
Sk ype</w>
De tec
bloc ks</w>
tra dem
g lob
S on
X ML</w>
말 도</w>
기록 을</w>
Del uxe</w>
pra yers</w>
보내 기</w>
인 공
duc ed</w>
atten d</w>
immedi ate</w>
l ord</w>
st upid</w>
as se</w>
웰 빙</w>
분야 에</w>
descri be</w>
e v</w>
머 신</w>
bas ically</w>
di verse</w>
rep ly</w>
줄 어
N ur
We ek
f all
aw n</w>
관 에서</w>
동 등
지구 의</w>
동 안에</w>
정 체
법 칙
피 할</w>
lau gh</w>
th qu
re fer</w>
누구 든지</w>
나 에</w>
기 만</w>
Vehic le</w>
소 설
st reets</w>
아카 데
ad min</w>
미술 관</w>
V an</w>
전 형
Sh ar
p ull</w>
bu l</w>
지 혜</w>
NAS A</w>
요구 를</w>
촉 진
친구 와</w>
bon us</w>
피 어
당 할</w>
V S</w>
즈 의</w>
필 름</w>
believ es</w>
P acking</w>
차 이를</w>
K al
산 은</w>
도시 에서</w>
마 술
선 도
Ques tion</w>
해 방
shoo t</w>
follow ers</w>
리 브
Eliz abeth</w>
Geor gia</w>
K it
prophe ts</w>
Em peror</w>
de ar</w>
ra ft</w>
Tre atment</w>
ov o</w>
con temporary</w>
양 식</w>
테 크
폐 기
f arm</w>
d ying</w>
P V</w>
부 와</w>
엔터테인 먼트</w>
Ch i</w>
common ly</w>
A F
맞 추
대신 에</w>
요 소를</w>
해 변</w>
bl essings</w>
con gregation</w>
Sim il
fundam ental</w>
촬 영</w>
진실 을</w>
팔 레
G T</w>
불 러</w>
평 방</w>
말 라
Foo t
생 을</w>
MO Q</w>
했 었
아니 며</w>
암 호</w>
K r
구 독
con version</w>
aw ard</w>
갈 색</w>
tat too</w>
자랑 합니다</w>
애 플
ci vil</w>
손 상</w>
광 저우</w>
dec re
데이비 드</w>
않 음</w>
배 워
ussi an</w>
Cent ury</w>
li ver</w>
O m
설명 을</w>
cu isine</w>
es el</w>
Ques tions</w>
자 취
Cli ent</w>
최 선의</w>
stu died</w>
t um
품 목</w>
하 녀</w>
gres sive</w>
i est</w>
익스 프레스</w>
강 화</w>
헝 가
괴 롭
B ay
며 칠</w>
S ud
cre d
미국 과</w>
바 구
S now</w>
하느 냐</w>
ye ur</w>
아 리
디 즈
조건 에</w>
병 을</w>
la b</w>
L ane</w>
sli ghtly</w>
pow ers</w>
Christi anity</w>
Mad rid</w>
위치 하여</w>
pain ting</w>
거 두
re tri
tw elve</w>
D ru
Man chester</w>
받 는다</w>
Z ero</w>
sub way</w>
um b
org an</w>
웹 사이트를</w>
engine ers</w>
그 대의</w>
정 리
tion ing</w>
less ons</w>
B ear</w>
continu ous</w>
Andre w</w>
encour age</w>
션 이</w>
계약 을</w>
스 카이
h ire</w>
철 저
즈 를</w>
every day</w>
fab ric</w>
exten ded</w>
Austri a</w>
U C</w>
T ay
S aul</w>
육 체
졌 고</w>
dec l
W is
A us
예수 의</w>
운영 하는</w>
근 육
ro man
rep lied</w>
인 내
홍 보
mi xed</w>
Pro file</w>
Mag azine</w>
Porno XO</w>
co oling</w>
li ament</w>
불 법
일 들을</w>
ad ministration</w>
ti er</w>
그것 들을</w>
소 망
dri ven</w>
ess ment</w>
ro bot</w>
iti ci
구 에</w>
독 일의</w>
strate gic</w>
기술 과</w>
무엇 인가요</w>
란 색</w>
고 성능</w>
Water proof</w>
F O</w>
Jus tice</w>
도 로
X videos</w>
트 라
Ven ice</w>
trac king</w>
a is</w>
clo sely</w>
V O
세부 사항</w>
o ke</w>
없 게</w>
자동 적인</w>
석 을</w>
이 신</w>
T na
in os</w>
이야 기는</w>
Sec ret</w>
ick et</w>
Tna Flix</w>
H ur
처음 에</w>
ever th
즐겨찾 기로</w>
b al</w>
inj ury</w>
am enities</w>
적 으로
dy namic</w>
셀 카</w>
나라 가</w>
hous ing</w>
everth eless</w>
or ds</w>
한국 의</w>
ID S</w>
complic ated</w>
ren ess</w>
작 은
E qu
호 흡
Environ ment</w>
뭐 가</w>
P interest</w>
적 의</w>
sist ers</w>
때 도</w>
exp and</w>
전 부터</w>
Ad vis
오 락
사이트 는</w>
Cha in</w>
p ig
rep utation</w>
됩 니까</w>
c um</w>
신 비
학 과</w>
Ad ult</w>
아 트</w>
T X</w>
Ad vertis
Innov ation</w>
adv enture</w>
there of</w>
Shi pping</w>
사항 은</w>
들이 여</w>
일어 났
man n</w>
g i</w>
Sam uel</w>
anty hose</w>
예루살 렘</w>
F ord</w>
수 와</w>
발표 했다</w>
F un</w>
말 이야</w>
중국 은</w>
tr usted</w>
조 종
R ing</w>
팽 창
되었 다고</w>
Jord an</w>
in tro
man i
y i
조용 한</w>
발생 합니다</w>
ent ures</w>
전체 를</w>
맛 있는</w>
low est</w>
전 적으로</w>
장 미</w>
Man ual</w>
비롯 한</w>
보 내</w>
R ubber</w>
fif th</w>
례 를</w>
In put</w>
수준 을</w>
ch ubby</w>
뮤 지
per ial</w>
석 유</w>
생 태
제공 한다</w>
F all</w>
U sed</w>
성 으로</w>
Custom ized</w>
gener ated</w>
dem ands</w>
수용 량</w>
시 가</w>
우 연
바르셀로 나</w>
Us ers</w>
af for
모 습</w>
문 화를</w>
규칙 을</w>
먹 지</w>
부 인
운 송</w>
단 어
ex treme</w>
회 중</w>
U L
acad emic</w>
소 매</w>
오늘날 의</w>
pro p
종 합
cam eras</w>
ex hibition</w>
개인 적</w>
다 니</w>
기다 려
선 물을</w>
장 애</w>
y ou
크 기를</w>
질문 은</w>
모 를</w>
v ary</w>
provid ers</w>
컨 테이
Ph u
un known</w>
intellig ent</w>
체 포
Je an</w>
좋 음</w>
Ang el</w>
bo y
h ang
는 다면</w>
원 과</w>
광 장</w>
하게 도</w>
이용 해</w>
sh ouldn</w>
현 금</w>
충 격
k ne
프로젝 트에</w>
Cle an</w>
s pl
둥 이</w>
유 다</w>
vis a</w>
attrac tive</w>
el ines</w>
마 스터
gener ations</w>
나 올</w>
핸드 잡</w>
강 의</w>
Q U
T ext</w>
G en</w>
k ins</w>
부 터의</w>
S olution</w>
p o</w>
불 과</w>
e z</w>
올 려
후 보
den y</w>
ㅋ ㅋ</w>
penet ration</w>
D ear</w>
디 스크
노 동</w>
원 한다면</w>
ch e</w>
PE T</w>
function ality</w>
sa ith</w>
b one</w>
typ ical</w>
취 약
포함 한다</w>
마음 으로</w>
gy m</w>
pus sy</w>
mid st</w>
Hos tel
민주 주의
기 분이</w>
보 충
중 입니다</w>
ast e</w>
엄격 한</w>
사항 에</w>
it z</w>
organ ic</w>
수 업</w>
브라우 저</w>
긴 다</w>
Auth or</w>
고 정</w>
Buil d</w>
St age</w>
본 래</w>
장소 에서</w>
m one</w>
pat terns</w>
pow ered</w>
depar ture</w>
실 질
ster dam</w>
sm ell</w>
발코 니</w>
항 구</w>
lo s</w>
부다 페
In side</w>
프로 필
I denti
St reng
비용 은</w>
oo m</w>
T on
주변 에</w>
성 격
이상 적인</w>
i b
아니 하고</w>
e a</w>
Jav a
핑 크</w>
행 정
re y</w>
마이 애
in ian</w>
experim ent</w>
P ope</w>
사 과
ger man</w>
j ack
Li ghting</w>
변화 는</w>
고 려</w>
dec or
Scrip ture</w>
구 두</w>
확 대
th esis</w>
업 계</w>
pres s
P in</w>
St and
가지 가</w>
저희 를</w>
h ill</w>
목 숨을</w>
로 버트</w>
hos pit
디자 인을</w>
장소 에</w>
pri de</w>
K ir
Exc el</w>
Mex ican</w>
베 풀
히 도</w>
em ph
Proper ty</w>
인 형</w>
소 득
Ros es</w>
signific antly</w>
물 었다</w>
이르 기까지</w>
Ap k</w>
정책 은</w>
cha pter</w>
삽 입</w>
ch er
cent ers</w>
주 에서</w>
사용 자
호 스트
Isa ac</w>
Buil t</w>
ma id</w>
사랑 과</w>
놓 은</w>
Ta x</w>
리 버
속 도로</w>
배 우</w>
윌리 엄</w>
fal ls</w>
기계 는</w>
분 들
Anton io</w>
ic one</w>
슬 픔
m un
A verage</w>
C ele
구 별
I b
가르 쳐</w>
둘러 싸
물건 을</w>
in str
후 쿠
v ity</w>
동 맹
r are</w>
st ages</w>
부 츠</w>
de eds</w>
e i</w>
cre am</w>
v oc
이 론</w>
배 출
클로 즈
gr anted</w>
토 리</w>
mas sive</w>
wor ried</w>
주님 은</w>
u i</w>
pe oples</w>
S can
m at</w>
dr am
스페인 어</w>
Cer tification</w>
N AT
c ats</w>
W ood</w>
Wil d</w>
천 사</w>
in n</w>
L i</w>
미 친</w>
Ri o</w>
m ouse</w>
Vi v
l amp</w>
침 실</w>
H ous
De ut
D el</w>
In dex</w>
주 택
occ er</w>
인터 뷰</w>
짜 리</w>
보 겠습니다</w>
Por t
R ating</w>
e fully</w>
시험 을</w>
Al liance</w>
modi fied</w>
Up dated</w>
c ope</w>
편 지</w>
rela tively</w>
T en</w>
Cap tain</w>
아니 오</w>
g ated</w>
없 애
Pro to
desig ner</w>
p en</w>
mo tor
터 에</w>
Tor onto</w>
라 고
에피 소
an ian</w>
범 주</w>
첫 째
D est
her o</w>
c us</w>
쓰 지</w>
less on</w>
다 스
Alpha Porno</w>
그 곳에서</w>
up grade</w>
다음 의</w>
의 해서</w>
중 심</w>
농 업</w>
f estival</w>
없 으면</w>
구 분
예수 는</w>
테 마</w>
가 속
주 도
as ted</w>
위 해
나 갈</w>
센트 럴</w>
H ome
오스트 리아</w>
govern ments</w>
토 요일</w>
혼 합</w>
p acking</w>
이루어 진</w>
초음 파</w>
n es</w>
Lic ense</w>
Photo s</w>
en abled</w>
Peter sburg</w>
규 제</w>
integra tion</w>
Applic ations</w>
vi br
bass y</w>
데이터 베이스
sch ol
아 가</w>
av o
입 장
각 자</w>
집 이</w>
공 연</w>
달 을</w>
s co
원 인</w>
elec tro
향 하여</w>
Every body</w>
아 기
충 만
re fer
gr at
상 담</w>
나라 에서</w>
인 들</w>
Vi enna</w>
op ens</w>
S mart
실 이</w>
m ation</w>
몸 에</w>
정보 의</w>
라이 브러
col umn</w>
작품 을</w>
즐기 실</w>
design ated</w>
h ere
st aying</w>
t ables</w>
y n</w>
ang el
온 갖</w>
n an
k ore
저희 의</w>
A E</w>
Sh el
pl as
sex y</w>
st ant</w>
펼 쳐
des pite</w>
말미암 아</w>
deb t</w>
총 을</w>
금 의</w>
A x
produc tive</w>
a to</w>
노 인</w>
얻 고</w>
증 언
L ess</w>
k illing</w>
w ra
사 기</w>
하나 도</w>
지정 된</w>
보내 고</w>
bre ath</w>
전략 을</w>
St ock</w>
uni versities</w>
inte ll
산 이</w>
Pl ant</w>
대 륙
Prof essor</w>
s can</w>
Y am
놀 이
E state</w>
in no
st y</w>
우 려
incre dible</w>
신 성한</w>
승 리</w>
H ak
어 떨
pos al</w>
sho ts</w>
바 와</w>
엔지니 어링</w>
대통령 이</w>
comm is
ro ws</w>
re ti
Di ego</w>
그 로</w>
sal t</w>
appro val</w>
Ba g</w>
알고리 즘
Wi fe</w>
s on
창 조</w>
게임 에</w>
equi valent</w>
주 셨습니다</w>
차 트</w>
초 과
char t</w>
mo ves</w>
출 발</w>
가격 에</w>
가져 올</w>
이 젠</w>
V olume</w>
In surance</w>
대 기
만 났
집 은</w>
아무 리</w>
탐 험
Su preme</w>
tem per
cro s
보 이</w>
Gi ft</w>
귀 하는</w>
S H</w>
a tivity</w>
th in</w>
투 명
Spr ings</w>
M AR
두 바이</w>
운 이</w>
남 자는</w>
F ish</w>
깨끗 한</w>
v d</w>
wh enever</w>
pa int</w>
Car ol
컬렉 션</w>
벽 을</w>
값 은</w>
넣 어</w>
위험 이</w>
Man h
ag ency</w>
단 다</w>
상 점</w>
자체 가</w>
l ers</w>
언젠 가</w>
communic ations</w>
가톨 릭</w>
엄마 가</w>
th on</w>
시 며</w>
유연 한</w>
PC S</w>
Philipp ines</w>
Sec tion</w>
y al</w>
M PEG</w>
자 기를</w>
휴 가</w>
ap h
ex clusive</w>
it ter</w>
재 정
d uration</w>
dam aged</w>
w er</w>
Bet ween</w>
bre aking</w>
sha me</w>
Mar s</w>
활성 화</w>
onom y</w>
pa th
curren cies</w>
역 에</w>
만들 었다</w>
오 니</w>
삼키 기</w>
프 랭
기업 이</w>
defini tion</w>
Canc er</w>
그 대</w>
AC K</w>
re member
the ast</w>
헌 신
sign als</w>
공 을</w>
달 콤
fl ying</w>
ref used</w>
자신 과</w>
밸 브</w>
객실 이</w>
인 조</w>
h ast</w>
p aying</w>
Car bon</w>
Proc ess</w>
st at
He ight</w>
draw n</w>
arm ers</w>
하였 더라</w>
Me an
절 벽</w>
성 당</w>
ver e
한 데</w>
C utting</w>
UE FA</w>
mor t
ex tent</w>
최적 의</w>
v y</w>
Am sterdam</w>
가운데 서</w>
AC E</w>
t ape</w>
내 려</w>
샌 드
des ktop</w>
consci ous</w>
in i
V AC</w>
celebr ate</w>
dis plays</w>
comm itment</w>
ed a</w>
mi x</w>
orig in</w>
su icide</w>
urb an</w>
ra il
ub ble</w>
조언 을</w>
fo rec
베 리</w>
Al tern
인 종</w>
그룹 은</w>
Environ mental</w>
대단 히</w>
미 사
중 단</w>
bri d</w>
ex t
헤 드</w>
극 히</w>
Res orts</w>
ul timately</w>
exc e
ex pos
fec ture</w>
교 사
욕실 을</w>
암호 화</w>
헤 드
편 의
맞 이
프랑 스의</w>
is ms</w>
C ash</w>
Hostel world</w>
텅스 텐</w>
삼 성</w>
Dem ocratic</w>
fav or</w>
conveni ence</w>
M t</w>
H it</w>
to s</w>
우 주의</w>
D id
bur gh</w>
collabor ation</w>
있 기를</w>
얻 게</w>
pr o</w>
로 서의</w>
Comm un
s now</w>
기 부
잠 을</w>
environ ments</w>
군 이</w>
영 구
형 의</w>
De c</w>
olog ist</w>
이전 의</w>
카 드
P RE
resp ec
w ich</w>
품질 을</w>
concer ns</w>
no vel</w>
Sk in</w>
en th</w>
평 한</w>
집 단
렬 한</w>
신 규</w>
fur n
Chi ef</w>
sla ve</w>
suff ered</w>
돼 요</w>
깨 어
인 테
ov a</w>
ly n</w>
neigh bor
터 치
t us</w>
소 파</w>
Ci vil</w>
Pro ph
li ght
보 조</w>
P ain
en ess</w>
g ent</w>
ingredi ents</w>
ob viously</w>
책 상</w>
B and</w>
끝 까지</w>
M uch</w>
그분 께서</w>
emo tions</w>
sup porting</w>
Re pair</w>
물 러
offici ally</w>
te ars</w>
고 난
Him self</w>
해 줍니다</w>
그 램</w>
he els</w>
St and</w>
v ast</w>
enti ally</w>
Exc ept</w>
no ted</w>
질 병</w>
ust oms</w>
베 푸
즐 기는</w>
cal endar</w>
sk inny</w>
So on</w>
inf ection</w>
장 기
파 키스
f ate</w>
포 스트</w>
expl ains</w>
su m</w>
ond ary</w>
위험 에</w>
Har v
Tom orrow</w>
권 리가</w>
Col l
bel ong</w>
sub mit</w>
기 존의</w>
U M
F ant
Swe et</w>
부근 의</w>
M es
자 매
fr on
E co</w>
Tr ack</w>
안 테
No v</w>
아 닐
휴 일</w>
T A
ic ycle</w>
ti ed</w>
por n
잡 지</w>
def ense</w>
절 단
클릭 하십시오</w>
proc essor</w>
Frequ ency</w>
L ater</w>
영 어로</w>
e dition</w>
느낌 을</w>
offic er</w>
t ress</w>
상 승</w>
ec tual</w>
IT E</w>
Portu gal</w>
흑 인
빠 져
일 상</w>
Regi stration</w>
elev ator</w>
Tog ether</w>
inv est</w>
co ins</w>
배 치</w>
mon t</w>
we stern</w>
셔 츠</w>
거 늘</w>
니 다만</w>
믿 는다</w>
ti veness</w>
Rom ans</w>
올해 의</w>
사이 버</w>
re jected</w>
들 로부터</w>
swal low</w>
cer tified</w>
샌프란시스 코</w>
도서 관</w>
D ue</w>
승 객
Hal f</w>
그 린
is ure</w>
man if
되었 지만</w>
연 예
콜 롬
proto col</w>
출장 안마</w>
미니 바</w>
win ner</w>
연 설
연결 되어</w>
dem ocracy</w>
트 렌
ten tion</w>
ti li
경향 이</w>
체 육
a i
Bro ok
possi bly</w>
해당 되는</w>
Cr ystal</w>
ec ular</w>
K az
coo king</w>
위키 백과</w>
gen der</w>
장 기</w>
외 국</w>
d age</w>
운영 하고</w>
Over view</w>
kin i</w>
호 출
소 로</w>
폭 력
집 합
c ake</w>
p ers</w>
ris ing</w>
Cl ass
아이 의</w>
p is
이르 는</w>
Rou te</w>
S I
장치 에</w>
사 양</w>
어 에서</w>
Trans fer</w>
수 동</w>
레 인지</w>
E ye</w>
At lan
하 길</w>
O M</w>
고 백
관 리를</w>
년 도</w>
duc tion</w>
f ies</w>
Emer gency</w>
H ang
por ter</w>
사 대</w>
광 고를</w>
en th
re gre
Fab ric</w>
Vin tage</w>
게스트 하우스</w>
in door</w>
F light</w>
f rench</w>
타 이</w>
D N</w>
Stu dios</w>
bur ning</w>
제 게</w>
Sh in
em on</w>
employe e</w>
Champion ship</w>
장소 는</w>
fru its</w>
안 식
Rev elation</w>
균 형을</w>
Drop box</w>
fr ag
sk i
ra tio</w>
X L</w>
S ust
wor lds</w>
Oc t</w>
Curren tly</w>
notic ed</w>
체 제</w>
젖 은</w>
걸 까</w>
기 후
파 타
불 리
St ars</w>
h all</w>
loy ment</w>
wat ched</w>
텍 스</w>
활동 에</w>
거짓 말을</w>
gener ate</w>
먹 기</w>
co ol
Co sta</w>
터 치</w>
ill ust
공식 적으로</w>
발 의</w>
게시 물</w>
그대 가</w>
렸 고</w>
de aths</w>
기준 으로</w>
유 틸
Manh attan</w>
센터 에서</w>
smo ke</w>
cent uries</w>
e ties</w>
치 기</w>
과 일</w>
u pper</w>
진 정</w>
관계 에</w>
버전 의</w>
합 성</w>
f lights</w>
ul ed</w>
Premi er</w>
de pression</w>
밀라 노</w>
n b
aw esome</w>
r ubber</w>
선 반</w>
Br ing</w>
중 대한</w>
보 편
a oh</w>
th inks</w>
원 자
stan bul</w>
것 을
무 덤
Vo ice</w>
di versity</w>
프로젝 트의</w>
추 진
나 는이</w>
Any Porn</w>
수 십
ag g
단계 는</w>
두려 워</w>
클로즈 업</w>
D er
대 개</w>
공 공
choo sing</w>
현 장</w>
shoo ting</w>
시간 으로</w>
일어나 고</w>
ther mal</w>
Re ading</w>
rela x</w>
스 파이
이 거나</w>
Cor in
VM ware</w>
dis counts</w>
re placed</w>
Corpor ate</w>
Gues thouse</w>
움 은</w>
tra ins</w>
bel oved</w>
취 할</w>
W A</w>
r ics</w>
약 물</w>
프로세 스</w>
Off ering</w>
얻 으
사회 에</w>
acc id
house hold</w>
v ital</w>
용 으로</w>
Ma ximum</w>
Fr ame</w>
Heav y</w>
vo tes</w>
퍼센 트</w>
쪽 에서</w>
s ing
스코 틀
X Cafe</w>
recogni tion</w>
서 명
st ones</w>
커 플
Col om
러 는</w>
satis faction</w>
증 이</w>
티 타
파 일은</w>
pregn ancy</w>
A F</w>
성경 은</w>
마 땅
In door</w>
ten nis</w>
trans action</w>
wit nesses</w>
Wid th</w>
가 자</w>
N ig
괴 물</w>
친절 한</w>
스트리 트</w>
인류 의</w>
resid ents</w>
자연 적인</w>
레 슬
F ine</w>
ID E</w>
Lis bon</w>
I de
D T</w>
안 됩니다</w>
Feder ation</w>
가 야
오 페
leg s</w>
P OR
책임 이</w>
dir ty</w>
supp lied</w>
드레 스
am ai</w>
코 끼
T D</w>
offici als</w>
최초 로</w>
n om
게 스트</w>
복 원</w>
프 가</w>
여 부를</w>
Xia omi</w>
ste p
그렇 다</w>
평 점</w>
B y
멀 티</w>
인 정</w>
교 황
내 게
모 으
이슬 람
N AS</w>
계 급
so red</w>
uni or</w>
li sts</w>
베 드
함 의</w>
템 플
감사 드립니다</w>
됐 습니다</w>
rec eption</w>
iz za</w>
ambig uation</w>
시 킨다</w>
인터넷 을</w>
너 도</w>
W P</w>
Pri ze</w>
스 노
주파 수</w>
마 라
아메리 카
entr ance</w>
절 을</w>
해 지고</w>
발견 했습니다</w>
E u
ob served</w>
Argent ina</w>
유 일
전 은</w>
설 득
두 는</w>
D M
소 년
않았 고</w>
umin ium</w>
lo gic</w>
s ought</w>
Me et</w>
Phu ket</w>
tor ies</w>
꾸 준
r ick</w>
바 란다</w>
미국 이</w>
열 정
B ru
consequ ences</w>
높 아
R e</w>
b earing</w>
mar ked</w>
알 리
ed itor</w>
가 있다</w>
인 용
pres ent
발생 한</w>
ic ul
High way</w>
전화 번호</w>
Loc k</w>
ut ing</w>
ol dest</w>
갈 라
d well</w>
m ate</w>
산 책</w>
두려워 하지</w>
volun te
예 비</w>
체 중</w>
gg age</w>
마 디
si r</w>
권 이</w>
레지 던
Be yond</w>
니 의</w>
mo der
ograp hic</w>
모델 은</w>
Connec tor</w>
믿음 이</w>
합 의
프로젝 트
환 자의</w>
D ual</w>
M BA</w>
sh ire</w>
d w
감 지
at ings</w>
Con c
강 하게</w>
하여 라</w>
G il
g ather</w>
아키 텍
윤 간</w>
S ak
refriger ator</w>
strate gies</w>
v acc
co ating</w>
pl ates</w>
사랑 하고</w>
dis ambiguation</w>
미 를</w>
학 의</w>
주 제</w>
Meth od</w>
기술 에</w>
들어 갈</w>
t u</w>
판 결
전 했다</w>
느 낌</w>
vac ation</w>
시 스</w>
Fin ance</w>
broad cast</w>
sc ared</w>
사람 에</w>
전 설
추 억
양 성
Sh ell</w>
erv es</w>
단계 에서</w>
D a</w>
c ig
um ps</w>
권 은</w>
발 렌
G ay</w>
ht ml</w>
호텔 에는</w>
Controll er</w>
asp ect</w>
s and</w>
개발 을</w>
자동 차로</w>
스토 리지</w>
Pers on
썼 다</w>
시 킨</w>
f ting</w>
쳐 서</w>
bar s</w>
f itness</w>
R ain
t ance</w>
Com b
j et</w>
M ale</w>
제품 과</w>
검색 하세요</w>
마 가</w>
Def ense</w>
F emale</w>
초 에</w>
들 려
dist ributed</w>
fur t</w>
ro t
하 지도</w>
수행 하는</w>
S ac
교회 를</w>
학 을</w>
Mic h
M echan
마 켓</w>
Econom y</w>
대해서 도</w>
We ather</w>
nec k</w>
자 로서</w>
Ar th
fe edback</w>
번째 는</w>
R E</w>
아 냐</w>
comm ands</w>
리 티
튼 튼
P ati
샤 워
청 구
행 성</w>
fuc ked</w>
proc la
요청 을</w>
감 시</w>
T ig
목 소리를</w>
m Ah</w>
그 녀</w>
회 장</w>
모세 가</w>
시 로</w>
범 위를</w>
ph r
ar ity</w>
전 파
파 운
Re ady</w>
Go vern
Vir gin
원 피스</w>
값 이</w>
Com fort</w>
resist ant</w>
sk irt</w>
역사 적</w>
Ha wa
uc king</w>
않 은
목 격
Di e</w>
gen e</w>
assi onate</w>
I ce
y oga</w>
t ough</w>
전문 적인</w>
무 기
E ve</w>
ev es</w>
fant astic</w>
G DP</w>
hy po
디자이 너</w>
목록 에</w>
잡 아</w>
준비 를</w>
em ails</w>
그 려
F I
dev il</w>
차 례
ra d
struc tures</w>
동 반
pan ties</w>
b ound
direc tory</w>
몸 이</w>
T ub
b oss</w>
eleg ant</w>
아 크
원 치</w>
ra il</w>
Java Script</w>
이동 할</w>
Gre y</w>
지 며</w>
oo ter</w>
har der</w>
길 에</w>
폭 력</w>
몰 카</w>
IE S</w>
세 르
오 키
jud g
쉽 지</w>
낭 비
무 슬
플랫폼 을</w>
위 반
트 럭
I stanbul</w>
아이 디어</w>
주 와</w>
Ste am</w>
받으 실</w>
예정 이다</w>
Pr int</w>
걸 까요</w>
A y
지키 는</w>
Mor ning</w>
ther more</w>
Pa ren
re ment</w>
Regi on</w>
ter ing</w>
나 면</w>
부 른다</w>
Sec ure</w>
사실 이</w>
나라 에</w>
pol itici
구입 할</w>
Cap e</w>
mean ing
에 어</w>
pen sion</w>
sha dow</w>
시스템 에서</w>
Op tions</w>
G SM</w>
p ples</w>
A H
des ires</w>
min ing</w>
Z ur
Po p</w>
os si
리셉 션</w>
세 척
Pra yer</w>
Wor ld
enter ing</w>
베트 남
페이 지
들 었습니다</w>
여 자를</w>
가르 치는</w>
o e</w>
P H
Sh ower</w>
u tr
기준 을</w>
마 시는</w>
인 지
이스 탄
Min im
r ussian</w>
다니 는</w>
ri sts</w>
ter race</w>
클래 식</w>
Z oo</w>
아닌 가</w>
하시 니라</w>
기 타
eli tes</w>
W ell
C ard
행 위를</w>
공항 까지</w>
전 에서</w>
읍 니까</w>
채 용
Ph ase</w>
플 레
exper tise</w>
er ings</w>
E uro</w>
Tra v
P in
Compan ies</w>
다 녀
마 약</w>
red head</w>
po verty</w>
ab solute</w>
EN T
Bloc kchain</w>
둥 근</w>
C ategories</w>
P on
E dge</w>
ch icken</w>
Speci fications</w>
Phar aoh</w>
An cient</w>
정 리</w>
마 를</w>
Cor p</w>
친 화
saf ely</w>
F uck</w>
소 비</w>
아이 들의</w>
Str uc
국가 에</w>
pass engers</w>
l ens</w>
변 형
안전 을</w>
인생 에서</w>
consum ers</w>
정 격</w>
말 이
M ig
진 심으로</w>
Co in</w>
고 린
클릭 합니다</w>
consci ousness</w>
proced ures</w>
지 니라</w>
Comple te</w>
ass ist</w>
Ham p
leg is
칭 찬
목표 로</w>
설치 된</w>
Mo z
합리 적인</w>
숭 배
치 에</w>
M and
im port</w>
열 차</w>
점 심</w>
simul tane
살아 있는</w>
ad minist
테 라
명확 한</w>
죽음 의</w>
압 니다</w>
refu ge
니 어</w>
똑똑 한</w>
생 긴</w>
여성 은</w>
ex tra
an n</w>
차 도</w>
행복 을</w>
Off ic
ch ro
회 복</w>
def ine</w>
ti lity</w>
대 사</w>
Ir ish</w>
R ated</w>
o ta</w>
이 민</w>
W ere</w>
인 들에게</w>
지어 다</w>
ab und
친 다</w>
패 드</w>
ch oc
M ass
나 사</w>
P al</w>
극 단
선 에</w>
let t</w>
가라 사대</w>
모 여</w>
F R</w>
가족 은</w>
주 간</w>
Li th
실 수를</w>
arg ument</w>
Whe el</w>
Air lines</w>
M rs</w>
적합 합니다</w>
Mach inery</w>
이 처럼</w>
Cont acts</w>
authen tic
상 업</w>
기다 리는</w>
Sh aring</w>
사용 자를</w>
thre ats</w>
w ard
Ar m
est ate</w>
수 요
mer ely</w>
페이스 북
i fied</w>
시 편</w>
제 네
화 에</w>
R ental</w>
c c</w>
페이스 북</w>
fair ly</w>
survi val</w>
Mon th</w>
좋 을</w>
순 수
치 유
파 운드</w>
일 할</w>
R ab
Pi ece</w>
gra phic</w>
절대 적으로</w>
빛 의</w>
상 처
E T</w>
박 사는</w>
상태 에</w>
SD K</w>
교 도
게임 이</w>
char ges</w>
vari able</w>
P re</w>
expec tations</w>
재 단</w>
축 구
Bu ff
Rec over</w>
m ount</w>
발 송
Val ve</w>
일 관
for cement</w>
들 지</w>
할 수
Exp o</w>
ar ly</w>
dis aster</w>
log ical</w>
휴 식을</w>
배 운</w>
시 기에</w>
인 데요</w>
coun ter</w>
bro ad</w>
Adv enture</w>
C K</w>
ropol itan</w>
ab use</w>
아 저
보 실</w>
말 레이
Des ktop</w>
nam ent</w>
sp aces</w>
떠 날</w>
세 륨</w>
H K</w>
무엇 이든</w>
중국 에</w>
produc tivity</w>
Wr ite</w>
지 닌</w>
D ell</w>
변화 에</w>
Anim al</w>
ash es</w>
히 고</w>
장소 입니다</w>
분 쟁
속 성</w>
나이 트</w>
z y
일 을
peace ful</w>
가능 하다</w>
ain ts</w>
엑 스
ate way</w>
보 수</w>
Ad ults</w>
않았 지만</w>
con tained</w>
pe ts</w>
스테 르
E ric</w>
Th eme</w>
재 산</w>
이야 기가</w>
컨 벤
expan sion</w>
S X</w>
K nowledge</w>
Sy ria</w>
S G</w>
ar ts</w>
por nia</w>
R ather</w>
플 랜</w>
H ills</w>
사 로
프로젝 트는</w>
대학 에서</w>
취 득
car ton</w>
vers es</w>
Den mark</w>
시키 지</w>
thre n</w>
L ind
제 와</w>
내 어</w>
라이 선
미 칠</w>
이 내</w>
F low</w>
se ats</w>
D up
질문 이</w>
부끄 러
Ju li
A er
Win dow</w>
re lation</w>
E ss
rap id</w>
wer en</w>
V P</w>
J in
만 난</w>
아니 라고</w>
타이 어</w>
cou gar</w>
이 니
하 매</w>
P ate
lo s
T agged</w>
브 를</w>
bl ame</w>
lic king</w>
em bo
별 도</w>
H us
공격 을</w>
per mitted</w>
thank ful</w>
Mic hel
Bot tle</w>
과 거의</w>
Di ameter</w>
웹사이트 에</w>
smart phone</w>
싱 글
remo val</w>
가 짜</w>
rela tive</w>
어 드
shi ft</w>
che on</w>
le ments</w>
이 른</w>
C um
S PE
Ar c
생 겨
H aw
방 어</w>
fla g</w>
Le ad</w>
thir ty</w>
접 속</w>
G ul
weap on</w>
열 고</w>
스퀘 어</w>
공 사</w>
양 식을</w>
stri ke</w>
았 고</w>
투 표</w>
demon stra
th read</w>
cop per</w>
gi e</w>
달러 의</w>
죽 이
y ang</w>
과 도</w>
사 울
lan do</w>
any body</w>
쪽 의</w>
T Y</w>
럭 스</w>
십 시
흐 름
K at
D al
브 라이
보 려면</w>
가능 성</w>
꽃 을</w>
인도네 시아</w>
acc essories</w>
micro wave</w>
해결 책</w>
pass ing</w>
좀 더</w>
D addy</w>
Smo king</w>
파이 어</w>
ex pressed</w>
mar ine</w>
dro me</w>
ta b</w>
당 뇨
이번 에는</w>
문제 의</w>
방 에서</w>
gr an
t in
의 견</w>
ex posed</w>
thr one</w>
화 하고</w>
임 대</w>
M esh</w>
도움 말</w>
M ind</w>
E at</w>
냈 습니다</w>
pres ents</w>
버 튼</w>
h r</w>
min s</w>
pr inc
오 바
phen om
h at
op her</w>
가 용
pe i</w>
wh oever</w>
origin ally</w>
세 는</w>
Al ice</w>
한 다
부 속</w>
Ti ps</w>
ag encies</w>
con vinc
어머니 는</w>
기 숙
M Y</w>
Anal og</w>
guil ty</w>
Re ader</w>
Ul tra</w>
탁월 한</w>
cl ou
d f</w>
em bar
채 팅</w>
추 측
Pro ble
걸 로</w>
Strate gy</w>
regi onal</w>
g ates</w>
ag ents</w>
bur ied</w>
했 습니까</w>
기쁘 게</w>
S G
go ver
흡 수
pri ority</w>
Histor ic</w>
씨 가</w>
ON LINE</w>
Pu er
it ar</w>
ha z
정 착
assu me</w>
con taining</w>
g ained</w>
Regi onal</w>
j ump</w>
실린 더</w>
친 한</w>
슈 타
해 줄</w>
K O</w>
appoin tment</w>
이사 야</w>
O kin
S HO
Wh ats
야 마
ep er</w>
loc ked</w>
손 잡
M ill
확인 하기</w>
us i
테이 프</w>
않 습니까</w>
V ID
Ar k
H old</w>
U su
크 림</w>
두 지</w>
보 건
션 에서</w>
여 기를</w>
sac red</w>
Fe b</w>
애 틀
Analy tics</w>
K ings</w>
Per i
Sou th
ha bits</w>
유지 할</w>
시작 하고</w>
교회 에</w>
재 밌
짓 을</w>
t z</w>
Archi ves</w>
um es</w>
적 인
신호 를</w>
테 스토
하겠 다</w>
우아 한</w>
Dat abase</w>
순 위</w>
pol lu
커 버
피 부
과거 에</w>
라이 프</w>
enh ance</w>
ad equ
항 목을</w>
wh erever</w>
sp lit</w>
bo tt
커 버</w>
tal ks</w>
CO P
um b</w>
힐 튼</w>
책 에</w>
Tay lor</w>
enjo ying</w>
sear ching</w>
t iny</w>
de em
B ell</w>
neighb or</w>
농 업
시 내
je al
l one</w>
st ate
때 의</w>
성 분</w>
Hung ary</w>
브 레
테스토 스테
AC T</w>
as signed</w>
청 년
GB P</w>
Mis s
K A</w>
er ts</w>
계획 은</w>
남 부</w>
b ad
그러 면서</w>
iz on</w>
M R</w>
Me di
고등 학교</w>
아 들은</w>
천 문
하시 나요</w>
M ak
ref use</w>
sol ved</w>
p p</w>
uni versal</w>
국제 적인</w>
Isra el
f ake</w>
나이 가</w>
절 약</w>
Sar ah</w>
ann e</w>
수 천
L yn
em ony</w>
ar gu
reve al</w>
고 향
이 있다</w>
가 에서</w>
형 성</w>
Or lando</w>
sta tic</w>
배 가</w>
ti ci
sp y</w>
o thy</w>
학교 를</w>
graph ics</w>
이용 한</w>
eng age</w>
qu is
안 녕</w>
밀 리
포 럼</w>
안 은</w>
전 기를</w>
D i</w>
남 아프리카</w>
F ear</w>
잠 깐</w>
Conver ter</w>
전 능
st anti
Sens or</w>
종교 적</w>
AM D</w>
Ta xi</w>
ir man</w>
te eth</w>
ren der</w>
R eli
pain ful</w>
트 윈</w>
C V</w>
Le on
Pl ate</w>
sub sequ
Li fe
Dis k</w>
dec ade</w>
런 트</w>
Dis co
Back up</w>
R h
F F
RIG HT</w>
pl ug</w>
Cin ema</w>
f ra
prin ter</w>
게임 에서</w>
m ere</w>
strong ly</w>
즐겁 게</w>
Vi ol
기 자</w>
버 린</w>
자 격</w>
F at</w>
gr ass</w>
Fin land</w>
Stri p</w>
파 란</w>
sa tions</w>
consum er</w>
exc eption</w>
금 지</w>
attrac tions</w>
기간 은</w>
Fun d</w>
스타 일을</w>
NO W</w>
pur su
어 딘
ent re
min ister</w>
코 일</w>
헤 어</w>
n aked</w>
사항 이</w>
fin ds</w>
스 런</w>
비행 기</w>
리뷰 를</w>
왔 고</w>
의 로</w>
예 측</w>
surr ounding</w>
데이터 의</w>
생 일</w>
아니 하였
in habit
점 으로</w>
Comm and</w>
hes ive</w>
sm ooth</w>
다 섯
거 리는</w>
빠 져</w>
삼 각
나타 났다</w>
없 으
방 은</w>
wi ves</w>
Dub lin</w>
순 서</w>
홀 로</w>
보여 주
Comm erce</w>
시작 하기</w>
이용 하는</w>
S l
라 틴
자동 화</w>
ox ide</w>
스 코</w>
ter y</w>
Vir gin</w>
et a</w>
hol ders</w>
어 떠</w>
임 명
Qu ar
의 약
루 트</w>
보 면서</w>
자신 에</w>
renov ated</w>
An na</w>
sof a</w>
Virgin ia</w>
Bal i</w>
포르투 갈</w>
Speci fication</w>
바 람</w>
회 개
Tra ding</w>
아 나
클 린
개념 을</w>
hol idays</w>
DE LIV
de aling</w>
Fal ls</w>
mor tal</w>
Lo ad</w>
b ou
min istry</w>
br ush</w>
겸 손
aff ili
검색 엔진</w>
이 들에게</w>
해 의</w>
sym bol</w>
선 형</w>
develop er</w>
투 스</w>
x x</w>
중 이다</w>
진 리
Communic ations</w>
설 비</w>
시 마</w>
설명 합니다</w>
Reg ular</w>
반응 을</w>
아이 들에게</w>
W ays</w>
Sp ir
내용 이</w>
러시아 의</w>
Ob ama</w>
co ach</w>
gr and</w>
coll ap
달 의</w>
사탄 의</w>
Nav y</w>
Br on
전 국</w>
d os
ten s</w>
SE O</w>
Y an
돌 이
Gra du
mar ry</w>
introduc tion</w>
될 까</w>
산업 의</w>
식 사
Cl ou
hibi ted</w>
단백 질</w>
아 세
이 므로</w>
ar chi
am oun
mur der</w>
AT M</w>
있 읍니다</w>
미 야
파 일에</w>
Steph en</w>
divor ce</w>
y an</w>
bo ards</w>
자연 의</w>
C G</w>
보 상
attri bu
Ind ustries</w>
위 기</w>
cr ying</w>
Li ght
조 작
존재 한다</w>
날짜 를</w>
h at</w>
마 카
J ob
U X</w>
ex am</w>
mod ules</w>
U pornia</w>
혈 액</w>
L an
만나 보세요</w>
conf ident</w>
렸 을</w>
sh ell</w>
she ep</w>
잊 어버
ter minal</w>
아 동</w>
흡 연
differ ently</w>
or m
환 상적인</w>
v c</w>
화려 한</w>
dist ingu
y ama</w>
Bes ides</w>
car rying</w>
chec ked</w>
말씀 은</w>
ang ers</w>
들어 가</w>
아테 네</w>
t ops</w>
testi mony</w>
용 접
vi c</w>
우 수
으로 의</w>
ish i</w>
Communic ation</w>
Frank furt</w>
스 폰
sil ent</w>
R A</w>
pro posed</w>
par ameters</w>
Fur thermore</w>
베 드로</w>
여 자와</w>
투 숙
감 정</w>
슬 롯</w>
perform ing</w>
O FF</w>
마 드리
victi m</w>
예 방</w>
R ace</w>
다 림
스 펙
난 교</w>
안 이</w>
kind ness</w>
연 속</w>
ec tions</w>
스키 니</w>
영역 을</w>
외 에는</w>
합 류
abe tes</w>
R T</w>
X i</w>
고 가</w>
보 도
교회 가</w>
다 음을</w>
모니터 링
f alling</w>
그것 들은</w>
숙박 시설</w>
as sa
을 때</w>
균 형
S la
약 의</w>
이 웃</w>
어 댑
원 칙</w>
thqu ake</w>
절 반</w>
Trans port</w>
걸 어</w>
갖춰 져</w>
br anch</w>
자 산</w>
migr ants</w>
성과 를</w>
무엇 보다</w>
자녀 가</w>
계 의</w>
mag netic</w>
Li on</w>
거 리가</w>
C iti
li v
E as
ab or
hand ling</w>
최소 한
하 네요</w>
스트 레스</w>
인증 서</w>
만 나</w>
전시 회</w>
도덕 적</w>
A par
Zur ich</w>
fic i
요구 하는</w>
하 든</w>
방 침</w>
이 곳에서</w>
천 연</w>
M IN
Ak amai</w>
보호 하기</w>
발 휘
부모 님
노르 웨이</w>
치 명
ho t
intro duce</w>
A rena</w>
Dri ving</w>
Mon itor</w>
di vision</w>
X T</w>
direc tions</w>
G F</w>
소비 자</w>
시 기
ke wise</w>
다루 는</w>
Colum bia</w>
p ink</w>
효율 적으로</w>
V I</w>
그것 도</w>
강 의
실 수</w>
clo sure</w>
다 중</w>
S ample</w>
T elev
ill ness</w>
Up on</w>
습 도</w>
ER S</w>
believ ing</w>
flat able</w>
for b
imple mentation</w>
인접 해</w>
Bel gi
고 의</w>
Goo d
in struction</w>
L T</w>
IC S</w>
과학 적</w>
아 미
st res
날 의</w>
ty ard</w>
T at
tw in</w>
Go t</w>
c ategories</w>
C rown</w>
갖 추
야 마</w>
ul ate</w>
So fi
coun ter
세계 가</w>
답 은</w>
경우 에도</w>
중 을</w>
A h
atter ies</w>
for got</w>
fav ourite</w>
리모델링 이</w>
Portugu ese</w>
저 렴</w>
or gy</w>
작동 합니다</w>
fla v
오 를</w>
mon s</w>
이 길</w>
analy tics</w>
territ ory</w>
불 렀
옛 날</w>
딜 도</w>
T ony</w>
R ich
가 을</w>
g ospel</w>
관광 객
ed es</w>
주식 회사</w>
W ind</w>
Co tt
consis tent</w>
scri pt</w>
필 라
되 는지</w>
적 이지</w>
해 드립니다</w>
즉 각
흘 러
offic ers</w>
off ices</w>
res cue</w>
기 대</w>
n ish</w>
말씀 에</w>
하늘 을</w>
pro ven</w>
T im</w>
세계 는</w>
ref ers</w>
나 가는</w>
B in
Op tim
자 매</w>
해 지는</w>
방 이</w>
Archi ve</w>
지역 은</w>
예수님 이</w>
Ma ster
최 초</w>
비키 니</w>
일 시
pl ing</w>
Autom otive</w>
고전 적인</w>
estab lish
har m
Ed ward</w>
C over</w>
작업 이</w>
Lab or
거리 에는</w>
바이 트</w>
e ks</w>
믿음 으로</w>
셋 째</w>
넘 어</w>
프랑스 어</w>
페 테르
민 족</w>
Ra w</w>
M i</w>
뭐 라고</w>
Nor th
Er ror</w>
Atlan tic</w>
이르 기를</w>
지 점에</w>
S V</w>
가 끔
었 는데</w>
친구 들과</w>
del icious</w>
끄 는</w>
K R</w>
form at
in c</w>
트 랙</w>
Auth ority</w>
인 물
fac ed</w>
불 이</w>
순 간에</w>
전쟁 이</w>
조직 의</w>
인간 을</w>
조 합</w>
S U</w>
B U
out standing</w>
걸 어서</w>
fir m
ham ed</w>
fall en</w>
승 마</w>
att ached</w>
바 라는</w>
야 한다</w>
절 차를</w>
Ag ent</w>
당신 이
ti ous</w>
푸 른</w>
gra ve</w>
체 험</w>
un ning</w>
구 름
A sp
pl ug
repres ented</w>
Ben ef
스 틱</w>
앤 드</w>
대학 원</w>
v as</w>
피 터</w>
Dis cover</w>
입 장</w>
cha m
W ind
Al bert</w>
e ggs</w>
권 에</w>
복 사</w>
지 은</w>
어려 움을</w>
자 리한</w>
계 십니다</w>
하 기가</w>
Arab ic</w>
B om
an te</w>
운 송
프라 하</w>
구조 를</w>
여 기는</w>
Cle an
되었 다는</w>
빨간 머리</w>
유 발
희망 을</w>
얘 기를</w>
닥 터</w>
author ized</w>
contr ast</w>
cam pus</w>
AS T</w>
comm it</w>
indic ate</w>
인생 은</w>
cont ribute</w>
다 의</w>
포 켓
분 명한</w>
구 경
추 종
학생 들에게</w>
실 패</w>
전 까지</w>
받아 들이
설계 되었습니다</w>
est ly</w>
F LOR
내 부
w an
arm ed</w>
sil ence</w>
R ay
gu ided</w>
hol der</w>
in fl
문 에서</w>
않는 다고</w>
ㅠ ㅠ
Ster oids</w>
혜 택</w>
티타 늄</w>
oper ator</w>
d ual</w>
Remo ve</w>
상 세</w>
public ation</w>
함 이라</w>
텐 데</w>
가르 침
지 급
Agr icul
사 우스</w>
B Y</w>
숙박 을</w>
모르 지만</w>
con qu
돕 기</w>
오 면</w>
께 로</w>
ket ball</w>
Br anch</w>
apart ments</w>
충 성
과정 에</w>
oxy gen</w>
점 입니다</w>
newsp aper</w>
사업 자
일 자</w>
메시 지가</w>
어 져</w>
생각 에</w>
accep table</w>
am less</w>
lim its</w>
St ock
고 합니다</w>
ci ful</w>
빅토 리아</w>
Manufactur ing</w>
mi x
AN A</w>
M I
역사 상</w>
페이 지에서</w>
어 플리케이
Op ening</w>
텍사 스</w>
Res erve</w>
j ah</w>
col our</w>
F BI</w>
섹 스
fas test</w>
하이 힐</w>
H our</w>
말하 길</w>
신 부</w>
cal m</w>
stor m</w>
도움이 됩니다</w>
B it</w>
J ane</w>
디 젤</w>
잡 아
h em
클라이언 트</w>
r ab
P ed
구체 적인</w>
전략 적</w>
Co in
영 계</w>
n y
얼굴 마사지</w>
무서 운</w>
separ ated</w>
예수 를</w>
들 에게는</w>
Res olution</w>
Gr ace</w>
Alo tPorn</w>
ex it</w>
pa irs</w>
더 욱
B ath</w>
기업 은</w>
impro vement</w>
부 과
mathema tics</w>
Ox ford</w>
리 드</w>
Lin col
Consi der</w>
Grow th</w>
de al
은 퇴
f s</w>
MA X</w>
류 를</w>
S it
납 품</w>
reli ability</w>
직원 이</w>
Sle ep</w>
우 기</w>
유대 인</w>
trans actions</w>
관계 는</w>
최 대의</w>
Pal m</w>
all as</w>
오류 가</w>
GN U</w>
되었 던</w>
채 용</w>
i ties</w>
불 법</w>
z ation</w>
brow se</w>
시 민</w>
R ules</w>
os is</w>
W C</w>
connec ting</w>
Part ner</w>
통 찰
교 체
GO D</w>
일 리
has n</w>
impro ving</w>
Usu ally</w>
스트 랩</w>
대 만</w>
cre w</w>
cast le</w>
d ale</w>
마이애 미</w>
지 내
cent age</w>
ta xes</w>
상 하이</w>
u oka</w>
초 등
pre sid
K OR
법 인</w>
충 실
b ill</w>
iz on
L ap
boo ts</w>
하고 는</w>
Viet nam
ow ed</w>
경 기를</w>
Ge ts</w>
왕 은</w>
Gra ph
귀 한</w>
k h
마 주
sta tistics</w>
일 들이</w>
f inger</w>
열 어</w>
A void</w>
S oul</w>
eng aged</w>
ex trac
티 드</w>
스토 리</w>
편 지를</w>
Bro ther</w>
co ck
일 이
Bl onde</w>
K m</w>
Proph et</w>
claim ed</w>
R SS</w>
Op tical</w>
cou ples</w>
sh uttle</w>
포 커</w>
인증 을</w>
것이 었습니다</w>
마 우스</w>
이 삭
V inc
t to</w>
Prec ision</w>
f u</w>
음 료
의 사가</w>
헝가 리</w>
fre ely</w>
겠 다는</w>
중 지
산 타</w>
살 해
루 스</w>
Corin th
Willi ams</w>
al tar</w>
도 전</w>
colle agues</w>
k o
ph ant</w>
측 면에서</w>
란 드의</w>
팀 에</w>
discus sed</w>
AS E</w>
pp y</w>
J un
que en</w>
사 정</w>
Comp are</w>
i fication</w>
speci alized</w>
m u
O sc
cip al</w>
인 트
A w
사용 된</w>
음식 점</w>
하는 지에</w>
Jer sey</w>
indic ates</w>
원 숭
것이 니라</w>
pack ages</w>
객실 에서</w>
DELIV ERY</w>
아프 가
맞춤 형</w>
ud es</w>
An th
pati ence</w>
사람 으로</w>
Mo tion</w>
ess ors</w>
el e</w>
우리 는
Ep isode</w>
되 는데</w>
주시 고</w>
atten ded</w>
mon thly</w>
Sa vi
id ation</w>
Clim ate</w>
feat ured</w>
연 속
권 능
다 소</w>
좌 석</w>
der ness</w>
t ant</w>
Lay er</w>
비 극
기 획
밤 을</w>
잠 언</w>
t led</w>
tr ust
개 최</w>
포함 하고</w>
H ab
S wi
ex e</w>
분 해
체 육</w>
Fa x</w>
이 한</w>
하늘 에서</w>
인 스턴
w anna</w>
min us</w>
H ay
ribut or</w>
pres entation</w>
알 라
패 밀리</w>
나 마</w>
app ed</w>
conver ted</w>
이 익</w>
Sec retary</w>
Ur ban</w>
apost les</w>
cre ature</w>
IV E</w>
O d
War ranty</w>
ION S</w>
g an</w>
ular ity</w>
af ford</w>
C ann
Feat ured</w>
h ang</w>
proc essed</w>
래 의</w>
성경 을</w>
b are
res ort</w>
닉 스</w>
C N</w>
transla ted</w>
결과 로</w>
믿음 의</w>
수 단
화 합
층 이</w>
곁 에</w>
우리 가
호 수</w>
줄 일</w>
D ress</w>
Vi ew
Sol id</w>
한 가요</w>
카 트
체 스터</w>
confir m</w>
dam n</w>
C ut</w>
돌아 갈</w>
지 진</w>
모 자</w>
영화 의</w>
Cam p</w>
ear ned</w>
correc tly</w>
Isra elites</w>
B ig
T I</w>
는 다는</w>
F le
일부 가</w>
t less</w>
Cle ar</w>
Im port
플라 자</w>
계획 에</w>
형 식으로</w>
roman tic</w>
장 치는</w>
차 례</w>
Poli tical</w>
되 면서</w>
re stored</w>
좋 게</w>
Im perial</w>
프로세 스를</w>
AV I</w>
Ma thema
Plan ning</w>
che ating</w>
den sity</w>
R ig
qu ery</w>
더 러운</w>
R an
K night</w>
섹시 한</w>
제 휴</w>
quali fied</w>
ro be</w>
이 래</w>
출 력
ad ministr
웨 스턴</w>
L F</w>
아버지 와</w>
Franc is</w>
문화 적</w>
B P</w>
동성 애
comp liance</w>
condition ing</w>
느끼 고</w>
거 스</w>
들어 가는</w>
무엇 일까</w>
Ber n
였 어요</w>
의 원</w>
ad ds</w>
해야 하는</w>
도 심
ta il
대 처
다 수</w>
누군 가를</w>
특 성을</w>
Musli m</w>
등 으로</w>
아 내가</w>
세 에</w>
보호 하는</w>
WH O</w>
quar ter</w>
ro sion</w>
deep er</w>
hard core</w>
necess arily</w>
맞 아</w>
f old</w>
awa reness</w>
W ars</w>
전 한</w>
Mar io</w>
repe at</w>
b ye</w>
Y esterday</w>
form ats</w>
hard ly</w>
덧붙 였다</w>
않 다는</w>
아프가 니스
유 로
b os
초 래
it ance</w>
여호와 께</w>
Tai pei</w>
것이 기</w>
independ ence</w>
cele bra
중 량</w>
sugg es
분 할</w>
re ject</w>
beli efs</w>
동 부</w>
아이 콘
bre thren</w>
tal ent</w>
업그레이 드</w>
execu tive</w>
빌 라
com mod
E ver</w>
F it
산 출</w>
흔 들
ff s</w>
v ar
wor ker</w>
음 에</w>
어머니 의</w>
바 에서</w>
re in
sin ners</w>
실 수
작업 은</w>
com pe
F on
so il</w>
거 품</w>
th a</w>
si onal</w>
Inter face</w>
사람 들에</w>
음 은</w>
refl ect</w>
az z</w>
j s</w>
프로토 콜
Th ank
shoul der</w>
추가 로</w>
affor dable</w>
도 둑
F AT</w>
제외 하고</w>
슬 리
파 는</w>
필요 에</w>
ful filled</w>
까 만</w>
poss ess</w>
뉴욕 의</w>
ab olic</w>
lar ation</w>
드라 마</w>
tour ist</w>
크 롬</w>
pris es</w>
tr ag
미 는</w>
Part ners</w>
간단 히</w>
만 나는</w>
중 간
부 서
당신 도</w>
오 드</w>
L A
l m</w>
prepar ation</w>
en on</w>
part nership</w>
속 을</w>
주 장</w>
tra it</w>
디스 플레이
갤 럭
M pa</w>
Telev ision</w>
자 에서</w>
c ure</w>
오락 거리</w>
Lincol n</w>
imple ment</w>
Scot land</w>
A IDS</w>
bed ded</w>
공 구</w>
위 협</w>
Sex y</w>
이해 하지</w>
마 이</w>
년 과</w>
연결 관</w>
인 공</w>
움직 이는</w>
kis s</w>
there in</w>
터 와</w>
ham mad</w>
Al most</w>
Mo ve</w>
j pg</w>
radi ation</w>
gam bling</w>
xi ety</w>
less ly</w>
K g</w>
comput ing</w>
여 과
co al</w>
imple mented</w>
소 중
om ing</w>
explan ation</w>
방법 과</w>
시 각</w>
시작 됩니다</w>
mach inery</w>
m esh</w>
li p
ake up</w>
지 붕</w>
일 에서</w>
주 된</w>
hon ey</w>
도 박
하 라는</w>
anc ou
ome ter</w>
이 래
PR O</w>
est y</w>
ing o</w>
gr ounds</w>
레 코
관 과</w>
자 식
친구 는</w>
Belgi um</w>
ad ed</w>
여 서</w>
vo yeur</w>
J en
렌 터
자동 차를</w>
ad mit</w>
e e
이 음
상관 없이</w>
수 리
Lu x
피 드
지금 의</w>
Fe el</w>
Po ints</w>
p ounds</w>
층 에</w>
프린 터</w>
알 기</w>
주 인</w>
b ell</w>
아름다 움</w>
하 노
surr ounded</w>
Pak istan</w>
lat ina</w>
associ ation</w>
확인 합니다</w>
D D</w>
con dem
prof essor</w>
신 뢰</w>
Cop per</w>
부 터
Advertis ing</w>
compar ison</w>
ob serve</w>
실험 실</w>
elec tions</w>
있었 을</w>
테 니스</w>
C lear
supp lies</w>
었 으며</w>
학 위를</w>
f ers</w>
alle l</w>
할 당
휴 식</w>
그 중</w>
Us age</w>
쳤 습니다</w>
ho o</w>
m and
액 션</w>
계획 이</w>
연 장
Bon us</w>
fic ial</w>
goo dness</w>
vac uum</w>
ver bs</w>
p el
거 친</w>
당신 에</w>
fo ol
보 트</w>
그 럴
Invest ment</w>
Electr ical</w>
war ned</w>
아 내는</w>
세 련된</w>
Friend ly</w>
tro ops</w>
로 이</w>
ent ally</w>
co ding</w>
작업 에</w>
가 볍
kis sing</w>
아메리 칸</w>
reserv ations</w>
유지 하고</w>
C SS</w>
be an</w>
tab let</w>
Hy per
간 편
클 린</w>
전 파</w>
d ges</w>
S om
t ang
C OR
St re
선택 입니다</w>
통 화
is lands</w>
드 려
H ence</w>
inter rup
참여 할</w>
Cre ek</w>
주변 의</w>
로 우</w>
Okin awa</w>
J a
심 장
오 염</w>
pra yed</w>
엄마 는</w>
L oss</w>
fol io</w>
취 득</w>
P ure</w>
자취 방</w>
er n
an istan</w>
계 절
tr um</w>
의미 하는</w>
않아 도</w>
o to</w>
Em bassy</w>
고 에</w>
점 이다</w>
g ear</w>
up gra
crow d</w>
pay ments</w>
at om
f ed</w>
보 조
f ought</w>
주 민</w>
없 이는</w>
fac il
여호와 를</w>
inv ite</w>
버 릴</w>
춤 을</w>
여기 에는</w>
Emp lo
보 유</w>
disco very</w>
가 을
별 도의</w>
박 테
홍 수</w>
Dev il</w>
R id
expos ure</w>
choc olate</w>
두 뇌
시 절</w>
ex tract</w>
앉 아서</w>
FLOR IST</w>
대 중</w>
st ops</w>
이 더
Bo ys</w>
색 으로</w>
느 낀
sty les</w>
V M</w>
th es
위 와</w>
e u</w>
알 림</w>
port ers</w>
예 쁜</w>
me tic</w>
main tained</w>
mat ches</w>
ro ots</w>
의 류</w>
임 명</w>
점 의</w>
짐 을</w>
b ones</w>
신 고</w>
후 원
Par liament</w>
be half</w>
AN Y</w>
였 으며</w>
V IS
addres ses</w>
legi timate</w>
Po sts</w>
u h</w>
cer tific
P le
il es</w>
싶 었다</w>
바 보
인구 의</w>
바 퀴
복 구
난 민
sen ior</w>
움직 임
C I
지 향
ni pples</w>
dep end</w>
도 달</w>
보 관</w>
certain ty</w>
investi gation</w>
uti lity</w>
메 리</w>
근처 의</w>
Set tings</w>
Th ir
ou ts</w>
Who ever</w>
찾 지</w>
represent ative</w>
B our
se where</w>
허 가
감 상
방문 하는</w>
만 족</w>
최 종
해결 책을</w>
resul ting</w>
sha res</w>
ac tively</w>
증거 를</w>
comp o
entre prene
진 실</w>
T F</w>
Res ources</w>
Pre fecture</w>
ab il
인 근</w>
살 이</w>
pl ain</w>
프레 임
N y
speci al
ur ance</w>
레이 스</w>
물 고기</w>
예 상</w>
ji ang</w>
마 자</w>
G mb
드라이브 를</w>
E OS</w>
us a</w>
ancou ver</w>
den ied</w>
배 포</w>
re au</w>
B all
a warded</w>
같 았다</w>
온 천</w>
인 용</w>
sh ore</w>
ro ads</w>
Func tion</w>
sc r
objec tive</w>
끝 날</w>
괜찮 아</w>
Re al
k W</w>
op t</w>
H ost</w>
충 격</w>
pre aching</w>
FLO WER</w>
잡 을</w>
년 대에</w>
Vac uum</w>
N Z
페 스티
cl ubs</w>
거짓 말
Ann ual</w>
re venue</w>
방 의</w>
강 요
equ ally</w>
정 액
Tra ditional</w>
inhabit ants</w>
B ad
the ore
하시 겠습니까</w>
form al</w>
에 나</w>
금 으로</w>
Teach er</w>
수 명</w>
bab ies</w>
영 양</w>
브 는</w>
생 기
주장 했다</w>
woo den</w>
잠 금</w>
만 약에</w>
싸 움</w>
동영 상을</w>
Atl anta</w>
Plan et</w>
y uan</w>
자 들에</w>
맛 을</w>
B O</w>
M assage</w>
th ri
라 텍스</w>
E mi
O f
SO L
느낌 이</w>
것 입니까</w>
해 수
벨 기에</w>
cons ult</w>
hol es</w>
pp ers</w>
겠 는가</w>
행 정</w>
embo di
A BC</w>
도 서</w>
Arth ur</w>
상 트
gen etic</w>
proc e
A part</w>
투 자를</w>
즐기 고</w>
Gl or
van ized</w>
항공 기</w>
랐 습니다</w>
어 스</w>
Sig nal</w>
as a</w>
eng ines</w>
V el
min or</w>
지 니</w>
활 성</w>
conc epts</w>
적 게</w>
UR E</w>
child hood</w>
over seas</w>
V ancouver</w>
lo an</w>
l oud</w>
Ci ties</w>
손님 들을</w>
시작 된</w>
es e
wh is
coun sel</w>
co des</w>
out come</w>
Fol lowing</w>
ol one</w>
trac ks</w>
답변 을</w>
under ground</w>
clin ical</w>
바 꿔
cri ed</w>
d or</w>
AR D</w>
c ookie</w>
m ad
레 오
Mar ie</w>
an tic</w>
member ship</w>
움 에</w>
브라우 저
N ak
di pl
유 전자</w>
Afgh anistan</w>
Is lam
지 침
환 율</w>
Acc essories</w>
보장 합니다</w>
학 년</w>
부 문</w>
신 고
몰 라</w>
수행 할</w>
저장 할</w>
컨트 롤</w>
le g</w>
그 거</w>
멀 리
분석 을</w>
커 스</w>
V ol</w>
내 장</w>
삽 입
Bus an</w>
wel ding</w>
어리 석은</w>
클릭 하여</w>
ir ts</w>
수익 을</w>
편 을</w>
시작 한다</w>
전반 적인</w>
사 운드</w>
wel ry</w>
이해 를</w>
독일 어</w>
바로 가기</w>
솔로 몬
ing ham</w>
inspec tion</w>
헨 리</w>
Dol lar</w>
meas ured</w>
벽 에</w>
pra ying</w>
xim ity</w>
슬 라
G L
are r</w>
rev olutionary</w>
travel ers</w>
경기 장</w>
genu ine</w>
Direc tory</w>
him a</w>
v ent</w>
bel t</w>
루 마
생각 했습니다</w>
부모 가</w>
S ame</w>
bri tish</w>
n ell</w>
달 라</w>
Sha re
주 말</w>
Re ality</w>
w ashing</w>
ra tions</w>
주 소서</w>
학 위</w>
미 치
산업 용</w>
Com ment</w>
성 형</w>
en to</w>
도시 에</w>
pate nt</w>
The ory</w>
ug ly</w>
Cryp to
challeng ing</w>
발 전을</w>
별 을</w>
삶 에서</w>
놓 을</w>
unc tion</w>
Ice Porn</w>
sust ainable</w>
Beli eve</w>
반 지</w>
움 과</w>
모 유</w>
Est ab
F R
Corinth ians</w>
B N</w>
sp a</w>
new ly</w>
일 련의</w>
상태 가</w>
수 동
rep ent
매 춘
pr on
Cam bridge</w>
원 들은</w>
G L</w>
백성 에게</w>
ten na</w>
셨 습니까</w>
Con do</w>
is a</w>
em an</w>
fe eding</w>
터 리</w>
상태 에서</w>
십시 요</w>
M m</w>
M ap
Yo dot</w>
con stitu
회사 소개</w>
g ely</w>
down loaded</w>
들 을
tro p
Pro te
어 깨
H idden</w>
J r</w>
w all
Tra ffic</w>
th ick</w>
행 성
ho tel
유럽 에서</w>
be st
파 워
흥 분
안 타
M ust</w>
모 른
Q ur</w>
cir cle</w>
B ush</w>
break fasts</w>
fl ashing</w>
나 와
Gr ound</w>
DV B</w>
H ong
N E</w>
데이 트</w>
옷 장</w>
색 의</w>
끝 난</w>
Dimen sion</w>
phys ics</w>
한 테
ad d
t all</w>
안 토
col on
Brook lyn</w>
s q</w>
har v
s wor
crypto currency</w>
대 비</w>
식 민
Net flix</w>
am ine</w>
Uni verse</w>
wh el
시설 과</w>
reco vered</w>
체 계를</w>
wor shi
cr iter
읽 어</w>
E LE
be gun</w>
to k
import antly</w>
아 스
음식 은</w>
Py thon</w>
바 의</w>
Ther ap
캠페 인</w>
오 시는</w>
이 도</w>
ne uro
충분 하지</w>
암 스테르
Ben j
y land</w>
Fig ure</w>
IT H</w>
잃 을</w>
T OE
c ous
그룹 에</w>
di al
조 사를</w>
핀 란드</w>
Tour ist</w>
Imag ine</w>
컨트 롤러</w>
Bri an</w>
ar rested</w>
나 라는</w>
L ad
at ments</w>
Bl u</w>
Nor way</w>
deli vers</w>
gra in</w>
nb sp</w>
con test</w>
호 치
싱가 포르
connec tor</w>
아 닐</w>
집 행
ar tificial</w>
Je ju</w>
lic en
칼 리
J im
반 에</w>
오렌 지</w>
눈 으로</w>
세 기에</w>
그렇 게
andro lone</w>
Bl vd</w>
me ets</w>
rejo ice</w>
cont acts</w>
넣 기</w>
사용 한다</w>
화 요일</w>
D X</w>
상 자를</w>
Dom in
Lo t</w>
P s</w>
ass et</w>
en orm
w is</w>
블록 체인</w>
아버 지를</w>
Ex press
G ospel</w>
arg ue</w>
Puer to</w>
동 물을</w>
E ph
bb c</w>
섬 유
uk i</w>
s inging</w>
을 하고</w>
disp ute</w>
리 튬</w>
B B</w>
C ount</w>
끝 났
모르 고</w>
K ev
h u</w>
Bath room</w>
대 변
H airy</w>
ul ties</w>
대단 한</w>
트 릭
sh ock</w>
코 멘트</w>
중요 하지</w>
Ad ditionally</w>
N evertheless</w>
em s</w>
부 족</w>
il ian</w>
테 라스</w>
파타 야</w>
F an</w>
그리 하면</w>
담당 자</w>
def end</w>
이 어야</w>
g ardens</w>
비 스</w>
Jos hua</w>
들 보다</w>
분 리</w>
역 의</w>
축 복</w>
장치 의</w>
독일 편</w>
Pho tos
mo s</w>
다음 날</w>
남 자의</w>
z ens</w>
bol one</w>
dro pped</w>
E ll
시켰 습니다</w>
업 무를</w>
Che ap</w>
lu ggage</w>
커뮤니케이 션</w>
AS P</w>
브라 운</w>
CL D</w>
나 옵니다</w>
마 시고</w>
녀 석
recei ves</w>
뮤 직</w>
cri minal</w>
diffic ulty</w>
액세서 리</w>
결과 적으로</w>
Lit er
면 도</w>
빛 나는</w>
chem icals</w>
대 비
돌아 올</w>
recomm end
T um
머 스</w>
복 음을</w>
tren d</w>
스테인 레스</w>
오 줌</w>
중심 에서</w>
생 의</w>
S ON</w>
qu et</w>
secre ts</w>
동물 의</w>
produc es</w>
boo k
나타 나는</w>
fun ding</w>
F ru
ca p</w>
port able</w>
점 과</w>
law yer</w>
exten d</w>
reduc tion</w>
덮 개</w>
스프 링
법 과</w>
ó n</w>
검 사를</w>
sk ill</w>
ro gen</w>
An ne</w>
pro vince</w>
모 임
rec y
어머니 가</w>
ad el
학교 는</w>
미 네
보고 서를</w>
심 은</w>
피 트니스</w>
농 담
부 엌
항 문
으 라</w>
c af
char ging</w>
Au g</w>
ro bots</w>
임 상</w>
있어 야합니다</w>
W ide</w>
viol ent</w>
Men u</w>
늙 은</w>
S FP</w>
바 닷
Ho sting</w>
amoun ts</w>
둘 러</w>
우 편</w>
w ings</w>
W ay
성 도
S ti
m ar</w>
목 소
G aming</w>
op ol
qu al
ㅋㅋ ㅋㅋ
타 입
it ations</w>
co vering</w>
ten ance</w>
b ands</w>
ob ile</w>
낯 선</w>
D allas</w>
참 된</w>
해당 하는</w>
Cir cuit</w>
pre mium</w>
B uc
R on
Op tion</w>
서 와</w>
기 분</w>
I cel
f ounder</w>
여 자의</w>
man aging</w>
t ine</w>
형 식
As sist
Contin ue</w>
Ma h
ell ence</w>
기 사를</w>
도 촬</w>
아내 를</w>
일으 킬</w>
lau ghter</w>
예 언</w>
미 와</w>
알 코
로 만</w>
b d
하시 니</w>
Re ference</w>
fin ance</w>
디자 인은</w>
때 를</w>
impres sive</w>
기 어</w>
사건 을</w>
저 는
Ch ec
Differ ent</w>
해야 한다</w>
hum idity</w>
는 지에</w>
eni x</w>
에이 전
지 나</w>
계 정에</w>
L TS</w>
resol ve</w>
iz ard</w>
mo thers</w>
유 권
inj ured</w>
숭 배</w>
Wal k
나머 지는</w>
브 래
손상 된</w>
진 한</w>
천 국
A le
교 복</w>
노 출</w>
버전 은</w>
re placement</w>
reduc ing</w>
최적 화</w>
DA Y</w>
있는 지를</w>
Alex and
f armers</w>
inc ident</w>
동 생</w>
manufac ture</w>
플로 리스트</w>
몸 은</w>
Hy dro
Mess enger</w>
re mark
tras onic</w>
f ted</w>
대답 을</w>
액세 스를</w>
Gen eva</w>
이었 어요</w>
최적 화
sugg ests</w>
고객 께서는</w>
분 들</w>
저 널
영 상
N el
es a</w>
아 들의</w>
손 실
옮 겨
저 런</w>
중심 으로</w>
Is n</w>
S pl
Eff ici
새 끼
확인 하고</w>
스테이 션</w>
무 장
US E</w>
gi ant</w>
배 고
Pub lished</w>
조 차도</w>
Fe ature</w>
상트 페테르
율 을</w>
폐 쇄
인 상
정 복
직접 적인</w>
p ill
is er</w>
w ishes</w>
E B</w>
아 사
some how</w>
간 격
sh ed</w>
Intellig ence</w>
업데이 트를</w>
운 다</w>
For tun
ob st
r ich
Lin k
mechan ism</w>
mus ical</w>
Qu i
G host</w>
co ast</w>
천 만</w>
이끌 어</w>
ir i</w>
리 처
Pic tures</w>
다 양</w>
오 카
이 방
fol ks</w>
란 을</w>
Emi rates</w>
버 는</w>
op tical</w>
detec tion</w>
ro d</w>
전자 레인지</w>
H U
a tively</w>
현재 는</w>
Scrip tures</w>
동의 합니다</w>
ign ore</w>
L B</w>
o x</w>
계 산</w>
제 외</w>
sugg ested</w>
감 동
표시 합니다</w>
sk aya</w>
매 뉴
하나 에</w>
몇 몇
t l</w>
기 쁨</w>
a qu
어렵 습니다</w>
뜻 이</w>
instr ument</w>
나 한테</w>
경 에</w>
면 으로</w>
기쁨 을</w>
나무 를</w>
simultane ously</w>
Min h</w>
키 가</w>
Hebre w</w>
a unt</w>
form ula</w>
확 신</w>
Ru le</w>
가르 쳐
보 통
상 처를</w>
왔 으며</w>
T W
scan ning</w>
ri ers</w>
시장 의</w>
deep throat</w>
내 릴</w>
we igh
데 에</w>
겪 고</w>
보냈 다</w>
외 선</w>
지 침</w>
tho tel</w>
M G</w>
mar ily</w>
제 자</w>
Log o</w>
테 크</w>
포 지
pro vision</w>
진 정
Met ropolitan</w>
t an</w>
사 각
최근 의</w>
ologi sts</w>
수 용</w>
아 님</w>
등록 번호</w>
onym ous</w>
or n</w>
mir acle</w>
찾 았
u me</w>
히 브리
Ma x
방향 을</w>
is e
데이터 에</w>
M ass</w>
보 상을</w>
브 리</w>
meas uring</w>
피 해를</w>
원 본</w>
상 대</w>
Mean while</w>
과 도
Bud get</w>
선 정</w>
탐 색
B ak
us s</w>
세라 믹</w>
종 을</w>
순 환
페이 지의</w>
터미 널</w>
guarante ed</w>
B earing</w>
con clusion</w>
잠재 적</w>
DI Y</w>
H ad</w>
왔 을</w>
Al mighty</w>
교 황</w>
H ouse
par adise</w>
m entary</w>
들 킨</w>
b r</w>
D res
제 약</w>
위 대
A O
R J</w>
하고 있는</w>
조 를</w>
비 싸
신 념
도 메
사 기
섬 기
게 이트</w>
찰 스</w>
spo ts</w>
성 별</w>
Cro ati
명 과</w>
밖 의</w>
f ound
d ar
St y
b inary</w>
R od</w>
있 느냐</w>
레슬 링</w>
si an</w>
boy friend</w>
용 기</w>
sha ped</w>
P av
W es
다르 다</w>
Ro HS</w>
consider ing</w>
Over all</w>
Rec ords</w>
read er</w>
전 과</w>
무 기를</w>
틀 림
번 이나</w>
부드럽 게</w>
Wil son</w>
그렇 기</w>
다니 엘</w>
시 장을</w>
자 물
grat ulations</w>
걷 는</w>
담 배를</w>
서 요</w>
양 이</w>
아르헨티 나</w>
all est</w>
체 결
Gmb H</w>
ac compan
Mon ster</w>
M aker</w>
변호 사</w>
군 대</w>
하느 니라</w>
황 색</w>
man agers</w>
세계 적</w>
꿈 꾸
바 를</w>
Pay Pal</w>
은 혜</w>
연결 할</w>
K D</w>
Sim p
t ag
comp act</w>
루 이스</w>
작동 하지</w>
e aten</w>
a er
deb ate</w>
dec k</w>
봤 다</w>
이상 으로</w>
ag an</w>
승 리를</w>
og ni
등 등</w>
Bab ylon</w>
L ex
Paren ts</w>
defe at</w>
사람 들도</w>
consis ten
회의 실</w>
제안 을</w>
적 당
컨 대</w>
P ath</w>
거 역
등 은</w>
Ad ditional</w>
b ear
엄 청</w>
Du ke</w>
Ris k</w>
장 갑</w>
T ION</w>
remember ed</w>
나 트
I g
N at
걱 정</w>
결혼 을</w>
cop yright</w>
Tra vel
ac quired</w>
ever lasting</w>
출 구</w>
r pm</w>
코 의</w>
전 염
invol ves</w>
이 외의</w>
V IE
Histor ical</w>
B ah
건 을</w>
디 에
행동 에</w>
경 배
비교 적</w>
옵션 이</w>
일 자리를</w>
진 은</w>
Th r
Ri ver
순간 을</w>
ca using</w>
co ated</w>
진 리의</w>
ell o</w>
더 보기</w>
ou ter</w>
P er</w>
올림 픽
c ali
야 의</w>
Kel ly</w>
i Cloud</w>
in formed</w>
des ert</w>
누군 가
포르투 갈
Mem bers</w>
혈 액
Mon tre
Succ ess</w>
여성 들이</w>
bon dage</w>
Bath rooms</w>
ur i</w>
for ty</w>
Sub scri
opin ions</w>
멍 청
사회 를</w>
D inner</w>
Sa udi</w>
Sch ed
in struments</w>
cruc ial</w>
y ard</w>
Gu ard</w>
렉 스</w>
Mo vement</w>
R ail</w>
유 치
패 배
군 을</w>
일으 키는</w>
u al
소유 하고</w>
올 라</w>
검 증
comm un
sched uled</w>
크 가</w>
죽 어
pur sue</w>
돌 려</w>
에게 만</w>
veget ables</w>
c ub
공급 자</w>
sec retary</w>
Al b
Chall enge</w>
태 도</w>
el sewhere</w>
사람 입니다</w>
O therwise</w>
uk u</w>
경 로</w>
직 장</w>
조 절</w>
Sha ft</w>
hi l</w>
K om
squ irt</w>
미 끄
u ality</w>
f at
promo tion</w>
sh an</w>
LT E</w>
스트 로
그 동안</w>
듣 기</w>
W on</w>
행복 하게</w>
G I</w>
h its</w>
무 척</w>
시 점에서</w>
engine er</w>
병 에</w>
Y os
미국 인</w>
N BA</w>
bacter ia</w>
가 상
추 는</w>
속 박</w>
cap tured</w>
배 달
K as
s q
그 릇
cig are
명 예
cl u
proph ec
tren ds</w>
제 주
ich i</w>
때문 이죠</w>
Ex it</w>
파 괴</w>
Be er</w>
Proc essing</w>
모 래</w>
nor thern</w>
개 념</w>
역 사는</w>
과학 자들은</w>
아래 에서</w>
I Q</w>
잠 자는</w>
Char lie</w>
G un
Sk ip</w>
손가 락
fing ers</w>
개발 에</w>
ful fill</w>
N U
der ly</w>
부탁 드립니다</w>
Br un
ad just</w>
대 출</w>
서 야</w>
오 게</w>
Egyp tian</w>
브 뤼
었 지만</w>
corrup tion</w>
depend ence</w>
베 스</w>
예 레
한 글
B ird</w>
Foc us</w>
출 연
treas ure</w>
z u</w>
imm une</w>
냄 새
gall ery</w>
hum an
스 케이
의 식</w>
보냈 습니다</w>
수 영</w>
미 야</w>
the ater</w>
inno cent</w>
ge able</w>
몸 의</w>
열 리는</w>
D in
사회 에서</w>
Streng th</w>
reg ardless</w>
extra ordinary</w>
per centage</w>
clo sing</w>
my stery</w>
si zed</w>
에 로</w>
yl ene</w>
감 염</w>
모 래
예수님 께서</w>
Prac tice</w>
ㅡㅡ ㅡㅡ
인 원</w>
스 탄
나 왔다</w>
ig nor
re aching</w>
bo asts</w>
이 하의</w>
준 수</w>
Per son</w>
Les bian</w>
신 중
E duc
cl ude</w>
prec ise</w>
거짓 말</w>
bi ological</w>
bu g</w>
테 러</w>
Re quest</w>
경 력을</w>
사용 이</w>
원 인이</w>
ce iling</w>
크 에</w>
i g</w>
IN E</w>
TF E</w>
뚱 보</w>
Wor ds</w>
Bi ke</w>
Movi es</w>
App ly</w>
얻 지</w>
lay ers</w>
algorith m</w>
ti p</w>
있으 나</w>
Chi p</w>
테 일</w>
Pre gn
pris on
다 이</w>
수 백
was her</w>
g as
S cal
recog n
친구 들이</w>
bl ess</w>
intell ectual</w>
P P
조용 히</w>
possi bilities</w>
G lo
cap ability</w>
왔 던</w>
st eri
훈련 을</w>
세 월
un cle</w>
핥 기</w>
streng then</w>
보 이고</w>
Gener ator</w>
거 울</w>
폭 풍
d ancing</w>
할 리
l v
그 네
진 단
자녀 를</w>
sequ ence</w>
수 직</w>
화 재</w>
obe dience</w>
생활 에</w>
지도 자</w>
한 계
Bro thers</w>
d an</w>
도 르
F el
굶 주
H I</w>
대 우
bur ned</w>
m aker</w>
자 세</w>
하 위</w>
베 드</w>
D ong</w>
Ob ject</w>
celebr ity</w>
대 적
메 디
백 업
이 내의</w>
Mil k</w>
emplo yed</w>
스트리 밍</w>
추 출</w>
dis appointed</w>
so m</w>
FA X</w>
영 원</w>
비 의</w>
비 치
Ap ache</w>
roll ed</w>
달 리
Bo at</w>
con crete</w>
R ub
CA N</w>
Feat uring</w>
health care</w>
Ter race</w>
약 은</w>
in vention</w>
gr ant</w>
i k</w>
U TC</w>
Fur ther</w>
Tim othy</w>
있 니</w>
세 대
Blu e
발 전기</w>
돈 은</w>
도 중</w>
참 가</w>
하였 읍니다</w>
비 전</w>
N ick</w>
Val ent
ge on</w>
b att
살아 남
발 달
도 어</w>
R acing</w>
전쟁 의</w>
Go ing</w>
보호 정책</w>
산 화</w>
안정 적인</w>
피 가</w>
V an
Det ail</w>
al arm</w>
ar is</w>
ell ation</w>
ni k</w>
G h
rest ling</w>
ti de</w>
tis tic</w>
영 어를</w>
D uty</w>
Pre sid
원 하시는</w>
glo be</w>
갤럭 시</w>
respon si
운 행
ar do</w>
한 정
Gr anny</w>
pi one
플라스 틱
streng th
execu tion</w>
론 의</w>
Tr y
comp os
지 루
일 치</w>
I l</w>
brow n</w>
wal let</w>
Malay sia</w>
ch ase</w>
수 치
등장 인물</w>
R ue</w>
봤 습니다</w>
영역 에</w>
겨 우</w>
프랑 크
ang o</w>
sub stanti
덱 스</w>
했 으나</w>
Woo d
Q R</w>
Bra in</w>
V ER</w>
메이 크
C av
시설 입니다</w>
reli ef</w>
허 가</w>
comp assion</w>
아이 들과</w>
gol den</w>
건 조</w>
끝 이</w>
quo te</w>
목 사
정 밀도</w>
안 락
Si te
Ro bot</w>
sens ors</w>
D il
광 학</w>
p ap
R H</w>
북 부</w>
l an</w>
K V</w>
Str ong</w>
ti sh
apost le</w>
sp are</w>
블 리
이메 일로</w>
Pok é
br an
er ra</w>
Un less</w>
정책 에</w>
설정 할</w>
엘리 자
it i</w>
Ori gin</w>
tr e</w>
Ther mal</w>
물 어</w>
k gs</w>
l un
도구 는</w>
미 의</w>
픽 셀</w>
Pear l</w>
산 소</w>
하였 을</w>
To yo
기업 을</w>
s essions</w>
고 용</w>
detec t</w>
w ins</w>
m ay
pollu tion</w>
외 계
investi g
W O
b and
탈 출
sa una</w>
잃 은</w>
H Q</w>
oo th
bes ides</w>
도시 는</w>
elim inate</w>
없었 던</w>
C ost</w>
히 지</w>
v et</w>
소 송
aff ects</w>
기다 릴</w>
지혜 를</w>
Phili p</w>
now led
나 에서</w>
analy ze</w>
tu ary</w>
Sh oo
bi kini</w>
s ch</w>
사회 는</w>
점 화</w>
P ig
Ether eum</w>
영국 편</w>
inst ant</w>
버 렸다</w>
배 웠
L D
액세스 할</w>
re turning</w>
증 명</w>
역 사의</w>
Phys ical</w>
Vietnam ese</w>
바 는</w>
bar a</w>
up load</w>
ush i</w>
c en
죄송 합니다</w>
욕 을</w>
sen tence</w>
L ag
선 교
클 러
di bly</w>
concer t</w>
ic e
포 로</w>
V ar
pl er</w>
N ev
공유 할</w>
E yes</w>
Can on</w>
설명 했다</w>
ve ill
졌 으며</w>
세 기의</w>
sou thern</w>
공 지</w>
chec k
Ac tiv
Your Lust</w>
소 식
An d
ut ter
코 트</w>
Benj amin</w>
um atic</w>
Ho st
S op
보 시고</w>
열 어
tou rists</w>
제외 한</w>
ac o</w>
ar ks</w>
S IM</w>
fi red</w>
manufac tured</w>
음악 은</w>
기술 적인</w>
집 의</w>
제목 은</w>
트위 터</w>
Li quid</w>
pre ferred</w>
년 에서</w>
over whel
여러 가지</w>
Pro Porn</w>
F itness</w>
How ard</w>
in ev
e ums</w>
no se</w>
j e</w>
전 하는</w>
토 론</w>
Mon key</w>
ro les</w>
t one</w>
C ute</w>
활용 할</w>
이번 에</w>
in tu
z o
알아 요</w>
sle tter</w>
건 가</w>
글 꼴
연 료
RE SERV
오 시
남 자를</w>
유익 한</w>
fl or
p as
경 이</w>
실행 할</w>
priv ile
TF T</w>
반 복</w>
방 위</w>
protec ting</w>
ta p</w>
그 들에</w>
바 라</w>
학생 들을</w>
버 스
해 제</w>
emis sions</w>
더 이상</w>
P el
이 지요</w>
C P
공 정한</w>
네트워크 의</w>
담 당</w>
down loads</w>
말하 자면</w>
V a
Ch el
satis fy</w>
같 지</w>
ne ed
In divid
기반 의</w>
한 이</w>
Par k
해결 하기</w>
을 하는</w>
자 이다</w>
조 립
se ating</w>
색 과</w>
층 의</w>
phys ically</w>
war s</w>
몬 스터</w>
clo set</w>
fo am</w>
tou ched</w>
사람 이다</w>
bur den</w>
ry lic</w>
없 는
C X</w>
os ity</w>
체크 아웃</w>
섬 기는</w>
트 라</w>
풀 어
휴 게
F is
듯 한</w>
그래 요</w>
A X</w>
W rit
아 카이
veill ance</w>
반 도
부 로</w>
Ar ri
Test ament</w>
cou pon</w>
고 급
고린 도</w>
Bre ak
N ep
el ders</w>
자 위</w>
res sion</w>
워싱 턴
boo t</w>
clou ds</w>
s wee
발 매
z i</w>
Harb our</w>
밖 에서</w>
u ated</w>
이 것에</w>
나이 에</w>
소 수
태블 릿</w>
exp anded</w>
브 리지</w>
an no
질 은</w>
au x</w>
ha bit</w>
소 매
prepar ing</w>
trans l
요소 가</w>
유 도
pro ximity</w>
화장 품</w>
Q ur
wh ol
제공 하지</w>
지구 를</w>
str act</w>
자 치
Whats App</w>
컨벤 션</w>
프랑스 편</w>
호 기
HT S</w>
수 신</w>
방식 은</w>
y stem</w>
웁 니다</w>
L amp</w>
오 프</w>
ess entially</w>
do s</w>
로 즈</w>
ㅠ ㅠ</w>
S co
pri marily</w>
삶 과</w>
이해 하기</w>
trans formation</w>
Ul timate</w>
r ant</w>
공 용</w>
해 양</w>
r ings</w>
배 열
Integra ted</w>
욕 망
ell ers</w>
f ool</w>
폴 더
SC O</w>
티켓 을</w>
행 사를</w>
디 럭스</w>
부 활</w>
골 든</w>
neighb ors</w>
se al</w>
거 부</w>
교 체</w>
늦 게</w>
no de</w>
Kev in</w>
Vari ous</w>
lo v
At trac
서 명</w>
왔 어요</w>
절 차</w>
증 후
lo t
정 자</w>
ket tle</w>
G R</w>
sub mitted</w>
역 사가</w>
sh i</w>
카 타
클 립</w>
G et
깜 짝</w>
닫 기</w>
워 터</w>
I PS</w>
연 기
M ENT</w>
개 국</w>
잉글 랜드</w>
오 버
U h</w>
k ni
str o</w>
W ave</w>
o te</w>
forec ast</w>
i an
execu ted</w>
enth usi
Cal endar</w>
남 자와</w>
경 주</w>
C am</w>
M essi
열 쇠</w>
Com pati
Ether net</w>
gl as</w>
plac ing</w>
Poli tics</w>
ch r
ul ator</w>
Ret ri
세 션</w>
S ense</w>
자연 스럽게</w>
Harv ard</w>
정보 와</w>
Sum mit</w>
포 맷
돌아 가기</w>
무엇 보다도</w>
태어 났
k el
sc al
공 장에서</w>
Poké mon</w>
었 어</w>
달콤 한</w>
he al</w>
인터 내셔널</w>
일 리</w>
년 간의</w>
소 규모</w>
전체 에</w>
AS S</w>
오르 는</w>
Z en
ank a</w>
ch a</w>
dis play
레지던 스</w>
ü r
K im
Pro mo
end a</w>
생산 을</w>
N om
무언 가</w>
쌍 둥이</w>
이 슈
날 아
조 상
ch ances</w>
분 자</w>
Wr iting</w>
품 은</w>
쪽 을</w>
공 지
이라 크</w>
leg ally</w>
후 회
x els</w>
pro sper
d ose</w>
Br us
r ub
데 스</w>
부르 짖
E D
S everal</w>
경 외
영국 에서</w>
외 교
in corpor
압 박
콜 라
cre ativity</w>
라 인을</w>
p antyhose</w>
Co ol
질 이</w>
제 출</w>
inf ected</w>
O ST</w>
유지 하기</w>
wa re
산 에서</w>
ag le</w>
en sures</w>
차 의</w>
대부분 이</w>
E VA</w>
uc tion</w>
이 랑</w>
mini bar</w>
cot ton</w>
N D</w>
보 건</w>
케이 크</w>
t as
Mu hammad</w>
st an</w>
창 업
디 아
AM E</w>
p df</w>
소 한</w>
콜 로
직 장
ax is</w>
roll ing</w>
같은 데</w>
해 왔다</w>
기 간에</w>
Tele phone</w>
ch lor
맞 춤</w>
Is lam</w>
st uck</w>
변 수</w>
pass es</w>
life style</w>
um ping</w>
j ack</w>
권 한</w>
CC TV</w>
adv oc
im migration</w>
차 가운</w>
걸 이</w>
오늘 도</w>
있으 리라</w>
인 코
Ju l</w>
바 리
Boo bs</w>
gun s</w>
선 출
ack ers</w>
접근 할</w>
De gree</w>
Al f
J et</w>
n est</w>
teach es</w>
그룹 을</w>
상황 은</w>
comm erce</w>
말 아야</w>
Con fig
col or
F U
존재 를</w>
P TFE</w>
e ter</w>
bl ack
안 돼</w>
Rol ler</w>
Jer em
하 심을</w>
라스 베이
필요 를</w>
않았 을</w>
comp ens
예 비
continu ously</w>
loc ks</w>
일주 일</w>
요 즘
컴퓨터 에서</w>
로그 인
사람 들이
얼 음</w>
di ent</w>
원 하고</w>
B s</w>
pate n
농 장</w>
회사 에서</w>
당 의</w>
하루 를</w>
m its</w>
n erv
Resist ance</w>
writ ers</w>
off erings</w>
지구 에</w>
전체 가</w>
마 틴</w>
r ass
succ e
병 원
음 에도</w>
bri ef</w>
이 같이</w>
Photos hop</w>
labor atory</w>
ona than</w>
A U</w>
Ju n</w>
dis rup
죽 는</w>
할 아버지</w>
par ag
Reg ister</w>
레 터</w>
Cam p
의 로운</w>
퍼 스트</w>
Bo eing</w>
으 셨
Proper ties</w>
Custom ers</w>
도 박</w>
용 감
높 습니다</w>
않 다면</w>
관 여
놓 치지</w>
자 금</w>
N either</w>
무엇 일까요</w>
th rown</w>
ti l
겼 습니다</w>
쳐 다
그대 에게</w>
아 동
IL L</w>
말씀 하셨다</w>
S IG
H L
수 송
Hom es</w>
조금 씩</w>
호 스</w>
bel ong
dis appear</w>
dol l</w>
법 칙</w>
주 위</w>
Comp lex</w>
동안 의</w>
Mar t
안 마
b age</w>
Con f
인터넷 에</w>
설계 된</w>
개별 적으로</w>
co at</w>
XXXX XXXX
co verage</w>
net working</w>
D ic
G MT</w>
CO MP
f ails</w>
부 러
여성 들은</w>
기계 적</w>
유효 합니다</w>
메 가</w>
if ying</w>
프로세 서</w>
곳 에는</w>
사 전에</w>
Disco very</w>
수 입</w>
Pl ug</w>
서 로의</w>
Dis count</w>
b ay</w>
상 기
메 르
여 친</w>
C oc
E t
덴 마크</w>
cl icking</w>
했 지</w>
빨 강</w>
state ments</w>
소 화
dis crimin
comple tion</w>
확인 하는</w>
Sh im
적극 적으로</w>
천 장</w>
가 나
시 리아</w>
보 를</w>
유 효</w>
Cap it
J onathan</w>
qu ot</w>
에너 지
lo on</w>
F ounded</w>
마이 크</w>
주 어</w>
Dr ink</w>
p ad</w>
an xiety</w>
Un like</w>
sw inger</w>
tit les</w>
D aughter</w>
보 도록</w>
pi erc
wr ath</w>
연예 인</w>
oper ates</w>
릴 리
at ers</w>
아티 스트
플레이 어
er i</w>
충 돌</w>
말 하기</w>
A pol
고 기를</w>
돌아 왔다</w>
어렵 다</w>
top ics</w>
이슬 람</w>
크 기는</w>
승 무
T es
b u</w>
sch e</w>
주 제
지식 과</w>
Architec ture</w>
sig nature</w>
미국 을</w>
빌 딩
일본 에서</w>
남편 이</w>
대 항
y hole</w>
제 국
H Y
c ow
cul tures</w>
인 도의</w>
다이 어
비밀 번호</w>
ran dom</w>
tre atments</w>
종 사
질 투
um i</w>
명 칭
유 엔</w>
hy draulic</w>
조 언</w>
동 맹</w>
미 가</w>
리 소
팽창 식</w>
pa st
셔 츠
some what</w>
석 사</w>
성 도</w>
흐 름</w>
sec tions</w>
liter ature</w>
nav igation</w>
포함 할</w>
Z o
사용 된다</w>
전쟁 은</w>
respon ded</w>
Res ource</w>
평 가를</w>
a a
f ears</w>
as hamed</w>
Dou glas</w>
법 원</w>
설정 합니다</w>
contr ary</w>
Gener ation</w>
desig ners</w>
H ill
당 사가</w>
fig ures</w>
진지 하게</w>
학 회</w>
N it
청소 년
Liber ty</w>
Y ok
ro s</w>
휴대 폰</w>
ph y</w>
거 울
스튜 디오
AN D
c ook</w>
flo ors</w>
중 동</w>
바 쁜</w>
C IA</w>
궁극 적으로</w>
연구 의</w>
직업 을</w>
sp an</w>
죽 일</w>
너희 와</w>
Montre al</w>
essi ve</w>
유형 을</w>
자 금을</w>
수 지</w>
개발 하고</w>
독 창
발견 했다</w>
Cho col
initi ally</w>
Qu ick
앉 아
업 로드
지식 이</w>
다 녔
비즈니 스를</w>
C W</w>
수 요일</w>
상 자에</w>
al y
어 지
he m</w>
깊 은
exis ted</w>
이름 의</w>
fr amework</w>
컨퍼런 스</w>
hy per
절 망
own ership</w>
더 라면</w>
수 년</w>
at su</w>
ste am</w>
ne arest</w>
resp ective</w>
할 지도</w>
감 사를</w>
구 에서</w>
보 기
H an</w>
리 더</w>
점 령
G ig
s an
Bu reau</w>
cop ies</w>
신 다면</w>
cu ts</w>
거리 에서</w>
J on
struc k</w>
수수 료</w>
ation ally</w>
conf used</w>
land scape</w>
거 는</w>
달 린</w>
하는 지를</w>
Pro verbs</w>
공 중</w>
환 자는</w>
가져 다</w>
단계 에</w>
gang bang</w>
N or</w>
조 항
Sha pe</w>
것 임을</w>
대 출
감 각</w>
노 예</w>
ex ha
에 의</w>
sub si
Tab le
Trans portation</w>
위치 는</w>
던 가</w>
먼 지</w>
인 사</w>
st om
친구 들</w>
직 류</w>
es timate</w>
subscri ption</w>
ol en</w>
실험 을</w>
목 요일</w>
b uc
Pack ard</w>
V ER
레이 션</w>
열 려</w>
Cir cle</w>
dil do</w>
og en
st airs</w>
d ging</w>
ro v
돕 고</w>
sub jects</w>
w aves</w>
서버 에</w>
마 켓
IM E</w>
멜 버
연구 가</w>
시 기를</w>
He w
스 프레
gi o</w>
헤 르
friend ship</w>
u ous</w>
영 광</w>
하 에서</w>
Del ta</w>
두 꺼
목 구멍</w>
폭 탄
ack nowled
Ad just
J E
사랑 합니다</w>
문화 의</w>
있 지요</w>
indic ated</w>
하나님 에</w>
모 리
con vic
wel coming</w>
진 화</w>
윈 도</w>
연결 하는</w>
H as
sla ves</w>
교 훈</w>
아라 비아</w>
압축 기</w>
qu it</w>
ab ling</w>
서 양</w>
W W
다음 으로</w>
meaning ful</w>
oun ce</w>
E dit</w>
녹 음
만 남</w>
g loves</w>
sym bol
무게 를</w>
당 하고</w>
너 리</w>
출 판</w>
악 화
질 환</w>
평 안
Ro tary</w>
hol m</w>
타 운
채널 을</w>
Re ply</w>
s mil
찬 성
니 아의</w>
기초 를</w>
패 스</w>
S ON
아 나</w>
글 꼴</w>
Re public
사용 되고</w>
Moun tains</w>
se as
아내 와</w>
Up load</w>
br il
b id
디 모
알 파
o tic</w>
감 은</w>
테스토스테 론</w>
Nor mal</w>
더 스</w>
안 심
침 대에</w>
병 이</w>
오 의</w>
cin ema</w>
원 할</w>
su me</w>
그것 으로</w>
cir cul
손 실을</w>
장 면</w>
적 한</w>
Jerem iah</w>
토 의</w>
re verse</w>
다 드</w>
로 워
와이 어</w>
M K</w>
repe ated</w>
주님 께</w>
d ay
정신 적</w>
ap plying</w>
B la
씨 앗
하 면서도</w>
pro gres
아니 하리라</w>
shor t
인 권</w>
spe aker</w>
Nor we
ste al</w>
시도 해</w>
사용 은</w>
MP a</w>
있을 지</w>
ex hi
강 철
F em
mo vements</w>
ur is
환 자가</w>
포 스
헤 이
enjo ys</w>
그리스 도를</w>
노동 자</w>
거리 입니다</w>
이벤 트를</w>
하늘 과</w>
결 심
생각 해보
코 멘
h an
Respon se</w>
Star ting</w>
베 어링</w>
ep age</w>
tem plate</w>
패 턴</w>
늦 은</w>
숙 소
et ry</w>
inher itance</w>
s r
변환 기</w>
볼 트</w>
Budd h
th y
아니 하며</w>
but tons</w>
d ou
류 의</w>
진 을</w>
내 리는</w>
docum entation</w>
ow e</w>
Parti cip
Prin ter</w>
uck old</w>
수 녀</w>
자리 에서</w>
flo od</w>
두려 움</w>
부 릅니다</w>
달 이</w>
비밀 을</w>
변화 의</w>
죽 지</w>
후 기를</w>
Proto col</w>
hor mone</w>
pri ze</w>
일 간</w>
건 물은</w>
량 에</w>
소 니</w>
보 석</w>
이 곳은</w>
criter ia</w>
in ches</w>
v als</w>
자 원을</w>
권 장</w>
웨 스트
결정 할</w>
구 비
으로 만</w>
추가 적인</w>
프랑크 푸
백 인</w>
Ch art</w>
En h
불 쌍
찬 송
Bel ow</w>
izon tal</w>
자 나</w>
확인 해</w>
ha ma</w>
Ed in
F ar</w>
J eff
앞 으로도</w>
편안 하게</w>
og y</w>
an niversary</w>
we i</w>
사 령
포 맷</w>
야 생</w>
토 큰
n ick
경 력</w>
움 의</w>
어디서 나</w>
이 시다</w>
카 라</w>
로 얄</w>
저장 된</w>
un limited</w>
CA T</w>
이루 는</w>
C eb
두 께</w>
걱정 하지</w>
네트워크 에</w>
rac ing</w>
국가 가</w>
ha y</w>
k l
SE C</w>
ant um</w>
d c</w>
ti ble</w>
밀 어
베를 린
크 에서</w>
결정 하는</w>
m ill
ig ns</w>
h iding</w>
sev enth</w>
양 은</w>
옵션 은</w>
하 다가</w>
sav ings</w>
생활 의</w>
heav enly</w>
enorm ous</w>
오 디
연 주</w>
adequ ate</w>
hi p</w>
광 택</w>
U pper</w>
접 합
si vely</w>
온 전히</w>
주 며</w>
주 일</w>
차 있는</w>
T reas
S ri</w>
trans ferred</w>
해결 하는</w>
An der
G D
RA R</w>
G lob
le ep</w>
ig no
rec ru
근 로
사진 기</w>
으 면서</w>
전체 적인</w>
stre aming</w>
Ti an
영 사관</w>
Hit ler</w>
b acc
Con temporary</w>
un usual</w>
다니 엘
ever age</w>
광 섬유</w>
초 기
바 르게</w>
플레이 어는</w>
is o
A ven
작성 자</w>
encoun ter</w>
의 무</w>
display style</w>
bd sm</w>
넘 치는</w>
F ic
el ig
Sh or
일 상
정 도는</w>
Be g
aim s</w>
Sub way</w>
화 이
었 죠</w>
보여 줄</w>
Cho ice</w>
무 슨
D ay
m ill</w>
박람 회</w>
Cast ing</w>
ans as</w>
다 큐
에스 테</w>
발 행</w>
효율 성</w>
ra h</w>
아 를</w>
후 에도</w>
pic ked</w>
참 석</w>
ig an</w>
b atteries</w>
세 인트
알 았다</w>
있었 기</w>
부다페 스트</w>
러 의</w>
메 시</w>
T su
일 정한</w>
effici ently</w>
integr ity</w>
번 도</w>
권 력을</w>
해 졌다</w>
피 는</w>
토마 스</w>
이 행
통 과</w>
hum ble</w>
is tic
A ss</w>
comb at</w>
ha ted</w>
it y
pan els</w>
bal anced</w>
trans form</w>
있었 으며</w>
전형 적인</w>
Labor atory</w>
del ay</w>
p hia</w>
z ip</w>
이 스트</w>
새 엄마</w>
초콜 릿</w>
Merc edes</w>
sur ing</w>
vis its</w>
tran sition</w>
자 마자</w>
구원 의</w>
아 담</w>
일어나 지</w>
lo gin</w>
For mul
lin ear</w>
다 하고</w>
lar gely</w>
대 사
숙박 시설은</w>
기간 이</w>
au ge</w>
Connec tion</w>
Cou ple</w>
Ex port</w>
in jection</w>
유 산</w>
ail ing</w>
만들 지</w>
Fri end</w>
canc el</w>
연 습</w>
부 터는</w>
institu tion</w>
보 상</w>
누 릴</w>
사건 이</w>
Ry an</w>
T ours</w>
깊 게</w>
Hew lett</w>
가 스
구 원</w>
커피 를</w>
aff lic
Tri ple</w>
지 극히</w>
in vented</w>
원 형</w>
be ast</w>
연구 에서</w>
h ome
ag en</w>
transpa rent</w>
dis abled</w>
ci d</w>
H oo
Aqu arium</w>
c f
무 선
RESERV ED</w>
임신 부</w>
창 을</w>
pil ot</w>
con sole</w>
형 식을</w>
피렌 체</w>
sud den</w>
s ers</w>
무 리
사이 클
인 권
bri de</w>
Len ovo</w>
Micro chip</w>
Mil lion</w>
stri ve</w>
엔지니 어
pl ed</w>
는 지는</w>
fil ed</w>
po ker</w>
르 지</w>
sett led</w>
영 혼</w>
시 에는</w>
nam ics</w>
묶 여</w>
ti les</w>
clu ding</w>
inst antly</w>
B ent
bal ls</w>
p acked</w>
re fund</w>
바꾸 는</w>
D IS
ass essment</w>
b ond</w>
Li ver
im ed</w>
공유 하는</w>
Dre ams</w>
부 부</w>
Answ er</w>
Sp on
신뢰 를</w>
다이 오드</w>
프 라</w>
에서 나</w>
유니 버
r u</w>
정 식</w>
Musli ms</w>
ren e</w>
해야 합니까</w>
혁 신을</w>
땅 이</w>
g arian</w>
uni ted</w>
형 은</w>
Edin burgh</w>
느끼 게</w>
다 윗</w>
와 트</w>
Hous ing</w>
anti cip
particip ation</w>
F ed
av a</w>
te ens</w>
v on</w>
Co t
Con ditions</w>
Mach ines</w>
중심 은</w>
Ju an</w>
re tail</w>
마 우
aff airs</w>
대학 은</w>
선 사
Shemale Z</w>
hor ses</w>
insp iration</w>
inten se</w>
그래 야</w>
correspon ding</w>
citiz en</w>
syn chron
u ter
조 의</w>
s tic</w>
roll er</w>
복 종
Ceb u</w>
개 정
H ind
set up</w>
autom otive</w>
보여 주고</w>
할 로
ha ble</w>
오 카</w>
clo pedia</w>
예수 가</w>
코 리아</w>
command ments</w>
박 사
Re present
p an</w>
com ed</w>
des per
in um</w>
W et</w>
크리 스</w>
sec ondary</w>
보 아
숫 자를</w>
D anish</w>
Tr inity</w>
Job s</w>
니 를</w>
바 보</w>
bet a</w>
brea thing</w>
리 나</w>
Bor n</w>
이유 입니다</w>
애 굽
그 대를</w>
tri als</w>
her itage</w>
pri me</w>
R G</w>
Cre am</w>
Down loads</w>
m ans</w>
단 어는</w>
Cou pon</w>
imag ination</w>
low ed</w>
노 란</w>
불 가능한</w>
Amaz ing</w>
comb ine</w>
vit amin</w>
걸 음</w>
고 유</w>
연 령
Pa ul
바구 니</w>
설치 할</w>
w olf</w>
M AN
met res</w>
나타 날</w>
중 화
head ed</w>
accompl ished</w>
사용 하실</w>
sha ving</w>
니 에</w>
보 냅니다</w>
조 사에</w>
ad ays</w>
in dian</w>
배 로</w>
Al pha</w>
보 충</w>
추가 할</w>
V E
실 버</w>
Com ing</w>
Toyo ta</w>
diffic ulties</w>
크리스 탈</w>
person nel</w>
이것 들은</w>
Sw imming</w>
V eri
stric tly</w>
동 일</w>
ren t
와 도</w>
겠 느냐</w>
yn asty</w>
비 유
F IN
o a</w>
ur ious</w>
W as
있었 죠</w>
F CC</w>
comm ittee</w>
일주 일에</w>
작품 은</w>
T ut
Hebre ws</w>
사로 잡
loo p</w>
D uration</w>
경험 은</w>
마 태
M ill</w>
in tr
주 방</w>
B F</w>
Less on</w>
사 악한</w>
et t</w>
ac on</w>
inten do</w>
전문가 들은</w>
A Z
중요 성을</w>
Me dium</w>
Inst allation</w>
Won der
커넥 터</w>
modi fy</w>
탐 색</w>
기숙 사</w>
대 여</w>
Ex am
방 음</w>
N uclear</w>
동 적</w>
R ich</w>
on going</w>
R O</w>
Ar tec</w>
플러그 인</w>
사진 이</w>
Heal th
대 해
ro l
계 시</w>
Pass word</w>
S ure</w>
M AN</w>
호 를</w>
간 이</w>
Sap por
Foo t</w>
pa ired</w>
사이트 맵</w>
예약 을</w>
슨 의</w>
Med iter
하 버
Mar riage</w>
enti tled</w>
ack nowledge</w>
캠퍼 스</w>
row ing</w>
teach ings</w>
연 장</w>
피아 노</w>
N T
인터넷 에서</w>
L um
감 히</w>
incre dibly</w>
e uro
pi ano</w>
보 안을</w>
Dom ain</w>
하이 브리
학 사</w>
ec os
하 셔야</w>
o ya</w>
수준 에서</w>
G yeong
To ol
b low</w>
알 게
다 고
서 로에게</w>
뒤 를</w>
바 깥
음 이라</w>
E MS</w>
부 가
Flex ible</w>
빌 어</w>
타 워
N ick
Offic er</w>
spec ify</w>
컨텐 츠
행동 은</w>
세 이</w>
넣 고</w>
컨설 팅</w>
lat ter</w>
자유 분
house wife</w>
tain ers</w>
리 며</w>
요 일
초 대</w>
D ave</w>
슬 러</w>
스테 이</w>
상세 한</w>
C e
캐릭 터</w>
그녀 와</w>
ach el
reg ulation</w>
Cre ation</w>
앤 드
스 톤
comp ly</w>
노 스
Con stitution</w>
G RE
경 도</w>
페 인트</w>
La un
vulner able</w>
col um
s ad
모르 겠다</w>
Ev olution</w>
Po ker</w>
pass enger</w>
일 광
소 련
C om</w>
P F</w>
any on</w>
바 에</w>
위원 회는</w>
활 발
Cour tyard</w>
이었 으며</w>
해 제
N ation</w>
서 에서</w>
cont ribu
ge ous</w>
염 려
Le ather</w>
산 으로</w>
지 갑
chem istry</w>
T RA
convinc ed</w>
o dy</w>
w ell
손가 락</w>
누구 를</w>
성 읍
cat tle</w>
아 기를</w>
퍼 드</w>
ar row</w>
atter ed</w>
anc ement</w>
Cer tified</w>
이 날</w>
us ive</w>
이렇 게
J ason</w>
ar bit
축복 을</w>
인 천
아 연</w>
않 다고</w>
지 하</w>
편 이</w>
사 태
수 밖에</w>
선 과</w>
ano i</w>
곡 을</w>
머 리에</w>
유 익</w>
키 트</w>
반 면에</w>
N ylon</w>
T CP</w>
넘 게</w>
parti tion</w>
두 렵
W yn
Ken ne
캐 비
Log in</w>
양 말</w>
는 다고</w>
왕 을</w>
에 미리
ev al</w>
potenti ally</w>
분 배
Pi er
di al</w>
AR T
All en</w>
점 수</w>
Mo ving</w>
기간 을</w>
poss ession</w>
C row
di ans</w>
론 을</w>
dest iny</w>
오사 카
Bl essed</w>
accompl ish</w>
fif ty</w>
re ven
황 금</w>
선택 은</w>
Cha ir</w>
S can</w>
광 역시</w>
poc ket</w>
Af ter
Ex tract</w>
Sil icon</w>
CH F</w>
유 두</w>
미 만</w>
re form</w>
스럽 고</w>
scienti st</w>
스 캔</w>
re stor
아이 스크
이 산화
zz i</w>
책임 자</w>
pass port</w>
techn ological</w>
걸 립니다</w>
Cam bo
p sy
Phil adel
coun ting</w>
ic ate</w>
Nap ol
Sh in</w>
무한 한</w>
보여 준다</w>
Tra il</w>
격 려
COP Y
fore ig
한 때</w>
chec king</w>
식 기
nav ig
장 례
cr ash</w>
sem i</w>
충 전기</w>
ti ll
모습 이</w>
사회 가</w>
지 연
피 조
ma xim
원 들이</w>
자격 을</w>
a res</w>
ar ded</w>
Cy ber
min d
교육 의</w>
여 성을</w>
카탈 로그</w>
Gu y</w>
car toon</w>
jour nal</w>
크로 아티
wel comed</w>
현 황</w>
w p</w>
아니 한</w>
포트 폴리
방문 객
di abetes</w>
궁 전</w>
경 은</w>
월 의</w>
eg g</w>
과학 자</w>
중 지</w>
버 려</w>
영 문
ast ing</w>
dor f</w>
문제 로</w>
님 께</w>
사 에서</w>
워 크</w>
사 막
얇 은</w>
이 까</w>
우 편
V ice</w>
po le</w>
Relig ion</w>
붕 괴
Th an</w>
stro ke</w>
부 작용
val ley</w>
맞 춰</w>
위 로
있는 데요</w>
f t
Me ter</w>
가지 고
기 념</w>
ne utr
나아 가</w>
pack ers</w>
pe ak</w>
재 고</w>
정 교
Bo tan
민 간</w>
Sh all</w>
지니 고</w>
현 장에서</w>
con tra
있 습</w>
P W
할 인
Pho enix</w>
deri ved</w>
f ing</w>
Poly ester</w>
ol o</w>
캄 보
쾌 한</w>
di amond</w>
주 인이</w>
일 일</w>
be am</w>
step mom</w>
IE EE</w>
anc a</w>
되 죠</w>
ti re</w>
모 음</w>
manif est</w>
기 원</w>
백 과
Lin ks</w>
Th em
바닥 에</w>
Her oes</w>
prof its</w>
la tions</w>
말 하였다</w>
채 로</w>
te k</w>
Heal thy</w>
Le wis</w>
벨 브</w>
돼 지</w>
지 켜</w>
겠 네요</w>
C ari
Jer ry</w>
예 정</w>
J AP
b acks</w>
Apar thotel</w>
repent ance</w>
레이 드</w>
Lead ership</w>
conven tional</w>
선택 의</w>
학생 이</w>
밴 쿠
엄청 나게</w>
g el</w>
마케 팅
Al ber
제거 하는</w>
bour g</w>
emph as
커 니
m aps</w>
담 은</w>
수영 복</w>
야 지</w>
화 살
Commun ist</w>
Be hind</w>
이 십니다</w>
Be at
ate s
T own
타 락
CN Y</w>
Islam ic</w>
션 과</w>
기능 에</w>
경 기도</w>
라 리</w>
잉 크</w>
agg age</w>
찾아 보세요</w>
가 들은</w>
당 은</w>
형 이</w>
IF I</w>
쪽 은</w>
k en
Re qui
졸 업</w>
소 모
experi encing</w>
노 는</w>
절 연
수 여
마 실</w>
Bil ly</w>
Four th</w>
c ular</w>
un expected</w>
차 단</w>
글 은</w>
깨닫 게</w>
서 적</w>
란드 어</w>
vo ices</w>
하였 는데</w>
la tex</w>
안 에는</w>
chin ese</w>
decl are</w>
resid ence</w>
survi ved</w>
In ner</w>
head quarters</w>
wil derness</w>
그 램
형태 를</w>
심 천</w>
te sto
말씀 하신</w>
이루어 져</w>
W u
Gol d
되 기도</w>
레이 트</w>
Peri od</w>
To ys</w>
six th</w>
so ever</w>
비 서</w>
작동 하는</w>
K K</w>
occas ion</w>
encryp tion</w>
고 안
Pow ered</w>
Pri mary</w>
wa p</w>
차 량을</w>
Carol ina</w>
업그레이 드
H GH</w>
dimen sions</w>
지도 된</w>
Aff airs</w>
mer ch
E den</w>
remark able</w>
공동 체</w>
악 성</w>
key board</w>
관 해서</w>
기계 의</w>
장치 가</w>
K E</w>
교 류</w>
대답 은</w>
셔 도</w>
Brus sels</w>
대 상이</w>
작 년</w>
진 이</w>
맞 지</w>
Mat ch</w>
ph p</w>
V DC</w>
Del hi</w>
항문 핥기</w>
autom ation</w>
라이센 스</w>
과정 이</w>
Com petition</w>
ic op
진짜 로</w>
C ool</w>
않았 어요</w>
hop es</w>
고객 과</w>
펜 션</w>
Pen n
얘 기</w>
준비 하고</w>
매 개</w>
Cer tain
ap ple</w>
능력 은</w>
아크 릴</w>
Hy att</w>
엔 드</w>
데 는</w>
er ci
es tim
g ue</w>
s ound
Ex ternal</w>
auth ors</w>
승 인을</w>
지 붕
워 서</w>
네 스</w>
했 었다</w>
Hamp ton</w>
moun ted</w>
construc ted</w>
d are</w>
C on</w>
M ong
자 라</w>
주 먹
gri d</w>
으 니까</w>
Four square</w>
tis sue</w>
rail way</w>
scre w</w>
trem end
근본 적인</w>
to y</w>
G U
sy ste
부족 한</w>
크 래
Pate nt</w>
것 일</w>
Sen ior</w>
감 지기</w>
u o</w>
am o</w>
ER E</w>
re bel
간단 하게</w>
어려 울</w>
v ar</w>
매춘 부</w>
추천 합니다</w>
Al uminium</w>
전 국
Se par
전 부
장 착</w>
Philadel phia</w>
ir us</w>
se eds</w>
노 트</w>
더 럽
H anoi</w>
id en
K IN
Adv ant
무 지
YO UR</w>
Con duc
ach t</w>
compl ain</w>
표 본</w>
S ister</w>
규 제
예 산</w>
C lock</w>
종 합</w>
dres ser</w>
구 름</w>
월 부터</w>
in form</w>
않 을까</w>
I Z
Qur an</w>
K M</w>
바 가</w>
Wh it
미 술</w>
오토 바이</w>
오페 라</w>
im mer
경 로를</w>
consider ation</w>
ero tic</w>
or ph
E vil</w>
Minim um</w>
Power Point</w>
fem in
센터 는</w>
각 기</w>
날 마다</w>
주 면</w>
AU D</w>
Her o</w>
sen ds</w>
면 역
jo ke</w>
애 굽</w>
P et</w>
의미 는</w>
tut orial</w>
수 수</w>
표준 을</w>
T icket</w>
명확 하게</w>
환 불</w>
처 리를</w>
학 적인</w>
C ub
Rog er</w>
Sub ject</w>
주님 이</w>
N intendo</w>
Pl aying</w>
M ask</w>
o h
산 염</w>
스 톡
tic ism</w>
코 드
슬 프
ei ver</w>
ar ise</w>
in ding</w>
포르 노를</w>
M US
all er
embar rass
요소 는</w>
fil ters</w>
ear thquake</w>
C J</w>
력 으로</w>
rou ghly</w>
z z</w>
중 고</w>
Remo val</w>
sp ouse</w>
z en
구 속
르 의</w>
주 석</w>
원 활
Sn ap
다행 히</w>
comp osed</w>
ne ys</w>
즐거 워
p ments</w>
if ies</w>
가득 한</w>
Harb or</w>
s ile</w>
임 대
나 고
Sch ools</w>
강 연
인 수
c and
ed iting</w>
Expl ore</w>
tur ing</w>
물질 을</w>
대 응</w>
고속 도로</w>
Con ven
러 가</w>
성령 의</w>
SM T</w>
op en
pen alty</w>
되었 는데</w>
conver sations</w>
bom b</w>
인 프라
히 틀
L ounge</w>
mic ro</w>
나타 났습니다</w>
Jour ney</w>
자유분 방</w>
실제 로는</w>
Co ating</w>
re plic
터 스</w>
Th y</w>
ph ony</w>
In dependent</w>
음 료를</w>
Eff ect</w>
치 마
판매 를</w>
ist ure</w>
temper atures</w>
정부 에</w>
iss ance</w>
제품 입니다</w>
Col ors</w>
Work shop</w>
ra ising</w>
고양 이는</w>
j p</w>
을 지도</w>
bl ical</w>
Clou d
리 히</w>
관 측
inst alling</w>
De b
g ang</w>
ves sels</w>
현 명한</w>
Hawa ii</w>
컴퓨 팅</w>
하 지요</w>
하 면
ol is</w>
소프트웨 어의</w>
안테 나</w>
아파트 먼트</w>
re ign</w>
Jo int</w>
머물 고</w>
Ex tra</w>
In spec
건 지</w>
호르 몬
Nav igation</w>
dre w</w>
이동 합니다</w>
팔 을</w>
랑 이</w>
우 지</w>
주 최
Cab inet</w>
Inst all</w>
바다 의</w>
윤 리
rec re
발 이</w>
주 제에</w>
al ia</w>
다 리를</w>
마무 리</w>
A cid</w>
in ar</w>
학교 의</w>
Mediter ran
W ow</w>
스티 커</w>
국가 를</w>
attemp ts</w>
min ent</w>
집 중</w>
F T
수준 에</w>
Je ff</w>
호 환</w>
En d
나 가서</w>
무 릎
위치 에서</w>
Hun ter</w>
Let ter</w>
Trans lation</w>
입 으로</w>
공 부</w>
기업 에</w>
respon ses</w>
오 스</w>
세계 로</w>
bul k</w>
학생 들의</w>
att acked</w>
사랑 한다</w>
면 역</w>
Se p</w>
이야기 하고</w>
Exper t</w>
첨 가
Al bum</w>
테이블 에</w>
레 드
flex ibility</w>
H ad
al leg
카메라 를</w>
유 대</w>
긴 급</w>
시간 입니다</w>
주 요한</w>
애 틀</w>
E M</w>
on i</w>
컴퓨터 가</w>
느 낍
방식 에</w>
드라이 버
렌터 카</w>
Any thing</w>
pres erve</w>
이스탄 불</w>
Fuk uoka</w>
Un ity</w>
deli vering</w>
설 탕
Ukra inian</w>
작 고</w>
B L</w>
is ely</w>
화 와</w>
산 책
encour aged</w>
main taining</w>
P hil</w>
dimen sion</w>
speci fications</w>
크로 스</w>
웹사이트 에서</w>
시스템 과</w>
cul tiv
F I</w>
이동 하면</w>
Of ten</w>
sh r
드레스 룸</w>
요청 에</w>
끝 내
판매 용</w>
No tes</w>
Mol ecular</w>
남 의</w>
he y</w>
jo ining</w>
수 단</w>
aband oned</w>
Con gratulations</w>
키 아</w>
in ted</w>
아시아 인</w>
부모 는</w>
수 족
che ese</w>
민감 한</w>
요 약
in sight</w>
sk y
as leep</w>
medi ate</w>
정의 를</w>
처 벌
Si x
Cre ating</w>
ad dic
ten sion</w>
되었 는지</w>
S phere</w>
B right</w>
히 브리</w>
Cam pus</w>
Mi xed</w>
refuge es</w>
Produc ts
Rel ation
cor n</w>
su le</w>
여 는</w>
F AR
load er</w>
쇼 를</w>
[...]
